{
  "version": "1.0",
  "truncation": null,
  "padding": null,
  "added_tokens": [
    {
      "id": 0,
      "content": "<unk>",
      "single_word": false,
      "lstrip": false,
      "rstrip": false,
      "normalized": false,
      "special": true
    },
    {
      "id": 1,
      "content": "<pad>",
      "single_word": false,
      "lstrip": false,
      "rstrip": false,
      "normalized": false,
      "special": true
    }
  ],
  "normalizer": null,
  "pre_tokenizer": {
    "type": "ByteLevel",
    "add_prefix_space": false,
    "trim_offsets": true,
    "use_regex": true
  },
  "post_processor": {
    "type": "TemplateProcessing",
    "single": [
      {
        "Sequence": {
          "id": "A",
          "type_id": 0
        }
      }
    ],
    "pair": [
      {
        "Sequence": {
          "id": "A",
          "type_id": 0
        }
      },
      {
        "Sequence": {
          "id": "B",
          "type_id": 0
        }
      }
    ],
    "special_tokens": {
      "<unk>": {
        "id": "<unk>",
        "ids": [
          0
        ],
        "tokens": [
          "<unk>"
        ]
      }
    }
  },
  "decoder": null,
  "model": {
    "type": "BPE",
    "dropout": null,
    "unk_token": "<unk>",
    "continuing_subword_prefix": null,
    "end_of_word_suffix": null,
    "fuse_unk": false,
    "byte_fallback": false,
    "ignore_merges": false,
    "vocab": {
      "<unk>": 0,
      "<pad>": 1,
      "!": 2,
      "\"": 3,
      "#": 4,
      "$": 5,
      "%": 6,
      "&": 7,
      "'": 8,
      "(": 9,
      ")": 10,
      "*": 11,
      "+": 12,
      ",": 13,
      "-": 14,
      ".": 15,
      "/": 16,
      "0": 17,
      "1": 18,
      "2": 19,
      "3": 20,
      "4": 21,
      "5": 22,
      "6": 23,
      "7": 24,
      "8": 25,
      "9": 26,
      ":": 27,
      ";": 28,
      "<": 29,
      "=": 30,
      ">": 31,
      "?": 32,
      "@": 33,
      "A": 34,
      "B": 35,
      "C": 36,
      "D": 37,
      "E": 38,
      "F": 39,
      "G": 40,
      "H": 41,
      "I": 42,
      "J": 43,
      "K": 44,
      "L": 45,
      "M": 46,
      "N": 47,
      "O": 48,
      "P": 49,
      "Q": 50,
      "R": 51,
      "S": 52,
      "T": 53,
      "U": 54,
      "V": 55,
      "W": 56,
      "X": 57,
      "Y": 58,
      "Z": 59,
      "[": 60,
      "\\": 61,
      "]": 62,
      "^": 63,
      "_": 64,
      "`": 65,
      "a": 66,
      "b": 67,
      "c": 68,
      "d": 69,
      "e": 70,
      "f": 71,
      "g": 72,
      "h": 73,
      "i": 74,
      "j": 75,
      "k": 76,
      "l": 77,
      "m": 78,
      "n": 79,
      "o": 80,
      "p": 81,
      "q": 82,
      "r": 83,
      "s": 84,
      "t": 85,
      "u": 86,
      "v": 87,
      "w": 88,
      "x": 89,
      "y": 90,
      "z": 91,
      "|": 92,
      "}": 93,
      "~": 94,
      "¡": 95,
      "¢": 96,
      "£": 97,
      "¤": 98,
      "¥": 99,
      "¦": 100,
      "§": 101,
      "¨": 102,
      "©": 103,
      "ª": 104,
      "«": 105,
      "¬": 106,
      "®": 107,
      "¯": 108,
      "°": 109,
      "±": 110,
      "²": 111,
      "³": 112,
      "´": 113,
      "µ": 114,
      "¶": 115,
      "·": 116,
      "¸": 117,
      "¹": 118,
      "º": 119,
      "»": 120,
      "¼": 121,
      "½": 122,
      "¾": 123,
      "¿": 124,
      "Â": 125,
      "Ã": 126,
      "Ä": 127,
      "Å": 128,
      "Æ": 129,
      "Ç": 130,
      "È": 131,
      "É": 132,
      "Ê": 133,
      "Ë": 134,
      "Ì": 135,
      "Í": 136,
      "Î": 137,
      "Ï": 138,
      "Ð": 139,
      "Ñ": 140,
      "Ò": 141,
      "Ó": 142,
      "Ô": 143,
      "Õ": 144,
      "Ö": 145,
      "×": 146,
      "Ø": 147,
      "Ù": 148,
      "Ú": 149,
      "Û": 150,
      "Ü": 151,
      "ß": 152,
      "à": 153,
      "á": 154,
      "â": 155,
      "ã": 156,
      "ä": 157,
      "å": 158,
      "æ": 159,
      "ç": 160,
      "è": 161,
      "é": 162,
      "ê": 163,
      "ë": 164,
      "ì": 165,
      "í": 166,
      "î": 167,
      "ï": 168,
      "ð": 169,
      "Ċ": 170,
      "Ġ": 171,
      "Ģ": 172,
      "ģ": 173,
      "Ĥ": 174,
      "ĥ": 175,
      "Ħ": 176,
      "ħ": 177,
      "Ĩ": 178,
      "ĩ": 179,
      "Ī": 180,
      "ī": 181,
      "Ĭ": 182,
      "ĭ": 183,
      "Į": 184,
      "į": 185,
      "İ": 186,
      "ı": 187,
      "Ĳ": 188,
      "ĳ": 189,
      "Ĵ": 190,
      "ĵ": 191,
      "Ķ": 192,
      "ķ": 193,
      "ĸ": 194,
      "Ĺ": 195,
      "ĺ": 196,
      "Ļ": 197,
      "ļ": 198,
      "Ľ": 199,
      "ľ": 200,
      "Ŀ": 201,
      "ŀ": 202,
      "Ł": 203,
      "ł": 204,
      "Ń": 205,
      "Ġt": 206,
      "Ġa": 207,
      "he": 208,
      "in": 209,
      "re": 210,
      "on": 211,
      "Ġthe": 212,
      "er": 213,
      "Ġs": 214,
      "Ġw": 215,
      "at": 216,
      "Ġo": 217,
      "nd": 218,
      "Ġc": 219,
      "it": 220,
      "or": 221,
      "is": 222,
      "en": 223,
      "es": 224,
      "Ġf": 225,
      "Ġb": 226,
      "ou": 227,
      "ing": 228,
      "Ġp": 229,
      "ed": 230,
      "an": 231,
      "al": 232,
      "Ġto": 233,
      "ar": 234,
      "Ġm": 235,
      "Ġof": 236,
      "Ġand": 237,
      "Ġin": 238,
      "Ġd": 239,
      "ic": 240,
      "Ġh": 241,
      "as": 242,
      "le": 243,
      "Ġth": 244,
      "om": 245,
      "ion": 246,
      "ll": 247,
      "ĠT": 248,
      "ent": 249,
      "ĠI": 250,
      "Ġl": 251,
      "Ġn": 252,
      "st": 253,
      "ve": 254,
      "Ġre": 255,
      "Ġe": 256,
      "ro": 257,
      "Ġg": 258,
      "ĠS": 259,
      "âĢ": 260,
      "ly": 261,
      "Ġbe": 262,
      "ĠA": 263,
      "ct": 264,
      "ut": 265,
      "ĠC": 266,
      "ot": 267,
      "id": 268,
      "Ġy": 269,
      "ay": 270,
      "et": 271,
      "Ġon": 272,
      "Ġis": 273,
      "Ġfor": 274,
      "ow": 275,
      "am": 276,
      "ad": 277,
      "se": 278,
      "ur": 279,
      "ig": 280,
      "im": 281,
      "ac": 282,
      "Ġthat": 283,
      "ĠM": 284,
      "ver": 285,
      "Ġyou": 286,
      "Ġu": 287,
      "il": 288,
      "ol": 289,
      "Ġst": 290,
      "ation": 291,
      "ith": 292,
      "ĠB": 293,
      "ir": 294,
      "Ġhe": 295,
      "ĠP": 296,
      "Ġit": 297,
      "Ġwith": 298,
      "ce": 299,
      "ĠThe": 300,
      "ch": 301,
      "ĠW": 302,
      "Ġwe": 303,
      "Ġwh": 304,
      "ter": 305,
      "ill": 306,
      "Ġan": 307,
      "ĠH": 308,
      "Ġas": 309,
      "ĠD": 310,
      "ĠF": 311,
      "âĢĻ": 312,
      "ers": 313,
      "ke": 314,
      "ra": 315,
      "Ġ1": 316,
      "ld": 317,
      "ĠR": 318,
      "Ġha": 319,
      "if": 320,
      "Ġat": 321,
      "Ġpro": 322,
      "ge": 323,
      "her": 324,
      "Ġcon": 325,
      "Ġare": 326,
      "Ġ2": 327,
      "oo": 328,
      "ate": 329,
      "Ġse": 330,
      "ri": 331,
      "Ġwas": 332,
      "pp": 333,
      "Ġ(": 334,
      "Ġor": 335,
      "ore": 336,
      "ul": 337,
      "ĠL": 338,
      "Ġcom": 339,
      "ĠN": 340,
      "ment": 341,
      "igh": 342,
      "Ġde": 343,
      "th": 344,
      "est": 345,
      "us": 346,
      "ess": 347,
      "rom": 348,
      "ist": 349,
      "ĠG": 350,
      "ew": 351,
      "un": 352,
      "ab": 353,
      "'s": 354,
      "pe": 355,
      "Ġr": 356,
      "Ġ-": 357,
      "ĠE": 358,
      "res": 359,
      "ĠO": 360,
      "Ġex": 361,
      "em": 362,
      "ity": 363,
      "Ġhave": 364,
      "Ġv": 365,
      "ant": 366,
      "Ġsu": 367,
      "op": 368,
      "Ġthis": 369,
      "Ġnot": 370,
      "ive": 371,
      "qu": 372,
      "ĠâĢ": 373,
      "Ġby": 374,
      "Ġfrom": 375,
      "ort": 376,
      "art": 377,
      "ain": 378,
      "Ġsh": 379,
      "el": 380,
      "nt": 381,
      "ust": 382,
      "os": 383,
      "oc": 384,
      "ight": 385,
      "and": 386,
      "um": 387,
      "ĠJ": 388,
      "ies": 389,
      "00": 390,
      "all": 391,
      "Ġal": 392,
      "Ġch": 393,
      "ould": 394,
      "ard": 395,
      "out": 396,
      "Ġle": 397,
      "ear": 398,
      "ud": 399,
      "Ġwill": 400,
      "Ġ\"": 401,
      "ome": 402,
      "Ġab": 403,
      "our": 404,
      "gh": 405,
      "red": 406,
      "ast": 407,
      "ost": 408,
      "Ġcan": 409,
      "iv": 410,
      "Ġpl": 411,
      "ack": 412,
      "ally": 413,
      "Ġj": 414,
      "Ġdo": 415,
      "Ġwor": 416,
      "te": 417,
      "Ġyour": 418,
      "Ġall": 419,
      "od": 420,
      "rou": 421,
      "ak": 422,
      "ag": 423,
      "Ġbut": 424,
      "Ġhas": 425,
      "ĠU": 426,
      "Ġk": 427,
      "ide": 428,
      "ine": 429,
      "ie": 430,
      "ĠTh": 431,
      "..": 432,
      "Ġme": 433,
      "Ġwhe": 434,
      "Ġne": 435,
      "ice": 436,
      "ff": 437,
      "ĠIn": 438,
      "ure": 439,
      "pt": 440,
      "Ġout": 441,
      "Ġhis": 442,
      "Ġsa": 443,
      "ther": 444,
      "ich": 445,
      "per": 446,
      "ction": 447,
      "ial": 448,
      "Ġup": 449,
      "Ġthey": 450,
      "age": 451,
      "Ġad": 452,
      "one": 453,
      "ook": 454,
      "ame": 455,
      "ry": 456,
      "pl": 457,
      "Ġus": 458,
      "og": 459,
      "ĠâĢľ": 460,
      "âĢĿ": 461,
      "ong": 462,
      "Ġmore": 463,
      "Ġso": 464,
      "Ġtheir": 465,
      "are": 466,
      "ind": 467,
      "Ġone": 468,
      "Ġmy": 469,
      "ake": 470,
      "ood": 471,
      "Ġwho": 472,
      "ĠK": 473,
      "Ġte": 474,
      "ated": 475,
      "very": 476,
      "ber": 477,
      "ime": 478,
      "ans": 479,
      "ike": 480,
      "ous": 481,
      "ip": 482,
      "Ġabout": 483,
      "ĠSt": 484,
      "Ġcomp": 485,
      "ite": 486,
      "Ġen": 487,
      "Ġcl": 488,
      "able": 489,
      "Ġgo": 490,
      "ĠY": 491,
      "cc": 492,
      "iz": 493,
      "orm": 494,
      "Ġcont": 495,
      "ect": 496,
      "ru": 497,
      "Ġim": 498,
      "Ġoff": 499,
      "ia": 500,
      "ks": 501,
      "cl": 502,
      "ace": 503,
      "ions": 504,
      "ary": 505,
      "01": 506,
      "so": 507,
      "Ġman": 508,
      "ĠV": 509,
      "ub": 510,
      "Ġyear": 511,
      "ire": 512,
      "Ġwhich": 513,
      "ase": 514,
      "ĠCh": 515,
      "ree": 516,
      "ĠIt": 517,
      "ail": 518,
      "Ġ3": 519,
      "ap": 520,
      "Ġres": 521,
      "ance": 522,
      "ays": 523,
      "au": 524,
      "Ġper": 525,
      "ven": 526,
      "Ġhad": 527,
      "act": 528,
      "ib": 529,
      "du": 530,
      "Ġother": 531,
      "ach": 532,
      "ass": 533,
      "Ġsaid": 534,
      "ign": 535,
      "Ġint": 536,
      "Ġour": 537,
      "ep": 538,
      "Ġapp": 539,
      "ick": 540,
      "Ġag": 541,
      "Ġwere": 542,
      "Ġlike": 543,
      "ue": 544,
      "ations": 545,
      "ond": 546,
      "reat": 547,
      "Ġany": 548,
      "Ġwould": 549,
      "Ġqu": 550,
      "ord": 551,
      "Ġbeen": 552,
      "ĠHe": 553,
      "Ġsome": 554,
      "Ġun": 555,
      "'t": 556,
      "ount": 557,
      "Ġnew": 558,
      "own": 559,
      "Ġdis": 560,
      "ult": 561,
      "ical": 562,
      "ile": 563,
      "Ġtime": 564,
      "Ġget": 565,
      "ress": 566,
      "Ġkn": 567,
      "ove": 568,
      "Ġthere": 569,
      "ĠWe": 570,
      "ough": 571,
      "ose": 572,
      "Ġsp": 573,
      "Ġher": 574,
      "form": 575,
      "Ġover": 576,
      "Ġthem": 577,
      "erv": 578,
      "ings": 579,
      "Ġpart": 580,
      "Ġar": 581,
      "Ġwhen": 582,
      "Ġalso": 583,
      "ence": 584,
      "Ġsc": 585,
      "av": 586,
      "mer": 587,
      "Ġtr": 588,
      "Ġrec": 589,
      "Ġpe": 590,
      "Ġjust": 591,
      "Ġwhat": 592,
      "fe": 593,
      "ark": 594,
      "Ġthan": 595,
      "int": 596,
      "irst": 597,
      "ound": 598,
      "Ġwork": 599,
      "Ġ201": 600,
      "ition": 601,
      "vel": 602,
      "Ġif": 603,
      "ors": 604,
      "ink": 605,
      "ents": 606,
      "ens": 607,
      "ren": 608,
      "Ġfe": 609,
      "ob": 610,
      "Ġtw": 611,
      "Ġbec": 612,
      "Ġpre": 613,
      "port": 614,
      "Ġro": 615,
      "wn": 616,
      "Ġspe": 617,
      "ory": 618,
      "fter": 619,
      "ish": 620,
      "ild": 621,
      "Ġinto": 622,
      "itt": 623,
      "ople": 624,
      "ne": 625,
      "ĠThis": 626,
      "Ġits": 627,
      "vers": 628,
      "Ġfirst": 629,
      "ck": 630,
      "lic": 631,
      "Ġ4": 632,
      "ov": 633,
      "ade": 634,
      "Ġ19": 635,
      "nder": 636,
      "oy": 637,
      "day": 638,
      "Ġam": 639,
      "Ġ200": 640,
      "Ġshe": 641,
      "ning": 642,
      "Ġno": 643,
      "old": 644,
      "ons": 645,
      "ĠRe": 646,
      "Ġco": 647,
      "hed": 648,
      "rough": 649,
      "Ġpeople": 650,
      "Ġacc": 651,
      "ater": 652,
      "ang": 653,
      "amp": 654,
      "clud": 655,
      "Ġhow": 656,
      "Ġbl": 657,
      "Ġ5": 658,
      "ates": 659,
      "Ġonly": 660,
      "ian": 661,
      "ause": 662,
      "Ġtwo": 663,
      "Ġpo": 664,
      "Ġmay": 665,
      "ft": 666,
      "Ġcomm": 667,
      "ĠWh": 668,
      "we": 669,
      "Ġneed": 670,
      "Ġknow": 671,
      "ious": 672,
      "ric": 673,
      "anc": 674,
      "Ġback": 675,
      "ull": 676,
      "Ġdes": 677,
      "Ġplay": 678,
      "end": 679,
      "ments": 680,
      "hing": 681,
      "ual": 682,
      "Ġadd": 683,
      "iss": 684,
      "Ġlook": 685,
      "tern": 686,
      "gr": 687,
      "Ġinclud": 688,
      "Ġbet": 689,
      "iew": 690,
      "Ġafter": 691,
      "Ġsee": 692,
      "...": 693,
      "Ġmost": 694,
      "Ġhim": 695,
      "ph": 696,
      "ĠAnd": 697,
      "ĠAs": 698,
      ").": 699,
      "Ġmake": 700,
      "Ġcould": 701,
      "round": 702,
      "les": 703,
      "ily": 704,
      "aw": 705,
      "Ġwant": 706,
      "Ġevery": 707,
      "Ġthrough": 708,
      "Ġfl": 709,
      "rent": 710,
      "com": 711,
      "Ġem": 712,
      "Ġprov": 713,
      "ĠSe": 714,
      ".\"": 715,
      "Ġunder": 716,
      "sel": 717,
      "Ġdid": 718,
      "ise": 719,
      "ĠUn": 720,
      "Ġact": 721,
      "Ġind": 722,
      "xt": 723,
      "oll": 724,
      "urn": 725,
      "Ġcons": 726,
      "Ġ|": 727,
      "Ġthese": 728,
      "ool": 729,
      "Ġ$": 730,
      "Ġyears": 731,
      "ational": 732,
      "Ġwell": 733,
      "fore": 734,
      "ĠYou": 735,
      "ont": 736,
      "uch": 737,
      "Ġnow": 738,
      "Ġhel": 739,
      "ating": 740,
      "Ġgood": 741,
      "Ġph": 742,
      "ities": 743,
      "Ġvery": 744,
      "row": 745,
      "Ġuse": 746,
      "Ġbu": 747,
      "ock": 748,
      "ĠAn": 749,
      "Ġhelp": 750,
      "ĠIf": 751,
      "Ġeven": 752,
      "ĠCom": 753,
      "Ġ6": 754,
      "ts": 755,
      "Ġright": 756,
      "Ġsec": 757,
      "Ġprodu": 758,
      "Ġthen": 759,
      "ife": 760,
      "ĠBut": 761,
      "enc": 762,
      "ident": 763,
      "pect": 764,
      "Ġdon": 765,
      "lect": 766,
      "Ġway": 767,
      "ting": 768,
      "Ġinv": 769,
      "als": 770,
      "Ġreg": 771,
      "Ġstud": 772,
      "Ġthink": 773,
      "Ġbecause": 774,
      "hen": 775,
      "Ġpr": 776,
      "ject": 777,
      "rit": 778,
      "Ġserv": 779,
      "ĠDe": 780,
      "ĠNew": 781,
      "Ġsupp": 782,
      "Ġmany": 783,
      "Ġsy": 784,
      "Ġgu": 785,
      "Ġagain": 786,
      "Ġwhere": 787,
      "Ġshould": 788,
      "Ġev": 789,
      "oth": 790,
      "Ġrem": 791,
      "Ġrel": 792,
      "ific": 793,
      "Ġtoo": 794,
      "ty": 795,
      "Ġcol": 796,
      "rib": 797,
      "ason": 798,
      "oss": 799,
      "ied": 800,
      "ward": 801,
      "ange": 802,
      "Ġimp": 803,
      "man": 804,
      "aking": 805,
      "Ġinc": 806,
      "Ġfin": 807,
      "),": 808,
      "ert": 809,
      "Ġdif": 810,
      "ased": 811,
      "ath": 812,
      "Ġass": 813,
      "Ġdown": 814,
      "Ġmuch": 815,
      "other": 816,
      "ful": 817,
      "ited": 818,
      "Ġgreat": 819,
      "formation": 820,
      "ict": 821,
      "Ġke": 822,
      "erson": 823,
      "Ġsm": 824,
      "Ġatt": 825,
      "olog": 826,
      "up": 827,
      "get": 828,
      "ĠâĢĵ": 829,
      "ĠAl": 830,
      "Ġown": 831,
      "Ġwee": 832,
      "Ġshow": 833,
      "Ġent": 834,
      "und": 835,
      "uring": 836,
      "ble": 837,
      "Ġtra": 838,
      "Ġlast": 839,
      "Ġstart": 840,
      "ork": 841,
      ",\"": 842,
      "Ġhere": 843,
      "chool": 844,
      "bs": 845,
      "ible": 846,
      "ility": 847,
      "ures": 848,
      "ĠFor": 849,
      "Ġ7": 850,
      "ell": 851,
      "Ġsuch": 852,
      "ĠPro": 853,
      "its": 854,
      "Ġpres": 855,
      "Ġthose": 856,
      "hes": 857,
      "ower": 858,
      "cess": 859,
      "Ġcall": 860,
      "ics": 861,
      ".âĢĿ": 862,
      "Ġdoes": 863,
      "ys": 864,
      "arch": 865,
      "ative": 866,
      "ublic": 867,
      "Ġmade": 868,
      "Ġbefore": 869,
      "stem": 870,
      "ular": 871,
      "Ġac": 872,
      "Ġlong": 873,
      "omet": 874,
      "air": 875,
      "hip": 876,
      "ms": 877,
      "Ġdec": 878,
      "ix": 879,
      "Ġ10": 880,
      "ener": 881,
      "The": 882,
      "ues": 883,
      "Ġset": 884,
      "Ġend": 885,
      "ner": 886,
      "Ġread": 887,
      "Ġ8": 888,
      "ci": 889,
      "Ġmon": 890,
      "Ġinst": 891,
      "iness": 892,
      "Ġday": 893,
      "gan": 894,
      "Ġbeing": 895,
      "Ġinte": 896,
      "gram": 897,
      "Ġbel": 898,
      "Ġhigh": 899,
      "Ġpol": 900,
      "ices": 901,
      "alk": 902,
      "velop": 903,
      "io": 904,
      "ract": 905,
      "Ġeff": 906,
      "Ġtake": 907,
      "meric": 908,
      "Ġspec": 909,
      "Ġmin": 910,
      "Ġinformation": 911,
      "any": 912,
      "alth": 913,
      "ank": 914,
      "Ġfind": 915,
      "rest": 916,
      "Ġsur": 917,
      "ĠSh": 918,
      "Ġcar": 919,
      "way": 920,
      "pr": 921,
      "Ġ&": 922,
      "ince": 923,
      "Ġmem": 924,
      "Ġpoint": 925,
      "ax": 926,
      "oun": 927,
      "Ġear": 928,
      "Ġsay": 929,
      "Ġbr": 930,
      "Ġra": 931,
      "Ġbus": 932,
      "ins": 933,
      "Ġgoing": 934,
      "Ġop": 935,
      "Ġworld": 936,
      "Ġreally": 937,
      "Ġloc": 938,
      "ollow": 939,
      "ced": 940,
      "ually": 941,
      "Ġexper": 942,
      "ĠBe": 943,
      "Ġfam": 944,
      "Ġ9": 945,
      "Ġthough": 946,
      "ah": 947,
      "ĠCl": 948,
      "Ġteam": 949,
      "ave": 950,
      "ather": 951,
      "land": 952,
      "ivers": 953,
      "ĠAmeric": 954,
      "Ġcount": 955,
      "ng": 956,
      "ĠAr": 957,
      "Ġsub": 958,
      "Ġche": 959,
      "ces": 960,
      "imes": 961,
      "Ġins": 962,
      "Ġlead": 963,
      "Ġwhile": 964,
      "Ġstill": 965,
      "self": 966,
      "Ġrun": 967,
      "atch": 968,
      "Ġav": 969,
      "Ġthree": 970,
      "Ġhand": 971,
      "||": 972,
      "ĠLe": 973,
      "az": 974,
      "Ġdiffe": 975,
      "Ġret": 976,
      "Ġinter": 977,
      "read": 978,
      "Ġcour": 979,
      "led": 980,
      "Ġsystem": 981,
      "ving": 982,
      "Ġrequ": 983,
      "Ġperson": 984,
      "Ġart": 985,
      "irect": 986,
      "ouse": 987,
      "ton": 988,
      "view": 989,
      "ives": 990,
      "Ġused": 991,
      "Ġgr": 992,
      "Ġchar": 993,
      "ets": 994,
      "Ġhome": 995,
      "Ġstate": 996,
      "ex": 997,
      "Ġbest": 998,
      "roup": 999,
      "ĠThey": 1000,
      "Ġed": 1001,
      "Ġsomet": 1002,
      "Ġeach": 1003,
      "Ġser": 1004,
      "Ġsim": 1005,
      "ĠSo": 1006,
      "ros": 1007,
      "ĠThere": 1008,
      "Ġnum": 1009,
      ",âĢĿ": 1010,
      "ittle": 1011,
      "ters": 1012,
      "ars": 1013,
      "ier": 1014,
      "Ġdevelop": 1015,
      "gg": 1016,
      "akes": 1017,
      "Ġgame": 1018,
      "cept": 1019,
      "Ġprogram": 1020,
      "Ġmed": 1021,
      "ution": 1022,
      "ered": 1023,
      "Ġsame": 1024,
      "Ġaround": 1025,
      "ĠAd": 1026,
      "ved": 1027,
      "Ġsl": 1028,
      "ames": 1029,
      "ale": 1030,
      "Ġtrans": 1031,
      "lease": 1032,
      "ience": 1033,
      "Ġpost": 1034,
      "Ġdisc": 1035,
      "vern": 1036,
      "ines": 1037,
      "Ġlife": 1038,
      "ĠOn": 1039,
      "Ġfollow": 1040,
      "riend": 1041,
      "Ġfound": 1042,
      "oh": 1043,
      "Ġchild": 1044,
      "ween": 1045,
      "Ġmod": 1046,
      "cent": 1047,
      "ute": 1048,
      "Ġcur": 1049,
      "000": 1050,
      "Ġboth": 1051,
      "Ġmark": 1052,
      "oot": 1053,
      "Ġreal": 1054,
      "ists": 1055,
      "ash": 1056,
      "Ġvis": 1057,
      "Ġsign": 1058,
      "ctions": 1059,
      "Ġdet": 1060,
      "ĠAll": 1061,
      "Ġdef": 1062,
      "ness": 1063,
      "chn": 1064,
      "ene": 1065,
      "ple": 1066,
      "Ġcre": 1067,
      "unity": 1068,
      "Ġcare": 1069,
      "der": 1070,
      "uc": 1071,
      "line": 1072,
      "iet": 1073,
      "Ġbook": 1074,
      "ĠFr": 1075,
      "ages": 1076,
      "Ġfew": 1077,
      "Ġbetween": 1078,
      "ever": 1079,
      "Ġexp": 1080,
      "Ġstr": 1081,
      "Ġsupport": 1082,
      "Ġreport": 1083,
      "Ġlittle": 1084,
      "Ġbusiness": 1085,
      "orn": 1086,
      "min": 1087,
      "Ġi": 1088,
      "ĠHow": 1089,
      "Ġaut": 1090,
      "Ġprovid": 1091,
      "Ġcomple": 1092,
      "ense": 1093,
      "ĠBl": 1094,
      "Ġrep": 1095,
      "ĠShe": 1096,
      "Ġgot": 1097,
      "ient": 1098,
      "Ġ--": 1099,
      "ield": 1100,
      "Ġsecond": 1101,
      "Ġadv": 1102,
      "Ġschool": 1103,
      "Ġhapp": 1104,
      "arm": 1105,
      "ize": 1106,
      "con": 1107,
      "Ġdesign": 1108,
      "Ġ'": 1109,
      "Ġlot": 1110,
      "bers": 1111,
      "Ġ12": 1112,
      "Ġbo": 1113,
      "Ġ0": 1114,
      "Ġplace": 1115,
      "Ġmonth": 1116,
      "Ġfil": 1117,
      "Ġtop": 1118,
      "ention": 1119,
      "Ġgl": 1120,
      "ized": 1121,
      "Ġ2012": 1122,
      "Ġfeel": 1123,
      "illion": 1124,
      "ves": 1125,
      "Ġlar": 1126,
      "ished": 1127,
      "Ġput": 1128,
      "ug": 1129,
      "ĠIs": 1130,
      "thing": 1131,
      "Ġgener": 1132,
      "Ġter": 1133,
      "Ġduring": 1134,
      "ired": 1135,
      "Ġform": 1136,
      "ways": 1137,
      "ĠAt": 1138,
      "Ġproduct": 1139,
      "Ġopen": 1140,
      "Ġcle": 1141,
      "cer": 1142,
      "Ġcome": 1143,
      "ants": 1144,
      "Ġthings": 1145,
      "Ġanother": 1146,
      "ody": 1147,
      "ĠQ": 1148,
      "Ġweek": 1149,
      "Ġbig": 1150,
      "Ġnext": 1151,
      "son": 1152,
      "Ġsk": 1153,
      "Ġlove": 1154,
      "Ġdifferent": 1155,
      "Ġiss": 1156,
      "ĠThat": 1157,
      "Ġpass": 1158,
      "Ġagainst": 1159,
      "Ġhead": 1160,
      "Ġlist": 1161,
      "Ġcr": 1162,
      "Ġfact": 1163,
      "ailable": 1164,
      "ital": 1165,
      "be": 1166,
      "Ġcontin": 1167,
      "Ġfr": 1168,
      "att": 1169,
      "ger": 1170,
      "Ġmet": 1171,
      "less": 1172,
      "Ġwin": 1173,
      "Ġpur": 1174,
      "Ġquest": 1175,
      "Ġdist": 1176,
      "Ġpublic": 1177,
      "Ġfull": 1178,
      "ology": 1179,
      "Ġsince": 1180,
      "Ġtri": 1181,
      "ĠWhat": 1182,
      "ision": 1183,
      "atur": 1184,
      "Ġmust": 1185,
      "ĠTo": 1186,
      "Ġplan": 1187,
      "Ġfree": 1188,
      "Ġsomething": 1189,
      "Ġappro": 1190,
      "Ġeas": 1191,
      "Ġext": 1192,
      "Ġincluding": 1193,
      "Ġfun": 1194,
      "ĠâĢĶ": 1195,
      "Ġgroup": 1196,
      "Ġinterest": 1197,
      "Ġtry": 1198,
      "Ġob": 1199,
      "ross": 1200,
      "Ġpartic": 1201,
      "'re": 1202,
      "Ġnever": 1203,
      "Ġbetter": 1204,
      "Ġcent": 1205,
      "Ġsays": 1206,
      "Ġfour": 1207,
      "ĠPh": 1208,
      "Ġresp": 1209,
      "Ġref": 1210,
      "Ġkeep": 1211,
      "iversity": 1212,
      "arn": 1213,
      "ĠPl": 1214,
      "ature": 1215,
      "ĠChr": 1216,
      "Ġfriend": 1217,
      "Ġpri": 1218,
      "Ġrest": 1219,
      "Ġ11": 1220,
      "'m": 1221,
      "ically": 1222,
      "Ġrece": 1223,
      "ott": 1224,
      "reen": 1225,
      "ik": 1226,
      "aj": 1227,
      "uss": 1228,
      "Ġstand": 1229,
      "Ġprof": 1230,
      "Ġwithout": 1231,
      "ared": 1232,
      "Ġbro": 1233,
      "Ġask": 1234,
      "Ġ18": 1235,
      "ata": 1236,
      "Ġmov": 1237,
      "rence": 1238,
      "ĠCol": 1239,
      "Ġhard": 1240,
      "iving": 1241,
      "Ġlaw": 1242,
      "Ġconf": 1243,
      "Ġcor": 1244,
      "Ġallow": 1245,
      "Ġposs": 1246,
      "ER": 1247,
      "Ġavailable": 1248,
      "Ġopp": 1249,
      "ĠNo": 1250,
      "ĠCon": 1251,
      "Ġimport": 1252,
      "Ġ.": 1253,
      "Ġwr": 1254,
      "ĠEx": 1255,
      "Ġdirect": 1256,
      "Ġlet": 1257,
      "oad": 1258,
      "gy": 1259,
      "Ġsmall": 1260,
      "rand": 1261,
      "ĠOr": 1262,
      "ional": 1263,
      "Ġresult": 1264,
      "Ġproble": 1265,
      "Ġwom": 1266,
      "Ġprocess": 1267,
      "ĠMay": 1268,
      "ĠWhen": 1269,
      "Ġgovern": 1270,
      "ism": 1271,
      "ering": 1272,
      "Ġ[": 1273,
      "ird": 1274,
      "Ġhealth": 1275,
      "ately": 1276,
      "ĠTe": 1277,
      "ret": 1278,
      "Ġtechn": 1279,
      "Ġseem": 1280,
      "Ġold": 1281,
      "Ġseason": 1282,
      "ards": 1283,
      "Ġmight": 1284,
      ".,": 1285,
      "Ġalways": 1286,
      "Ġ20": 1287,
      "Ġpat": 1288,
      "Ġmus": 1289,
      "Ġdri": 1290,
      "the": 1291,
      "ww": 1292,
      "Ġinf": 1293,
      "Ġunt": 1294,
      "Ġfamily": 1295,
      "ploy": 1296,
      "Ġusing": 1297,
      "Ġnumber": 1298,
      "ined": 1299,
      "Ġclass": 1300,
      "ee": 1301,
      "ample": 1302,
      "ĠComm": 1303,
      "Ġpower": 1304,
      "ĠInd": 1305,
      "ality": 1306,
      "aint": 1307,
      "ustom": 1308,
      "ling": 1309,
      "Ġbelie": 1310,
      "Ġorgan": 1311,
      "Ġann": 1312,
      "ley": 1313,
      "ĠZ": 1314,
      "ope": 1315,
      "oney": 1316,
      "Ġel": 1317,
      "ĠCent": 1318,
      "rol": 1319,
      "Ġperform": 1320,
      "pped": 1321,
      "ission": 1322,
      "ior": 1323,
      "ining": 1324,
      "Ġ15": 1325,
      "'ve": 1326,
      "Ġsol": 1327,
      "ertain": 1328,
      "ĠMar": 1329,
      "Ġval": 1330,
      "Ġide": 1331,
      "ote": 1332,
      "Ġincre": 1333,
      "Ġdays": 1334,
      "Ġexpl": 1335,
      "ably": 1336,
      "ann": 1337,
      "iqu": 1338,
      "Ġturn": 1339,
      "ohn": 1340,
      "Ġsure": 1341,
      "ged": 1342,
      "Ġty": 1343,
      "br": 1344,
      "Ġbuild": 1345,
      "outh": 1346,
      "ware": 1347,
      "ĠSp": 1348,
      "Ġvar": 1349,
      "Ġless": 1350,
      "Ġsoc": 1351,
      "me": 1352,
      "osed": 1353,
      "enn": 1354,
      "ok": 1355,
      "gin": 1356,
      "Ġdel": 1357,
      "Ġnight": 1358,
      "ats": 1359,
      "Ġeffect": 1360,
      "ember": 1361,
      "uck": 1362,
      "Ġgive": 1363,
      "Ġwater": 1364,
      "Ġpay": 1365,
      "Ġ2013": 1366,
      "stand": 1367,
      "âĢĶ": 1368,
      "--": 1369,
      "ĠUS": 1370,
      "Ġcompany": 1371,
      "Ġlevel": 1372,
      "Ġbre": 1373,
      "Ġproject": 1374,
      "10": 1375,
      "Ġtoday": 1376,
      "ĠMy": 1377,
      "Ġcurrent": 1378,
      "Ġmarket": 1379,
      "Ġrecord": 1380,
      "Ġca": 1381,
      "Ġleft": 1382,
      "els": 1383,
      "ĠSc": 1384,
      "ĠRes": 1385,
      "conom": 1386,
      "Ġpast": 1387,
      "Ġleg": 1388,
      "raph": 1389,
      "orth": 1390,
      "ccess": 1391,
      "ator": 1392,
      "Ġmeet": 1393,
      "Ġoffic": 1394,
      "Ġuntil": 1395,
      "here": 1396,
      "ency": 1397,
      "Ġcost": 1398,
      "ases": 1399,
      "iver": 1400,
      "ĠJohn": 1401,
      "Ġve": 1402,
      "Ġdidn": 1403,
      "let": 1404,
      "ĠWith": 1405,
      "Ġtest": 1406,
      "ĠÂ": 1407,
      "Ġ199": 1408,
      "med": 1409,
      "tend": 1410,
      "Ġpos": 1411,
      "Ġview": 1412,
      "Ġinvest": 1413,
      "Ġjob": 1414,
      "Ġrese": 1415,
      "âĢ¦": 1416,
      "pend": 1417,
      "ently": 1418,
      "hor": 1419,
      "Ġpercent": 1420,
      "Ġaway": 1421,
      "ĠUniversity": 1422,
      "ney": 1423,
      "oint": 1424,
      "Ġhum": 1425,
      "ral": 1426,
      "lection": 1427,
      "augh": 1428,
      "Ġservice": 1429,
      "inal": 1430,
      "to": 1431,
      "ron": 1432,
      "Ġfac": 1433,
      "Ġchildren": 1434,
      "ption": 1435,
      "ĠChrist": 1436,
      "ina": 1437,
      "Ġhist": 1438,
      "Ġthing": 1439,
      "Ġimportant": 1440,
      "alf": 1441,
      "Ġhour": 1442,
      "Ġoper": 1443,
      "Ġprev": 1444,
      "arent": 1445,
      "Ġsit": 1446,
      "ised": 1447,
      "ĠCar": 1448,
      "Ġgrow": 1449,
      "ury": 1450,
      "ĠTr": 1451,
      "ten": 1452,
      "Ġorder": 1453,
      "ains": 1454,
      "Ġprom": 1455,
      "ĠAmerican": 1456,
      "Ġcase": 1457,
      "pping": 1458,
      "Ġphot": 1459,
      "Ġbas": 1460,
      "IN": 1461,
      "Ġable": 1462,
      "Ġbeh": 1463,
      "Ġdem": 1464,
      "ium": 1465,
      "urs": 1466,
      "Ġnear": 1467,
      "Ġgovernment": 1468,
      "ĠCo": 1469,
      "Ġsite": 1470,
      "ured": 1471,
      "Ġtell": 1472,
      "ON": 1473,
      "Ġcustom": 1474,
      "Ġest": 1475,
      "Ġstudents": 1476,
      "oci": 1477,
      "co": 1478,
      "ĠFl": 1479,
      "ified": 1480,
      "atter": 1481,
      "Ġexpect": 1482,
      "iting": 1483,
      "ĠRep": 1484,
      "ived": 1485,
      "eb": 1486,
      "30": 1487,
      "Ġmar": 1488,
      "Ġlight": 1489,
      "Ġarea": 1490,
      "Ġ2011": 1491,
      "ajor": 1492,
      "Ġaff": 1493,
      "Ġline": 1494,
      "ges": 1495,
      "Ġname": 1496,
      "Ġpop": 1497,
      "Ġnews": 1498,
      "Ġcourse": 1499,
      "une": 1500,
      "!!": 1501,
      "ama": 1502,
      "19": 1503,
      "Ġword": 1504,
      "Ġexperience": 1505,
      "Ġdata": 1506,
      "ration": 1507,
      "Ġpresent": 1508,
      "utes": 1509,
      "'ll": 1510,
      "Ġsing": 1511,
      "Ġspecial": 1512,
      "ane": 1513,
      "50": 1514,
      "Ġmillion": 1515,
      "Ġdr": 1516,
      "Ġfar": 1517,
      "work": 1518,
      "Ġtalk": 1519,
      "Ġmaking": 1520,
      "Ġlocal": 1521,
      "Ġsal": 1522,
      "Ġfood": 1523,
      "ories": 1524,
      "Ġcap": 1525,
      "ps": 1526,
      "ĠState": 1527,
      "Ġwithin": 1528,
      "Ġkind": 1529,
      "iron": 1530,
      "by": 1531,
      "Ġtru": 1532,
      "Ġwhy": 1533,
      "iven": 1534,
      "mber": 1535,
      "Ġaccess": 1536,
      "Ġchange": 1537,
      "ec": 1538,
      "veral": 1539,
      "ording": 1540,
      "Ġdra": 1541,
      "Ġever": 1542,
      "Ġchang": 1543,
      "ider": 1544,
      "ruct": 1545,
      "Ġdep": 1546,
      "Ġcalled": 1547,
      "por": 1548,
      "Ġenough": 1549,
      "ready": 1550,
      "Ġcame": 1551,
      "Ġair": 1552,
      "ored": 1553,
      "aut": 1554,
      "Ġtimes": 1555,
      "ted": 1556,
      "ivid": 1557,
      "Ġlarge": 1558,
      "ĠOne": 1559,
      "Ġequ": 1560,
      "ids": 1561,
      "Ġmoney": 1562,
      "Ġprovide": 1563,
      "Ġaddition": 1564,
      "Ġcamp": 1565,
      "Ġroom": 1566,
      "icle": 1567,
      "Ġvide": 1568,
      "ubl": 1569,
      "itions": 1570,
      "ries": 1571,
      "Ġmembers": 1572,
      "Ġconst": 1573,
      "aim": 1574,
      "Ġevent": 1575,
      "ream": 1576,
      "ĠSte": 1577,
      "Ġstory": 1578,
      "Ġworking": 1579,
      "uff": 1580,
      "ball": 1581,
      "Ġcountry": 1582,
      "aring": 1583,
      "Ġ30": 1584,
      "Ġlooking": 1585,
      "ĠMan": 1586,
      "Ġeng": 1587,
      "Ġmil": 1588,
      "ĠâĢĺ": 1589,
      "ization": 1590,
      "Ġleast": 1591,
      "Ġsw": 1592,
      "ows": 1593,
      "ither": 1594,
      "artment": 1595,
      "ery": 1596,
      "ising": 1597,
      "iday": 1598,
      "ead": 1599,
      "Ġmen": 1600,
      "Ġhaving": 1601,
      "ode": 1602,
      "Ġcommunity": 1603,
      "Ġalready": 1604,
      "Ġprote": 1605,
      "ĠBr": 1606,
      "AT": 1607,
      "aff": 1608,
      "ox": 1609,
      "Ġmove": 1610,
      "ES": 1611,
      "We": 1612,
      "Ġintern": 1613,
      "irl": 1614,
      "Ġeconom": 1615,
      "ained": 1616,
      "ush": 1617,
      "iam": 1618,
      "Ġshort": 1619,
      "iety": 1620,
      "Ġ16": 1621,
      "ony": 1622,
      "Ġbit": 1623,
      "12": 1624,
      "Ġdone": 1625,
      "Ġproper": 1626,
      "ĠAm": 1627,
      "ĠApp": 1628,
      "Ġtook": 1629,
      "Ġtoget": 1630,
      "Ġemploy": 1631,
      "Ġtogether": 1632,
      "ĠCan": 1633,
      "Ġpract": 1634,
      "Ġwent": 1635,
      "ference": 1636,
      "Ġsuccess": 1637,
      "Ġside": 1638,
      "ĠSu": 1639,
      "Ġ14": 1640,
      "ying": 1641,
      "eral": 1642,
      "Ġseveral": 1643,
      "Ġthought": 1644,
      "ills": 1645,
      "Ġinclude": 1646,
      "aster": 1647,
      "joy": 1648,
      "Ġmusic": 1649,
      "ĠAfter": 1650,
      "Th": 1651,
      "Ġfive": 1652,
      "Ġmajor": 1653,
      "ability": 1654,
      "Ġfund": 1655,
      "Ġalong": 1656,
      "Ġwon": 1657,
      "Ġwrit": 1658,
      "Ġactiv": 1659,
      "side": 1660,
      "Ġimpro": 1661,
      "AR": 1662,
      "Ġreturn": 1663,
      "ĠUnited": 1664,
      "ern": 1665,
      "Ġapplic": 1666,
      "ials": 1667,
      "Ġcomplete": 1668,
      "Ġes": 1669,
      "ĠGod": 1670,
      "AN": 1671,
      "Ġtold": 1672,
      "avor": 1673,
      "Ġonline": 1674,
      "tt": 1675,
      "idd": 1676,
      "Ġdoesn": 1677,
      "omm": 1678,
      "Ġpa": 1679,
      "Ġoften": 1680,
      "Ġservices": 1681,
      "ĠNe": 1682,
      "ĠDo": 1683,
      "Ġdoing": 1684,
      "Ġcou": 1685,
      "Ġ13": 1686,
      "Ġfeat": 1687,
      "Ġocc": 1688,
      "Ġdev": 1689,
      "Ġwomen": 1690,
      "Ġtax": 1691,
      "ober": 1692,
      "Ġmean": 1693,
      "ĠMc": 1694,
      "Ġgetting": 1695,
      "Ġbecome": 1696,
      "ĠWor": 1697,
      "ĠIntern": 1698,
      "Ġ>": 1699,
      "ĠMed": 1700,
      "ĠCount": 1701,
      "Ġelect": 1702,
      "Ġcontrol": 1703,
      "ians": 1704,
      "Ġcond": 1705,
      "OR": 1706,
      "Ġfollowing": 1707,
      "use": 1708,
      "orts": 1709,
      "uro": 1710,
      "ĠYork": 1711,
      "ots": 1712,
      "acy": 1713,
      "aps": 1714,
      "Ġcut": 1715,
      "ients": 1716,
      "ĠNot": 1717,
      "ĠEng": 1718,
      "Ġcity": 1719,
      "Ġnon": 1720,
      "Ġeduc": 1721,
      "Ġago": 1722,
      "Ġunderstand": 1723,
      "used": 1724,
      "Ġwebs": 1725,
      "Ġ2010": 1726,
      "most": 1727,
      "Ġmakes": 1728,
      "Ġtrad": 1729,
      "atic": 1730,
      "Ġyoung": 1731,
      "Ġ17": 1732,
      "Ġhold": 1733,
      "ĠBro": 1734,
      "crib": 1735,
      "lege": 1736,
      "Ġfore": 1737,
      "Ġpoints": 1738,
      "ĠEn": 1739,
      "ands": 1740,
      "ĠPres": 1741,
      "oice": 1742,
      "ĠMr": 1743,
      "20": 1744,
      "ched": 1745,
      "Ġearly": 1746,
      "Ġlive": 1747,
      "Ġprofess": 1748,
      "app": 1749,
      "rop": 1750,
      "Ġothers": 1751,
      "Ġlearn": 1752,
      "Ġvisit": 1753,
      "ĠJan": 1754,
      "Ġreview": 1755,
      "Ġpolit": 1756,
      "ĠAss": 1757,
      "Ġlater": 1758,
      "ides": 1759,
      "Ġlim": 1760,
      "ĠThese": 1761,
      "Ġdeal": 1762,
      "viron": 1763,
      "Ġyet": 1764,
      "ances": 1765,
      "uture": 1766,
      "Ġhappen": 1767,
      "Ġindust": 1768,
      "fer": 1769,
      "Ġcertain": 1770,
      "ĠBy": 1771,
      "ister": 1772,
      "ĠCal": 1773,
      "Ġonce": 1774,
      "Ġhouse": 1775,
      "rew": 1776,
      "Ġresearch": 1777,
      "ĠMe": 1778,
      "Ġorig": 1779,
      "Ġgames": 1780,
      "Ġnet": 1781,
      "agement": 1782,
      "Ġcheck": 1783,
      "Ġvers": 1784,
      "Ġwar": 1785,
      "ones": 1786,
      "Ġcharact": 1787,
      "ĠPr": 1788,
      "Ġemail": 1789,
      "Ġhalf": 1790,
      "11": 1791,
      "ourn": 1792,
      "reet": 1793,
      "ĠSy": 1794,
      "allen": 1795,
      "ĠCont": 1796,
      "Ġpossible": 1797,
      "sh": 1798,
      "ĠTw": 1799,
      "Ġinvol": 1800,
      "aken": 1801,
      "lement": 1802,
      "It": 1803,
      "Ġhot": 1804,
      "Ġtreat": 1805,
      "itive": 1806,
      "Ġpot": 1807,
      "Ġenjoy": 1808,
      "Ġcreat": 1809,
      "fect": 1810,
      "Ġwa": 1811,
      "ĠCity": 1812,
      "Ġce": 1813,
      "for": 1814,
      "ler": 1815,
      "Ġpar": 1816,
      "Ġactually": 1817,
      "ination": 1818,
      "Ġappear": 1819,
      "rap": 1820,
      "of": 1821,
      "Ġbene": 1822,
      "Ġbased": 1823,
      "Ġreason": 1824,
      "Ġaccount": 1825,
      "Ġquestion": 1826,
      "ĠX": 1827,
      "Ġclear": 1828,
      "Ġpage": 1829,
      "ividual": 1830,
      "Ġtre": 1831,
      "not": 1832,
      "ĠNational": 1833,
      "Ġmonths": 1834,
      "Ġproblem": 1835,
      "ging": 1836,
      "Ġmater": 1837,
      "Ġla": 1838,
      "Ġprob": 1839,
      "Ġfoc": 1840,
      "Ġfield": 1841,
      "oon": 1842,
      "ĠEd": 1843,
      "Ġ...": 1844,
      "osp": 1845,
      "icy": 1846,
      "Ġlow": 1847,
      "Ġstarted": 1848,
      "Ġmom": 1849,
      "Ġcompet": 1850,
      "Ġey": 1851,
      "Ġmeans": 1852,
      "ĠGu": 1853,
      "fort": 1854,
      "Ġ*": 1855,
      "ump": 1856,
      "rict": 1857,
      "duct": 1858,
      "yle": 1859,
      "Ġopport": 1860,
      "Ġauthor": 1861,
      "ensive": 1862,
      "Ġdiscuss": 1863,
      "ring": 1864,
      "ape": 1865,
      "Ġclose": 1866,
      "Ġneeds": 1867,
      "org": 1868,
      "Ġfriends": 1869,
      "ĠNow": 1870,
      "ential": 1871,
      "ille": 1872,
      "vironment": 1873,
      "Ġminutes": 1874,
      "Ġvideo": 1875,
      "Ġsix": 1876,
      "ison": 1877,
      "book": 1878,
      "ĠWill": 1879,
      "ource": 1880,
      "ĠGr": 1881,
      "Ġcontact": 1882,
      "inc": 1883,
      "Ġparticular": 1884,
      "Ġopt": 1885,
      "Ġsum": 1886,
      "Ġgiven": 1887,
      "Ġsoft": 1888,
      "Ġpress": 1889,
      "ĠChe": 1890,
      "Ġstrong": 1891,
      "Ġblog": 1892,
      "sw": 1893,
      "Ġdetail": 1894,
      "Ġfuture": 1895,
      "Ġbody": 1896,
      "hers": 1897,
      "ĠOb": 1898,
      "ĠServ": 1899,
      "Ġseen": 1900,
      "verage": 1901,
      "ued": 1902,
      "itor": 1903,
      "idence": 1904,
      "ully": 1905,
      "Ġmor": 1906,
      "Ġrele": 1907,
      "Ġquick": 1908,
      "Ġdevelopment": 1909,
      "Ġhours": 1910,
      "Ġsound": 1911,
      "illed": 1912,
      "Ġproducts": 1913,
      "Ġ25": 1914,
      "nes": 1915,
      "wards": 1916,
      "ights": 1917,
      "urity": 1918,
      "oard": 1919,
      "resent": 1920,
      "ograph": 1921,
      "Ġcomb": 1922,
      "ique": 1923,
      "Ġindividual": 1924,
      "Ġmind": 1925,
      "iously": 1926,
      "ĠOff": 1927,
      "Ġeasy": 1928,
      "unch": 1929,
      "ĠComp": 1930,
      "urch": 1931,
      "ĠCenter": 1932,
      "ĠStates": 1933,
      "Ġaddress": 1934,
      "EN": 1935,
      "aces": 1936,
      "Ġbenef": 1937,
      "Ġacross": 1938,
      "Ġbelieve": 1939,
      "Ġoffer": 1940,
      "lish": 1941,
      "Ġthird": 1942,
      "Ġcommun": 1943,
      "Ġworks": 1944,
      "Ġbring": 1945,
      "Ġhuman": 1946,
      "Ġcomes": 1947,
      "anks": 1948,
      ".)": 1949,
      "ĠAb": 1950,
      "Ġmult": 1951,
      "Ġ24": 1952,
      "Ġanything": 1953,
      "ĠHowever": 1954,
      "Ġprop": 1955,
      "urther": 1956,
      "201": 1957,
      "ĠJust": 1958,
      "cially": 1959,
      "Ġwebsite": 1960,
      "back": 1961,
      "Ġclaim": 1962,
      "opy": 1963,
      "Ġ2009": 1964,
      "ĠDep": 1965,
      "Ġexample": 1966,
      "Ġwhether": 1967,
      "Ġpersonal": 1968,
      "ches": 1969,
      "Ġredu": 1970,
      "ĠSec": 1971,
      "Ġhistory": 1972,
      "Ġhope": 1973,
      "ources": 1974,
      "ned": 1975,
      "Ġbegin": 1976,
      "ĠMore": 1977,
      "200": 1978,
      "Ġpriv": 1979,
      "year": 1980,
      "ĠHar": 1981,
      "though": 1982,
      "Ġtot": 1983,
      "ips": 1984,
      "ĠOur": 1985,
      "Ġamong": 1986,
      "ster": 1987,
      "Ġsocial": 1988,
      "Ġant": 1989,
      "load": 1990,
      "Ġheart": 1991,
      "ĠSchool": 1992,
      "__": 1993,
      "ĠMin": 1994,
      "ĠGe": 1995,
      "ift": 1996,
      "Ġknown": 1997,
      "Ġvol": 1998,
      "ĠDr": 1999,
      "Ġwhole": 2000,
      "iod": 2001,
      "AS": 2002,
      "Ġdeb": 2003,
      "isk": 2004,
      "irc": 2005,
      "Ġbad": 2006,
      "ĠHis": 2007,
      "ided": 2008,
      "ĠTH": 2009,
      "Ġwalk": 2010,
      "ĠPer": 2011,
      "Ġhig": 2012,
      "ĠWorld": 2013,
      "Ġquality": 2014,
      "//": 2015,
      "par": 2016,
      "de": 2017,
      "Ġpack": 2018,
      "Ġpret": 2019,
      "Ġjo": 2020,
      "ulation": 2021,
      "wh": 2022,
      "oor": 2023,
      "ĠCounty": 2024,
      "ators": 2025,
      "ĠApr": 2026,
      "over": 2027,
      "Ġseries": 2028,
      "Ġface": 2029,
      "lling": 2030,
      "ĠBar": 2031,
      "Ġident": 2032,
      "ĠNorth": 2033,
      "ĠInst": 2034,
      "play": 2035,
      "pro": 2036,
      "Ġitem": 2037,
      "ĠPe": 2038,
      "ĠEuro": 2039,
      "go": 2040,
      "Ġkey": 2041,
      "Ġconcer": 2042,
      "nect": 2043,
      "ners": 2044,
      "Ġshare": 2045,
      "ĠPost": 2046,
      "cial": 2047,
      "itted": 2048,
      "Ġeither": 2049,
      "Ġbreak": 2050,
      "ences": 2051,
      "ggest": 2052,
      "Ġmiss": 2053,
      "Ġfront": 2054,
      "Ġsomeone": 2055,
      "ilar": 2056,
      "Ġanal": 2057,
      "ĠDav": 2058,
      "Ġmain": 2059,
      "Ġpie": 2060,
      "Ġfilm": 2061,
      "Ġdou": 2062,
      "Ġspecific": 2063,
      "Ġsent": 2064,
      "ocu": 2065,
      "ural": 2066,
      "Ġasked": 2067,
      "Ġmess": 2068,
      "Ġet": 2069,
      "ĠGo": 2070,
      "Ġalmost": 2071,
      "Ġenc": 2072,
      "AL": 2073,
      "ĠSm": 2074,
      "Ġpubl": 2075,
      "Ġplease": 2076,
      "Ġmanag": 2077,
      "Ġvi": 2078,
      "Ġpick": 2079,
      "Ġfavor": 2080,
      "ilities": 2081,
      "Ġrespons": 2082,
      "Ġfre": 2083,
      "ĠKe": 2084,
      "Ġbelow": 2085,
      "ĠQu": 2086,
      "now": 2087,
      "Ġtrying": 2088,
      "elt": 2089,
      "ai": 2090,
      "Ġtem": 2091,
      "pecially": 2092,
      "Ġwond": 2093,
      "arter": 2094,
      "Ġstay": 2095,
      "Ġtaking": 2096,
      "Ġprobably": 2097,
      "Ġpretty": 2098,
      "ĠSome": 2099,
      "Ġperfect": 2100,
      "Ġabove": 2101,
      "Ġsuper": 2102,
      "Ġsingle": 2103,
      "ĠFeb": 2104,
      "Ġhit": 2105,
      "ify": 2106,
      "ateg": 2107,
      "ĠSouth": 2108,
      "lf": 2109,
      "Ġcrit": 2110,
      "Ġwatch": 2111,
      "Ġcreate": 2112,
      "Ġannoun": 2113,
      "Ġeverything": 2114,
      "ĠJu": 2115,
      "ĠDes": 2116,
      "abor": 2117,
      "Ġage": 2118,
      "selves": 2119,
      "://": 2120,
      "Ġste": 2121,
      "cri": 2122,
      "aining": 2123,
      "ĠOct": 2124,
      "oe": 2125,
      "Ġ/": 2126,
      "Ġissues": 2127,
      "my": 2128,
      "Ġbeaut": 2129,
      "Ġsuggest": 2130,
      "Ġener": 2131,
      "Ġstep": 2132,
      "Ġbar": 2133,
      "Ġissue": 2134,
      "ibr": 2135,
      "umb": 2136,
      "room": 2137,
      "ief": 2138,
      "ĠPresident": 2139,
      "IS": 2140,
      "Ġ100": 2141,
      "ĠWhile": 2142,
      "ĠAmerica": 2143,
      "utions": 2144,
      "ially": 2145,
      "ĠIm": 2146,
      "ĠMarch": 2147,
      "IT": 2148,
      "Ġpict": 2149,
      "irt": 2150,
      "ĠPol": 2151,
      "Ġcompan": 2152,
      "Ġbuy": 2153,
      "Ġwind": 2154,
      "af": 2155,
      "ttp": 2156,
      "ried": 2157,
      "Ġcomput": 2158,
      "Ġwanted": 2159,
      "Ġ2008": 2160,
      "Ġgirl": 2161,
      "Ġcred": 2162,
      "Ġtaken": 2163,
      "Ġmag": 2164,
      "ibility": 2165,
      "mb": 2166,
      "Ġ21": 2167,
      "Ġidea": 2168,
      "Ġ:": 2169,
      "isc": 2170,
      "fully": 2171,
      "right": 2172,
      "ctor": 2173,
      "Ġadded": 2174,
      "Ġport": 2175,
      "Ġtyp": 2176,
      "rie": 2177,
      "ashing": 2178,
      "minist": 2179,
      "Ġstudy": 2180,
      "ilt": 2181,
      "Ġcoming": 2182,
      "Ġchallen": 2183,
      "Ġmedia": 2184,
      "ĠYour": 2185,
      "ED": 2186,
      "nding": 2187,
      "ĠPart": 2188,
      "Ġfail": 2189,
      "ederal": 2190,
      "Ġentire": 2191,
      "Ġelse": 2192,
      "Ġz": 2193,
      "'d": 2194,
      "Ġfall": 2195,
      "itch": 2196,
      "Ġstore": 2197,
      "Ġpurch": 2198,
      "yl": 2199,
      "ĠHere": 2200,
      "Ġheld": 2201,
      "Ġquestions": 2202,
      "ĠFriday": 2203,
      "imate": 2204,
      "ĠCor": 2205,
      "ague": 2206,
      "Ġparent": 2207,
      "Ġrequire": 2208,
      "off": 2209,
      "irm": 2210,
      "Ġperiod": 2211,
      "atural": 2212,
      "ĠEurope": 2213,
      "ror": 2214,
      "rain": 2215,
      "ply": 2216,
      "Ġland": 2217,
      "ogn": 2218,
      "ĠJune": 2219,
      "gress": 2220,
      "hod": 2221,
      "ĠPa": 2222,
      "gest": 2223,
      "15": 2224,
      "time": 2225,
      "yn": 2226,
      "Ġaccording": 2227,
      "Ġball": 2228,
      "Ġfoot": 2229,
      "Ġindustry": 2230,
      "Ġcompl": 2231,
      "aturday": 2232,
      "Ġexc": 2233,
      "oose": 2234,
      "iber": 2235,
      "Ġparticip": 2236,
      "ĠAug": 2237,
      "Ġnothing": 2238,
      "ops": 2239,
      "Ġred": 2240,
      "Ġeveryone": 2241,
      "Ġer": 2242,
      "uation": 2243,
      "Ġphys": 2244,
      "ĠMich": 2245,
      "Ġquite": 2246,
      "fic": 2247,
      "Ġaud": 2248,
      "ung": 2249,
      "ĠApril": 2250,
      "Ġfinal": 2251,
      "Ġhost": 2252,
      "Ġbehind": 2253,
      "Ġdeter": 2254,
      "Ġenvironment": 2255,
      "Ġrather": 2256,
      "itting": 2257,
      "Ġresults": 2258,
      "Ġ#": 2259,
      "ĠEl": 2260,
      "aur": 2261,
      "Ġsearch": 2262,
      "ĠSpe": 2263,
      "Ġcult": 2264,
      "Ġrepresent": 2265,
      "ocr": 2266,
      "ancial": 2267,
      "ĠAg": 2268,
      "eng": 2269,
      "Ġprice": 2270,
      "Ġrepl": 2271,
      "Ġplayers": 2272,
      "Ġcourt": 2273,
      "....": 2274,
      "resh": 2275,
      "uary": 2276,
      "Ġmot": 2277,
      "Ġstaff": 2278,
      "ole": 2279,
      "itten": 2280,
      "ask": 2281,
      "Ġtrack": 2282,
      "Ġformer": 2283,
      "Ġamount": 2284,
      "Ġ50": 2285,
      "inks": 2286,
      "Ġcontent": 2287,
      "Ġhon": 2288,
      "Ġ198": 2289,
      "ĠWest": 2290,
      "Ġdeath": 2291,
      "Ġattack": 2292,
      "aced": 2293,
      "IC": 2294,
      "Ġperformance": 2295,
      "Ġ22": 2296,
      "Ġfurther": 2297,
      "eter": 2298,
      "ĠAf": 2299,
      "Ġenergy": 2300,
      "ili": 2301,
      "Ġcontinue": 2302,
      "ĠHouse": 2303,
      "Ġoffice": 2304,
      "rodu": 2305,
      "ples": 2306,
      "rug": 2307,
      "Ġseems": 2308,
      "ĠAct": 2309,
      "Ġisn": 2310,
      "reg": 2311,
      "ĠDon": 2312,
      "Ġdocu": 2313,
      "Ġdi": 2314,
      "Ġhowever": 2315,
      "Ġhom": 2316,
      "ĠGl": 2317,
      "asing": 2318,
      "ĠSaturday": 2319,
      "Ġespecially": 2320,
      "Ġmeas": 2321,
      "Ġlikely": 2322,
      "Ġblack": 2323,
      "Ġrights": 2324,
      "ĠHer": 2325,
      "Ġweeks": 2326,
      "roll": 2327,
      "Ġconsider": 2328,
      "Ġsoon": 2329,
      "Ġfire": 2330,
      "Ġtechnology": 2331,
      "Ġmember": 2332,
      "Ġcompanies": 2333,
      "ĠSept": 2334,
      "Ġbuilding": 2335,
      "ĠObama": 2336,
      "ĠNews": 2337,
      "empt": 2338,
      "Ġrecomm": 2339,
      "ĠSund": 2340,
      "Ġrelations": 2341,
      "head": 2342,
      "Ġaction": 2343,
      "Ġposition": 2344,
      "Ġdue": 2345,
      "ĠStud": 2346,
      "Ġspace": 2347,
      "mit": 2348,
      "Ġcommon": 2349,
      "ĠMark": 2350,
      "Ġrecommend": 2351,
      "Ġtravel": 2352,
      "Ġnational": 2353,
      "ĠWed": 2354,
      "Ġtool": 2355,
      "ĠPark": 2356,
      "Ġtit": 2357,
      "Ġtou": 2358,
      "vert": 2359,
      "ees": 2360,
      "Ġpresident": 2361,
      "25": 2362,
      "Ġrecent": 2363,
      "che": 2364,
      "Ġlink": 2365,
      "iff": 2366,
      "Ġproblems": 2367,
      "Ġagree": 2368,
      "ĠWar": 2369,
      "Ġfocus": 2370,
      "Ġansw": 2371,
      "ites": 2372,
      "Ġele": 2373,
      "Ġsex": 2374,
      "Ġfeatures": 2375,
      "Ġparty": 2376,
      "val": 2377,
      "AC": 2378,
      "Ġrunning": 2379,
      "ĠEm": 2380,
      "Ġnecess": 2381,
      "Ġground": 2382,
      "pper": 2383,
      "Ġstat": 2384,
      "obal": 2385,
      "13": 2386,
      "Ġneeded": 2387,
      "ĠInc": 2388,
      "ĠPM": 2389,
      "Ġprovided": 2390,
      "ĠFrom": 2391,
      "Ġforward": 2392,
      "Ġgeneral": 2393,
      "na": 2394,
      "ĠCour": 2395,
      "ental": 2396,
      "olution": 2397,
      "ume": 2398,
      "Ġupon": 2399,
      "Ġtext": 2400,
      "Ġreceived": 2401,
      "ĠDepartment": 2402,
      "Ġinj": 2403,
      "Ġexist": 2404,
      "cell": 2405,
      "ively": 2406,
      "amer": 2407,
      "Ġupd": 2408,
      "ĠSen": 2409,
      "ĠPlease": 2410,
      "Ġlate": 2411,
      "ĠPre": 2412,
      "St": 2413,
      "Ġcharacter": 2414,
      "ficult": 2415,
      "Ġwords": 2416,
      "Ġfig": 2417,
      "onday": 2418,
      "Ġlog": 2419,
      "amed": 2420,
      "Ġsubject": 2421,
      "ĠHigh": 2422,
      "ĠDay": 2423,
      "Ġareas": 2424,
      "lex": 2425,
      "Ġevents": 2426,
      "ĠReg": 2427,
      "RE": 2428,
      "angu": 2429,
      "Ġvalue": 2430,
      "ĠâĢ¢": 2431,
      "Ġdam": 2432,
      "Ġnice": 2433,
      "raft": 2434,
      "oved": 2435,
      "Ġcoun": 2436,
      "ruction": 2437,
      "Ġaccept": 2438,
      "Ġmatter": 2439,
      "Ġroad": 2440,
      "Ġcell": 2441,
      "Ġanyone": 2442,
      "Ġcal": 2443,
      "Ġmaint": 2444,
      "Ġsong": 2445,
      "Ġsaw": 2446,
      "Ġabs": 2447,
      "Ġweb": 2448,
      "Ġoffers": 2449,
      "ĠJuly": 2450,
      "Ġtrue": 2451,
      "Ġbase": 2452,
      "reme": 2453,
      "Ġcouple": 2454,
      "ises": 2455,
      "aching": 2456,
      "ires": 2457,
      "oph": 2458,
      "Ġarticle": 2459,
      "ĠAcc": 2460,
      "Ġsignific": 2461,
      "iddle": 2462,
      "ze": 2463,
      "Ġrespect": 2464,
      "Ġdifficult": 2465,
      "lebr": 2466,
      "Ġrad": 2467,
      "come": 2468,
      "eds": 2469,
      "icated": 2470,
      "gle": 2471,
      "Ġvict": 2472,
      "Ġoutside": 2473,
      "bor": 2474,
      "aign": 2475,
      "Ġsimilar": 2476,
      "itte": 2477,
      "Ġinit": 2478,
      "Ġap": 2479,
      "Ġincludes": 2480,
      "60": 2481,
      "Ġswe": 2482,
      "Ġrange": 2483,
      "Ġprovides": 2484,
      "ĠAust": 2485,
      "ival": 2486,
      "Ġeducation": 2487,
      "ĠSunday": 2488,
      "ledge": 2489,
      "gu": 2490,
      "ashington": 2491,
      "Ġshows": 2492,
      "Ġstri": 2493,
      "Ġimprove": 2494,
      "Ġ23": 2495,
      "iter": 2496,
      "Ġplaying": 2497,
      "vent": 2498,
      "Ġpolitical": 2499,
      "Ġhttp": 2500,
      "Ġassist": 2501,
      "Ġversion": 2502,
      "Ġcannot": 2503,
      "Ġviol": 2504,
      "Ġrequired": 2505,
      "OU": 2506,
      "ules": 2507,
      "Ġsimply": 2508,
      "Ġtraining": 2509,
      "Ġkids": 2510,
      "Ġcard": 2511,
      "ĠAM": 2512,
      "ĠMonday": 2513,
      "Ġdescrib": 2514,
      "Ġinstall": 2515,
      "Ġrecently": 2516,
      "In": 2517,
      "Ġrole": 2518,
      "cil": 2519,
      "Ġprotect": 2520,
      "Ġgrad": 2521,
      "18": 2522,
      "ino": 2523,
      "ĠSan": 2524,
      "Ġlost": 2525,
      "medi": 2526,
      "Ġtown": 2527,
      "Ġprep": 2528,
      "Ġboard": 2529,
      "Ġvot": 2530,
      "Ġstop": 2531,
      "Ġclean": 2532,
      "ĠSoc": 2533,
      "earch": 2534,
      "Ġconsum": 2535,
      "cle": 2536,
      "clus": 2537,
      "ĠAssoci": 2538,
      "Ġpain": 2539,
      "eth": 2540,
      "Ġcirc": 2541,
      "ĠJanuary": 2542,
      "ĠAdd": 2543,
      "ication": 2544,
      "Ġloss": 2545,
      "Ġoriginal": 2546,
      "Ġmorning": 2547,
      "ĠCalif": 2548,
      "icro": 2549,
      "lu": 2550,
      "Ġprograms": 2551,
      "Ġsimple": 2552,
      "ĠWashington": 2553,
      "Ġcontrib": 2554,
      "Ġplayed": 2555,
      "iful": 2556,
      "ĠTV": 2557,
      "itional": 2558,
      "Ġcomment": 2559,
      "Ġtype": 2560,
      "Ġoil": 2561,
      "Ġtakes": 2562,
      "14": 2563,
      "Ġwasn": 2564,
      "Ġattend": 2565,
      "ĠThen": 2566,
      "ĠArt": 2567,
      "Ġanim": 2568,
      "Ġinde": 2569,
      "Ġpolice": 2570,
      "fact": 2571,
      "Ġtotal": 2572,
      "Ġcook": 2573,
      "ĠSer": 2574,
      "ĠMon": 2575,
      "ishing": 2576,
      "uge": 2577,
      "oid": 2578,
      "Ġliving": 2579,
      "Ġself": 2580,
      "ese": 2581,
      "Ġselect": 2582,
      "attle": 2583,
      "uesday": 2584,
      "ables": 2585,
      "overed": 2586,
      "Ġchanges": 2587,
      "ĠChar": 2588,
      "Ġcover": 2589,
      "Ġdefe": 2590,
      "ĠPar": 2591,
      "Ġinn": 2592,
      "Ġjud": 2593,
      "Ġwhite": 2594,
      "ursday": 2595,
      "aker": 2596,
      "Ġdig": 2597,
      "Ġleaders": 2598,
      "ests": 2599,
      "Ġrecogn": 2600,
      "ny": 2601,
      "Ġbott": 2602,
      "Ġrisk": 2603,
      "Ġhy": 2604,
      "Ġsize": 2605,
      "ĠPat": 2606,
      "Ġphone": 2607,
      "ĠHealth": 2608,
      "ST": 2609,
      "ude": 2610,
      "Ġways": 2611,
      "hib": 2612,
      "Ġmanagement": 2613,
      "ada": 2614,
      "Ġ2007": 2615,
      "Ġnetwork": 2616,
      "Ġestab": 2617,
      "OT": 2618,
      "ety": 2619,
      "ecut": 2620,
      "Ġgoal": 2621,
      "Ġleave": 2622,
      "Ġcareer": 2623,
      "ournal": 2624,
      "ovember": 2625,
      "lt": 2626,
      "aily": 2627,
      "Ġmeeting": 2628,
      "atest": 2629,
      "Ġassoci": 2630,
      "oura": 2631,
      "ification": 2632,
      "ky": 2633,
      "Ġpolicy": 2634,
      "Ġ,": 2635,
      "Ġsuff": 2636,
      "ĠDavid": 2637,
      "Ġsense": 2638,
      "Ġmethod": 2639,
      "cing": 2640,
      "ached": 2641,
      "Ġwide": 2642,
      "chie": 2643,
      "Ġincrease": 2644,
      "ĠVal": 2645,
      "Ġbegan": 2646,
      "Ġdom": 2647,
      "Ġsignificant": 2648,
      "itary": 2649,
      "ĠDem": 2650,
      "Wh": 2651,
      "obile": 2652,
      "Ġvarious": 2653,
      "Ġsecurity": 2654,
      "like": 2655,
      "Ġens": 2656,
      "face": 2657,
      "Ġ40": 2658,
      "Ġtour": 2659,
      "ĠFin": 2660,
      "Ġill": 2661,
      "cast": 2662,
      "ael": 2663,
      "Ġshall": 2664,
      "Ġfinancial": 2665,
      "Ġdest": 2666,
      "ming": 2667,
      "Ġdecision": 2668,
      "ĠFirst": 2669,
      "Ġwonder": 2670,
      "hern": 2671,
      "ĠRepublic": 2672,
      "Ġcontract": 2673,
      "Ġstra": 2674,
      "cember": 2675,
      "Ġthemselves": 2676,
      "hel": 2677,
      "ams": 2678,
      "ek": 2679,
      "ester": 2680,
      "ĠRed": 2681,
      "idge": 2682,
      "Ġopportunity": 2683,
      "Ġlonger": 2684,
      "nesday": 2685,
      "Ġregard": 2686,
      "ĠOf": 2687,
      "ĠJe": 2688,
      "ĠRead": 2689,
      "oke": 2690,
      "Ġround": 2691,
      "Ġcreated": 2692,
      "ĠTuesday": 2693,
      "ĠWell": 2694,
      "ana": 2695,
      "adem": 2696,
      "anced": 2697,
      "Ġprint": 2698,
      "ville": 2699,
      "aving": 2700,
      "oring": 2701,
      "Ġplayer": 2702,
      "Ġmother": 2703,
      "ĠUs": 2704,
      "Ġsystems": 2705,
      "apt": 2706,
      "Ġbox": 2707,
      "Ġtable": 2708,
      "Ġworked": 2709,
      "âĢĵ": 2710,
      "ĠThursday": 2711,
      "ruary": 2712,
      "Ġlooks": 2713,
      "Ġsqu": 2714,
      "erc": 2715,
      "ession": 2716,
      "Ġcampaign": 2717,
      "ĠInt": 2718,
      "Ġbooks": 2719,
      "Ġpaper": 2720,
      "Ġfight": 2721,
      "ham": 2722,
      "Ġcoll": 2723,
      "itution": 2724,
      "Ġreading": 2725,
      "Ġsoftware": 2726,
      "Ġengine": 2727,
      "Ġgen": 2728,
      "40": 2729,
      "dd": 2730,
      "Ġnatural": 2731,
      "Ġmat": 2732,
      "Ġdefin": 2733,
      "lier": 2734,
      "\".": 2735,
      "itter": 2736,
      "Ġgave": 2737,
      "16": 2738,
      "Ġsaying": 2739,
      "arget": 2740,
      "kend": 2741,
      "ĠMus": 2742,
      "Ġchance": 2743,
      "Ġreported": 2744,
      "Ġexpress": 2745,
      "Ġmoment": 2746,
      "Ġrelationship": 2747,
      "ĠGer": 2748,
      "Ġrate": 2749,
      "Ġcurrently": 2750,
      "Ġpric": 2751,
      "Ġple": 2752,
      "Ġhimself": 2753,
      "Ġstudent": 2754,
      "Ġpopular": 2755,
      "Ġworth": 2756,
      "Ġappe": 2757,
      "Ġattempt": 2758,
      "Ġrelease": 2759,
      "Ġhigher": 2760,
      "Ġitself": 2761,
      "This": 2762,
      "Ġetc": 2763,
      "icles": 2764,
      "Ġreceive": 2765,
      "uel": 2766,
      "Ġdate": 2767,
      "ĠSeptember": 2768,
      "Ġlay": 2769,
      "Ġincluded": 2770,
      "ING": 2771,
      "urg": 2772,
      "Ġtal": 2773,
      "ĠNovember": 2774,
      "Ġsurpr": 2775,
      "ĠTra": 2776,
      "Ġhands": 2777,
      "rote": 2778,
      "Ġprivate": 2779,
      "Ġtele": 2780,
      "haps": 2781,
      "Ġord": 2782,
      "Ġsus": 2783,
      "sc": 2784,
      "Ġregular": 2785,
      "ĠOctober": 2786,
      "Ġsummer": 2787,
      "mon": 2788,
      "ett": 2789,
      "Ġcand": 2790,
      "Ġgoes": 2791,
      "ĠAugust": 2792,
      "ought": 2793,
      "ittee": 2794,
      "based": 2795,
      "Ġextra": 2796,
      "uth": 2797,
      "Ġneg": 2798,
      "Ġcelebr": 2799,
      "astic": 2800,
      "Ġfast": 2801,
      "Ã©": 2802,
      "Ġobs": 2803,
      "17": 2804,
      "Ġinside": 2805,
      "aby": 2806,
      "Ġproperty": 2807,
      "ĠBlack": 2808,
      "oud": 2809,
      "ls": 2810,
      "ornia": 2811,
      "Ġcool": 2812,
      "izing": 2813,
      "Ġpurp": 2814,
      "Ġdeg": 2815,
      "Ġwoman": 2816,
      "Ġboy": 2817,
      "ening": 2818,
      "ĠWednesday": 2819,
      "rect": 2820,
      "Ġconnect": 2821,
      "Ġconv": 2822,
      "Ġbud": 2823,
      "ĠDis": 2824,
      "rought": 2825,
      "Ġinvestig": 2826,
      "ĠDecember": 2827,
      "Ġinvolved": 2828,
      "Ġdesigned": 2829,
      "ule": 2830,
      "oes": 2831,
      "Ġcollect": 2832,
      "Ġexam": 2833,
      "Ġfa": 2834,
      "Ġcolor": 2835,
      "Ġbecame": 2836,
      "Ġri": 2837,
      "atory": 2838,
      "irth": 2839,
      "Ġteac": 2840,
      "ma": 2841,
      "Ġclos": 2842,
      "Ġsales": 2843,
      "oom": 2844,
      "Ġcause": 2845,
      "Ġlives": 2846,
      "Ġdrug": 2847,
      "AM": 2848,
      "ĠWeb": 2849,
      "Ġclick": 2850,
      "ĠCong": 2851,
      "ĠStreet": 2852,
      "Ġparents": 2853,
      "sy": 2854,
      "Ġ28": 2855,
      "ĠFebruary": 2856,
      "Ġ197": 2857,
      "Ġmaterial": 2858,
      "ĠTHE": 2859,
      "Ġhappy": 2860,
      "Ġarri": 2861,
      "Ġfavorite": 2862,
      "Ġready": 2863,
      "Ġpers": 2864,
      "ray": 2865,
      "Ġcustomers": 2866,
      "Ġcomputer": 2867,
      "Ġhear": 2868,
      "Ġimpact": 2869,
      "Ġsold": 2870,
      "ospital": 2871,
      "Ġprior": 2872,
      "ufact": 2873,
      "ĠJack": 2874,
      "Ġmodel": 2875,
      "Ġdrive": 2876,
      "Ġdecided": 2877,
      "ĠPaul": 2878,
      "Ġsle": 2879,
      "Ġobject": 2880,
      "ĠAlso": 2881,
      "Ġcenter": 2882,
      "Ġprim": 2883,
      "ĠiP": 2884,
      "ĠSw": 2885,
      "ĠUp": 2886,
      "Ġusers": 2887,
      "ĠCalifornia": 2888,
      "Ġwritten": 2889,
      "Ġdeep": 2890,
      "Ġwrong": 2891,
      "Ġpan": 2892,
      "Ġinstead": 2893,
      "Ġ27": 2894,
      "asons": 2895,
      "Ġblood": 2896,
      "Ġlatest": 2897,
      "Ġnation": 2898,
      "ĠBrit": 2899,
      "Ġwriting": 2900,
      "Ġthroughout": 2901,
      "Ġled": 2902,
      "Ġpull": 2903,
      "ades": 2904,
      "Ġpotential": 2905,
      "Ġachie": 2906,
      "Ġquarter": 2907,
      "ID": 2908,
      "atives": 2909,
      "erved": 2910,
      "Ġscreen": 2911,
      "ux": 2912,
      "Ġinternational": 2913,
      "Ġ26": 2914,
      "Ġbrand": 2915,
      "Ġnorm": 2916,
      "name": 2917,
      "ĠDirect": 2918,
      "Ġgets": 2919,
      "ĠWind": 2920,
      "Ġlangu": 2921,
      "ĠCollege": 2922,
      "Ġitems": 2923,
      "ĠSci": 2924,
      "key": 2925,
      "alt": 2926,
      "str": 2927,
      "Ġadditional": 2928,
      "hood": 2929,
      "Ġheard": 2930,
      "wood": 2931,
      "Ġusually": 2932,
      "Ġterms": 2933,
      "Ġstuff": 2934,
      "Ġremember": 2935,
      "OM": 2936,
      "where": 2937,
      "ĠCourt": 2938,
      "Ġunique": 2939,
      "Ġadminist": 2940,
      "www": 2941,
      "Ġdog": 2942,
      "rown": 2943,
      "Ġbroad": 2944,
      "Ġcomments": 2945,
      "ĠSch": 2946,
      "Ġexcept": 2947,
      "ĠInternational": 2948,
      "Ġproduction": 2949,
      "Ġmass": 2950,
      "Ġimmedi": 2951,
      "iple": 2952,
      "Ġmedical": 2953,
      "ĠBu": 2954,
      "Ġwrote": 2955,
      "Ġexpected": 2956,
      "Ġgroups": 2957,
      "rab": 2958,
      "Ġshot": 2959,
      "irit": 2960,
      "Ġx": 2961,
      "Ġpractice": 2962,
      "Ġgrowth": 2963,
      "Ġexperi": 2964,
      "Ġvia": 2965,
      "Ġfresh": 2966,
      "istic": 2967,
      "Ġdraw": 2968,
      "Ġapplication": 2969,
      "Ġmyself": 2970,
      "Ġbeautiful": 2971,
      "ivil": 2972,
      "Ġprofessional": 2973,
      "urance": 2974,
      "put": 2975,
      "urb": 2976,
      "Ġmovie": 2977,
      "Ġbecom": 2978,
      "Ġimm": 2979,
      "Ġep": 2980,
      "Ġexact": 2981,
      "ĠRom": 2982,
      "illing": 2983,
      "Ġpublished": 2984,
      "ĠLa": 2985,
      "ĠOther": 2986,
      "Ġeconomic": 2987,
      "ford": 2988,
      "unt": 2989,
      "Ġaw": 2990,
      "ological": 2991,
      "ĠCons": 2992,
      "sec": 2993,
      "ĠGener": 2994,
      "ĠCoun": 2995,
      "ications": 2996,
      "Ġfair": 2997,
      "Ġcredit": 2998,
      "Ġdetails": 2999,
      "Ġtreatment": 3000,
      "cy": 3001,
      "ĠOh": 3002,
      "Ġinterview": 3003,
      "Ġcountries": 3004,
      "Ġknew": 3005,
      "Ġmention": 3006,
      "Ġsend": 3007,
      "Ġrev": 3008,
      "mission": 3009,
      "Ġquickly": 3010,
      "Ġcases": 3011,
      "Ġtouch": 3012,
      "ĠWilliam": 3013,
      "Ġhol": 3014,
      "ĠEvery": 3015,
      "Ġsen": 3016,
      "LE": 3017,
      "Ġmix": 3018,
      "Ġfunction": 3019,
      "ĠMost": 3020,
      "ĠAny": 3021,
      "Ġmid": 3022,
      "Ġstyle": 3023,
      "ĠAfric": 3024,
      "light": 3025,
      "ĠAc": 3026,
      "Ġfell": 3027,
      "Ġdiv": 3028,
      "orge": 3029,
      "ĠFace": 3030,
      "Ġfit": 3031,
      "Ġfelt": 3032,
      "Ġintrodu": 3033,
      "Ġmatch": 3034,
      "Ġdead": 3035,
      "Ġweekend": 3036,
      "Ġability": 3037,
      "oogle": 3038,
      "Ġband": 3039,
      "Ġdise": 3040,
      "Ġshoot": 3041,
      "urt": 3042,
      "avy": 3043,
      "ament": 3044,
      "ibrary": 3045,
      "Ġsat": 3046,
      "Ġsn": 3047,
      "onse": 3048,
      "ĠSim": 3049,
      "Ġfederal": 3050,
      "itute": 3051,
      "Ġlooked": 3052,
      "Ġreleased": 3053,
      "Ġturned": 3054,
      "ĠEven": 3055,
      "erve": 3056,
      "ida": 3057,
      "iction": 3058,
      "field": 3059,
      "ground": 3060,
      "Ġess": 3061,
      "Ġaffect": 3062,
      "ened": 3063,
      "aging": 3064,
      "Ġwww": 3065,
      "Ġhor": 3066,
      "ĠAN": 3067,
      "Ġinteresting": 3068,
      "Ġcomfort": 3069,
      "Ġemer": 3070,
      "ĠLet": 3071,
      "22": 3072,
      "Ġaverage": 3073,
      "Ġspeak": 3074,
      "action": 3075,
      "Ġdirector": 3076,
      "Ġplans": 3077,
      "Ġtarget": 3078,
      "Ġlower": 3079,
      "ĠII": 3080,
      "Ġdepend": 3081,
      "Ġcopy": 3082,
      "ald": 3083,
      "Ġsens": 3084,
      "Ġfile": 3085,
      "zz": 3086,
      "Ġlab": 3087,
      "Ġfans": 3088,
      "isions": 3089,
      "Ġstandard": 3090,
      "Ġpark": 3091,
      "Ġbed": 3092,
      "Ġstru": 3093,
      "ĠAre": 3094,
      "Ġson": 3095,
      "Ġeyes": 3096,
      "He": 3097,
      "Ġactivities": 3098,
      "ĠWhite": 3099,
      "Ġimage": 3100,
      "Ġencoura": 3101,
      "azing": 3102,
      "ĠNet": 3103,
      "band": 3104,
      "Ġsepar": 3105,
      "Ġfine": 3106,
      "inary": 3107,
      "Ġdecl": 3108,
      "Ġsource": 3109,
      "Ġsil": 3110,
      "Ġ+": 3111,
      "ĠTex": 3112,
      "pite": 3113,
      "ĠAut": 3114,
      "Ġsubs": 3115,
      "99": 3116,
      "bit": 3117,
      "airs": 3118,
      "ĠLaw": 3119,
      "aves": 3120,
      "ĠMor": 3121,
      "mitted": 3122,
      "Ġknowledge": 3123,
      "Ġstates": 3124,
      "Ġsafe": 3125,
      "rael": 3126,
      "Ġleading": 3127,
      "Ġveh": 3128,
      "Ġsett": 3129,
      "Ġmach": 3130,
      "Ġattention": 3131,
      "sp": 3132,
      "Ġ2006": 3133,
      "Ġbi": 3134,
      "ĠEast": 3135,
      "Ġbrought": 3136,
      "Ġyourself": 3137,
      "unk": 3138,
      "Ġstruct": 3139,
      "Ġlevels": 3140,
      "Ġteams": 3141,
      "Ġsection": 3142,
      "isl": 3143,
      "Ġtried": 3144,
      "bl": 3145,
      "Ġbuilt": 3146,
      "Ġfather": 3147,
      "ĠEar": 3148,
      "uted": 3149,
      "ĠWhy": 3150,
      "Ġdisplay": 3151,
      "Ġcat": 3152,
      "ceed": 3153,
      "Ġuser": 3154,
      "body": 3155,
      "Ġseven": 3156,
      "Ġdro": 3157,
      "Ġguys": 3158,
      "mp": 3159,
      "anger": 3160,
      "Ġrelated": 3161,
      "aged": 3162,
      "Ġnearly": 3163,
      "Ġslow": 3164,
      "Ġanswer": 3165,
      "Ġrequest": 3166,
      "24": 3167,
      "wise": 3168,
      "aries": 3169,
      "Ġcup": 3170,
      "Ġconduct": 3171,
      "Ġstarting": 3172,
      "ipe": 3173,
      "Ġbillion": 3174,
      "ara": 3175,
      "ondon": 3176,
      "Ġeight": 3177,
      "ha": 3178,
      "bum": 3179,
      "icient": 3180,
      "su": 3181,
      "ĠMichael": 3182,
      "ĠAnge": 3183,
      "rel": 3184,
      "ĠIr": 3185,
      "Ġrelig": 3186,
      "Ġgiving": 3187,
      "Ġcosts": 3188,
      "Ġrace": 3189,
      "Ġhuge": 3190,
      "ago": 3191,
      "Ġstar": 3192,
      "Ġsell": 3193,
      "ĠJames": 3194,
      "uses": 3195,
      "Ġbal": 3196,
      "Ġconditions": 3197,
      "urning": 3198,
      "Ġdocument": 3199,
      "Ġannounced": 3200,
      "ension": 3201,
      "Ġlegal": 3202,
      "Ġscore": 3203,
      "Ġwall": 3204,
      "Ġchoice": 3205,
      "aughter": 3206,
      "ica": 3207,
      "apan": 3208,
      "Ġcollege": 3209,
      "Ġmilitary": 3210,
      "ounds": 3211,
      "just": 3212,
      "ĠKing": 3213,
      "EC": 3214,
      "Ġprojects": 3215,
      "Ġcross": 3216,
      "Ġarch": 3217,
      "Ġsaf": 3218,
      "You": 3219,
      "Ġbank": 3220,
      "Ġglobal": 3221,
      "Ġut": 3222,
      "Ġclub": 3223,
      "ilies": 3224,
      "yond": 3225,
      "ns": 3226,
      "ĠInternet": 3227,
      "Ġnecessary": 3228,
      "idents": 3229,
      "ĠAir": 3230,
      "Ġwife": 3231,
      "icks": 3232,
      "Ġskin": 3233,
      "Ġmanufact": 3234,
      "Ġevidence": 3235,
      "Ġthinking": 3236,
      "Ġenter": 3237,
      "Ġones": 3238,
      "ET": 3239,
      "example": 3240,
      "raz": 3241,
      "BC": 3242,
      "cription": 3243,
      "ĠRich": 3244,
      "ĠSee": 3245,
      "Ġwrite": 3246,
      "ysis": 3247,
      "Ġautom": 3248,
      "Ġpred": 3249,
      "ani": 3250,
      "aught": 3251,
      "Ġcollection": 3252,
      "Ġguy": 3253,
      "Ġsometimes": 3254,
      "Ġthreat": 3255,
      "Ġhop": 3256,
      "reng": 3257,
      "ĠGreen": 3258,
      "Ġintegr": 3259,
      "Ġpiece": 3260,
      "ĠEnglish": 3261,
      "Ġwhose": 3262,
      "Ġdistrib": 3263,
      "AP": 3264,
      "oses": 3265,
      "Ġlear": 3266,
      "imately": 3267,
      "omen": 3268,
      "Ġpatients": 3269,
      "ĠAustral": 3270,
      "ĠFacebook": 3271,
      "idered": 3272,
      "ĠOp": 3273,
      "ĠCr": 3274,
      "ĠLast": 3275,
      "Ġinsp": 3276,
      "vey": 3277,
      "Ġ29": 3278,
      "ĠIsrael": 3279,
      "enty": 3280,
      "acing": 3281,
      "ĠService": 3282,
      "):": 3283,
      "itc": 3284,
      "Ġspent": 3285,
      "ĠPal": 3286,
      "down": 3287,
      "Ġbudget": 3288,
      "Ġeffort": 3289,
      "ĠBus": 3290,
      "LL": 3291,
      "Ġresources": 3292,
      "Ġreports": 3293,
      "?\"": 3294,
      "Ġfinally": 3295,
      "Ġtast": 3296,
      "Ġdoor": 3297,
      "ĠGet": 3298,
      "iles": 3299,
      "aches": 3300,
      "ĠFe": 3301,
      "amb": 3302,
      "Ġapproach": 3303,
      "ĠGreat": 3304,
      "Ġschools": 3305,
      "Ġfeet": 3306,
      "Ġorganization": 3307,
      "ĠGoogle": 3308,
      "ĠDist": 3309,
      "Ġmessage": 3310,
      "Ġneigh": 3311,
      "ales": 3312,
      "ĠRober": 3313,
      "Ġlocated": 3314,
      "Ġchoose": 3315,
      "imum": 3316,
      "Ġopin": 3317,
      "ĠCongress": 3318,
      "pri": 3319,
      "reed": 3320,
      "uate": 3321,
      "Ġeasily": 3322,
      "estern": 3323,
      "Ġrespond": 3324,
      "Ġparts": 3325,
      "Ġcapt": 3326,
      "Ġreb": 3327,
      "arily": 3328,
      "ĠLondon": 3329,
      "Ġtitle": 3330,
      "king": 3331,
      "Ġgreen": 3332,
      "Ġlo": 3333,
      "ĠTod": 3334,
      "Ġmaybe": 3335,
      "Ġemb": 3336,
      "add": 3337,
      "Ġdownload": 3338,
      "Ġprevent": 3339,
      "ĠOver": 3340,
      "ĠChina": 3341,
      "ĠOut": 3342,
      "OS": 3343,
      "ĠBill": 3344,
      "Ġtick": 3345,
      "iding": 3346,
      "Ġhair": 3347,
      "lim": 3348,
      "Ġgives": 3349,
      "ĠTexas": 3350,
      "Ġsche": 3351,
      "Ġinflu": 3352,
      "Ġten": 3353,
      "ĠJapan": 3354,
      "board": 3355,
      "Ġresponse": 3356,
      "Ġtalking": 3357,
      "23": 3358,
      "Ġsubst": 3359,
      "Ġdark": 3360,
      "Ġfeed": 3361,
      "Ġlack": 3362,
      "ĠGroup": 3363,
      "gar": 3364,
      "Ġsituation": 3365,
      "Ġaward": 3366,
      "Ġideas": 3367,
      "ĠGovern": 3368,
      "ĠHall": 3369,
      "Ġcompletely": 3370,
      "ĠGood": 3371,
      "Ġearlier": 3372,
      "vis": 3373,
      "Ġcy": 3374,
      "ags": 3375,
      "Ġdoub": 3376,
      "Ġoptions": 3377,
      "vision": 3378,
      "Ġgrand": 3379,
      "Ġvariety": 3380,
      "Ġcoach": 3381,
      "ĠMany": 3382,
      "iring": 3383,
      "Ġsafety": 3384,
      "Ġfeature": 3385,
      "lying": 3386,
      "hold": 3387,
      "ĠMart": 3388,
      "Ġsun": 3389,
      "ĠSince": 3390,
      "enced": 3391,
      "ĠSuper": 3392,
      "Ġcamer": 3393,
      "Ġgun": 3394,
      "Ġwants": 3395,
      "Ġlimited": 3396,
      "ĠIN": 3397,
      "Ġbill": 3398,
      "erry": 3399,
      "Ġlic": 3400,
      "ecutive": 3401,
      "ipment": 3402,
      "cause": 3403,
      "mas": 3404,
      "fl": 3405,
      "Ġstories": 3406,
      "ĠProgram": 3407,
      "ĠGerman": 3408,
      "ĠMag": 3409,
      "Ġdoll": 3410,
      "ĠDemocr": 3411,
      "itation": 3412,
      "duc": 3413,
      "Ġmis": 3414,
      "ĠChurch": 3415,
      "Ġweight": 3416,
      "80": 3417,
      "ĠCouncil": 3418,
      "Ġallows": 3419,
      "Ġgas": 3420,
      "Ġsave": 3421,
      "ĠOffice": 3422,
      "itiz": 3423,
      "45": 3424,
      "Ġrout": 3425,
      "ĠAssociation": 3426,
      "ION": 3427,
      "anch": 3428,
      "Ġbirth": 3429,
      "Ġconsidered": 3430,
      "Ġsort": 3431,
      "Ġlearning": 3432,
      "Ġlanguage": 3433,
      "Ġimpress": 3434,
      "Ġ60": 3435,
      "Ġprevious": 3436,
      "Ġterm": 3437,
      "uk": 3438,
      "Ġhistor": 3439,
      "ĠFlor": 3440,
      "ĠMac": 3441,
      "ivity": 3442,
      "iant": 3443,
      "Ġcode": 3444,
      "nds": 3445,
      "Ġdirectly": 3446,
      "ĠPlay": 3447,
      "Ġalbum": 3448,
      "Ġexcell": 3449,
      "Ġphotos": 3450,
      "iment": 3451,
      "ĠAccording": 3452,
      "Ġallowed": 3453,
      "Ġorganiz": 3454,
      "ĠMet": 3455,
      "Ġrock": 3456,
      "27": 3457,
      "Ġblock": 3458,
      "rows": 3459,
      "Ġnote": 3460,
      "Ġregist": 3461,
      "Ġcommer": 3462,
      "Ġcouldn": 3463,
      "Ġ2005": 3464,
      "wide": 3465,
      "ĠMem": 3466,
      "aly": 3467,
      "Ġeconomy": 3468,
      "Ġbeginning": 3469,
      "oly": 3470,
      "ĠPublic": 3471,
      "ears": 3472,
      "ĠProf": 3473,
      "Ġrestaur": 3474,
      "ĠBig": 3475,
      "Ġwarm": 3476,
      "Ġimplement": 3477,
      "Ġstock": 3478,
      "Ġvac": 3479,
      "Ġcarry": 3480,
      "Ġinterested": 3481,
      "Ġpicture": 3482,
      "olf": 3483,
      "rench": 3484,
      "Ġstraight": 3485,
      "venue": 3486,
      "Ġprogress": 3487,
      "mail": 3488,
      "Ġreve": 3489,
      "more": 3490,
      "Ġstreng": 3491,
      "ancy": 3492,
      "Ġforce": 3493,
      "osition": 3494,
      "lin": 3495,
      "Ġstatement": 3496,
      "Ġmodern": 3497,
      "Ġskills": 3498,
      "ibly": 3499,
      "Ġimag": 3500,
      "Ġnature": 3501,
      "ĠSpr": 3502,
      "Ġflow": 3503,
      "Ġnumbers": 3504,
      "Ġofficials": 3505,
      "US": 3506,
      "ault": 3507,
      "ĠTrans": 3508,
      "Ġwait": 3509,
      "Ġdress": 3510,
      "omb": 3511,
      "Ġscient": 3512,
      "pm": 3513,
      "Ġhappened": 3514,
      "ampions": 3515,
      "ĠBook": 3516,
      "ports": 3517,
      "ĠHot": 3518,
      "Ġhous": 3519,
      "ding": 3520,
      "osing": 3521,
      "ĠThom": 3522,
      "Ġbenefits": 3523,
      "Ġfamilies": 3524,
      "ocks": 3525,
      "itely": 3526,
      "ĠMary": 3527,
      "Ġtrip": 3528,
      "inner": 3529,
      "Ġsites": 3530,
      "Ġconsist": 3531,
      "ĠSub": 3532,
      "Ġcandid": 3533,
      "iance": 3534,
      "Ġprot": 3535,
      "see": 3536,
      "Ġoccur": 3537,
      "Ġappl": 3538,
      "Ġextreme": 3539,
      "Ġspeed": 3540,
      "Ġaccom": 3541,
      "Ġprices": 3542,
      "arc": 3543,
      "Ġmount": 3544,
      "ĠCle": 3545,
      "Ġinstru": 3546,
      "Ġposted": 3547,
      "iers": 3548,
      "Ġlif": 3549,
      "ĠThanks": 3550,
      "Ġmiddle": 3551,
      "atever": 3552,
      "Ġlocation": 3553,
      "Ġden": 3554,
      "Ġserious": 3555,
      "ipping": 3556,
      "ength": 3557,
      "sych": 3558,
      "net": 3559,
      "Ġamazing": 3560,
      "Ġgrowing": 3561,
      "Ġmoved": 3562,
      "Ġfirm": 3563,
      "Ġpromot": 3564,
      "Ġpath": 3565,
      "ĠGeneral": 3566,
      "Ġthous": 3567,
      "Ġfix": 3568,
      "Ġstage": 3569,
      "Ġdire": 3570,
      "unities": 3571,
      "Ġnamed": 3572,
      "Ġpaid": 3573,
      "ĠRec": 3574,
      "Ġproviding": 3575,
      "opping": 3576,
      "AD": 3577,
      "undred": 3578,
      "ĠTechn": 3579,
      "Ġensure": 3580,
      "ĠBoard": 3581,
      "oul": 3582,
      "Ġofficial": 3583,
      "rences": 3584,
      "ĠInter": 3585,
      "Ġcorrect": 3586,
      "Ġscience": 3587,
      "Ġconne": 3588,
      "Ġdaily": 3589,
      "ĠServices": 3590,
      "ĠHome": 3591,
      "rs": 3592,
      "Ġplant": 3593,
      "ĠFree": 3594,
      "Ġconvers": 3595,
      "Ġadult": 3596,
      "Ġbeyond": 3597,
      "Ġdemon": 3598,
      "Ġ@": 3599,
      "26": 3600,
      "ashion": 3601,
      "het": 3602,
      "28": 3603,
      "leg": 3604,
      "imin": 3605,
      "ĠSmith": 3606,
      "Ġdeveloped": 3607,
      "Ġalthough": 3608,
      "ĠJew": 3609,
      "ares": 3610,
      "Ġpurchase": 3611,
      "Ġeffective": 3612,
      "Ġserved": 3613,
      "Ġwish": 3614,
      "Ġphysical": 3615,
      "Ġconference": 3616,
      "Ġdisease": 3617,
      "Ġreach": 3618,
      "sequ": 3619,
      "Ġregion": 3620,
      "ston": 3621,
      "35": 3622,
      "arr": 3623,
      "ĠFound": 3624,
      "ĠDel": 3625,
      "Ch": 3626,
      "Ġqual": 3627,
      "wor": 3628,
      "Ġcertainly": 3629,
      "Ġbaby": 3630,
      "Ġsurv": 3631,
      "ĠIndian": 3632,
      "Ġbrother": 3633,
      "Ġlik": 3634,
      "ĠResearch": 3635,
      "ĠPhil": 3636,
      "Ġeat": 3637,
      "Ġregul": 3638,
      "Ġpartners": 3639,
      "Ġindepend": 3640,
      "ĠAlthough": 3641,
      "Ġver": 3642,
      "ager": 3643,
      "ords": 3644,
      "Ġalone": 3645,
      "Ġruns": 3646,
      "IG": 3647,
      "ĠChic": 3648,
      "29": 3649,
      "force": 3650,
      "Ġjobs": 3651,
      "useum": 3652,
      "ography": 3653,
      "Ġoverall": 3654,
      "____": 3655,
      "ĠBrown": 3656,
      "Ġefforts": 3657,
      "ĠChristian": 3658,
      "ĠEduc": 3659,
      "Ġtrade": 3660,
      "Ġsuccessful": 3661,
      "Ġfloor": 3662,
      "ously": 3663,
      "Ġemployees": 3664,
      "Ġhotel": 3665,
      "Ġdouble": 3666,
      "Ġphoto": 3667,
      "Ġannual": 3668,
      "ocol": 3669,
      "ĠRob": 3670,
      "Ġdifference": 3671,
      "Ġplaces": 3672,
      "ĠApple": 3673,
      "Ġparticularly": 3674,
      "asc": 3675,
      "ĠWindows": 3676,
      "Ġextend": 3677,
      "ĠAnn": 3678,
      "Ġexactly": 3679,
      "Ġcomplex": 3680,
      "Ġhighly": 3681,
      "Ġgone": 3682,
      "Ġappropri": 3683,
      "Ġhus": 3684,
      "Ġtrust": 3685,
      "Ġult": 3686,
      "Ġpositive": 3687,
      "Ġspot": 3688,
      "Ġgold": 3689,
      "ils": 3690,
      "ĠPress": 3691,
      "Ġmoving": 3692,
      "Ġadvant": 3693,
      "Ġaware": 3694,
      "Ġdied": 3695,
      "ĠTom": 3696,
      "ĠPri": 3697,
      "rian": 3698,
      "ĠRet": 3699,
      "ĠMiss": 3700,
      "ĠBusiness": 3701,
      "ĠSystem": 3702,
      "akers": 3703,
      "Ġbur": 3704,
      "Ġcancer": 3705,
      "Ġeffects": 3706,
      "Ġimages": 3707,
      "Ġdemand": 3708,
      "Ġvoice": 3709,
      "ari": 3710,
      "ĠAnt": 3711,
      "Ġroll": 3712,
      "orrow": 3713,
      "rast": 3714,
      "Ġpoor": 3715,
      "ĠFlorida": 3716,
      "sey": 3717,
      "Ġpen": 3718,
      "Ġobv": 3719,
      "?âĢĿ": 3720,
      "ĠReview": 3721,
      "olute": 3722,
      "Ġded": 3723,
      "Ġchanged": 3724,
      "olic": 3725,
      "hest": 3726,
      "ady": 3727,
      "ĠEv": 3728,
      "Ġcustomer": 3729,
      "Ġdevice": 3730,
      "Ġapplications": 3731,
      "coming": 3732,
      "Ġcharge": 3733,
      "Ġserve": 3734,
      "Ġbottom": 3735,
      "ĠSun": 3736,
      "ĠPort": 3737,
      "ĠCommission": 3738,
      "ĠLou": 3739,
      "ĠUK": 3740,
      "ipp": 3741,
      "Ġdefense": 3742,
      "ĠJo": 3743,
      "Ġpressure": 3744,
      "ĠGold": 3745,
      "rem": 3746,
      "Ġcapital": 3747,
      "Ġcondition": 3748,
      "Ġoption": 3749,
      "Ġaltern": 3750,
      "Ġfinished": 3751,
      "21": 3752,
      "Ġtools": 3753,
      "EO": 3754,
      "Ġvote": 3755,
      "Ġdream": 3756,
      "Ġlegisl": 3757,
      "Ġfarm": 3758,
      "Ġprem": 3759,
      "Ġcorpor": 3760,
      "ffic": 3761,
      "Ġcivil": 3762,
      "rief": 3763,
      "izes": 3764,
      "ĠRem": 3765,
      "Ġperhaps": 3766,
      "Ġheat": 3767,
      "ĠOnce": 3768,
      "Ġremain": 3769,
      "ĠBel": 3770,
      "Ġavoid": 3771,
      "Ġconcept": 3772,
      "Ġmiles": 3773,
      "ĠOF": 3774,
      "Ġrules": 3775,
      "Ġshown": 3776,
      "Ġwel": 3777,
      "Ġbehav": 3778,
      "Ġtraditional": 3779,
      "Ġspend": 3780,
      "Ġimmediately": 3781,
      "mm": 3782,
      "Ġfollowed": 3783,
      "aling": 3784,
      "iller": 3785,
      "reci": 3786,
      "Ġsom": 3787,
      "ander": 3788,
      "ipped": 3789,
      "IV": 3790,
      "ĠBecause": 3791,
      "Ġdisapp": 3792,
      "atform": 3793,
      "Ġspirit": 3794,
      "ĠIS": 3795,
      "Ġge": 3796,
      "Ġeye": 3797,
      "Ġfeeling": 3798,
      "ĠDec": 3799,
      "ĠClick": 3800,
      "Ġmultiple": 3801,
      "encies": 3802,
      "ĠPhot": 3803,
      "ĠTwo": 3804,
      "Ġfan": 3805,
      "raw": 3806,
      "Ġplanning": 3807,
      "vin": 3808,
      "Ġwouldn": 3809,
      "mark": 3810,
      "Ġuses": 3811,
      "AA": 3812,
      "umn": 3813,
      "PS": 3814,
      "iled": 3815,
      "ĠRock": 3816,
      "Ġmobile": 3817,
      "Ġinform": 3818,
      "ĠBay": 3819,
      "set": 3820,
      "aled": 3821,
      "Ġchurch": 3822,
      "Â®": 3823,
      "Ġ2004": 3824,
      "Ġoffered": 3825,
      "change": 3826,
      "ĠâĢ¦": 3827,
      "Ġactivity": 3828,
      "ĠLike": 3829,
      "Ġhelped": 3830,
      "Ġwood": 3831,
      "Ġ31": 3832,
      "ĠEuropean": 3833,
      "Ġdrink": 3834,
      "inger": 3835,
      "\",": 3836,
      "Ġren": 3837,
      "ki": 3838,
      "ĠST": 3839,
      "ĠJes": 3840,
      "order": 3841,
      "Ġund": 3842,
      "Ġlines": 3843,
      "OL": 3844,
      "ico": 3845,
      "Ġfrequ": 3846,
      "vest": 3847,
      "ĠTimes": 3848,
      "Ġacqu": 3849,
      "Ġhundred": 3850,
      "Ġprec": 3851,
      "Ġpet": 3852,
      "iling": 3853,
      "ĠTwitter": 3854,
      "Ġdetermin": 3855,
      "Ġrefer": 3856,
      "Ġdisp": 3857,
      "ado": 3858,
      "azine": 3859,
      "ĠChicago": 3860,
      "Ġequipment": 3861,
      "Ġfully": 3862,
      "Ġbeat": 3863,
      "ota": 3864,
      "ĠPet": 3865,
      "Ġresponsible": 3866,
      "Ġincreased": 3867,
      "ĠSam": 3868,
      "ĠDevelop": 3869,
      "Re": 3870,
      "Ġincreasing": 3871,
      "EL": 3872,
      "pa": 3873,
      "rig": 3874,
      "Ġargu": 3875,
      "ech": 3876,
      "nded": 3877,
      "Ġdigital": 3878,
      "ĠMod": 3879,
      "ĠMicro": 3880,
      "Ġlargest": 3881,
      "Ġpassed": 3882,
      "Ġtrou": 3883,
      "ĠBen": 3884,
      "arden": 3885,
      "ses": 3886,
      "cks": 3887,
      "ĠYes": 3888,
      "Ġtypes": 3889,
      "33": 3890,
      "anta": 3891,
      "Ġstrugg": 3892,
      "Ġsleep": 3893,
      "ĠCanada": 3894,
      "apter": 3895,
      "icip": 3896,
      "hips": 3897,
      "Ġmaterials": 3898,
      "Ġhaven": 3899,
      "mat": 3900,
      "ĠSl": 3901,
      "Ġkept": 3902,
      "CC": 3903,
      "Ġculture": 3904,
      "Ġgoals": 3905,
      "Ġslight": 3906,
      "bon": 3907,
      "unte": 3908,
      "Ġpow": 3909,
      "Ġcast": 3910,
      "soft": 3911,
      "Ġowners": 3912,
      "Ġcontinued": 3913,
      "Ġliter": 3914,
      "Ġopening": 3915,
      "ĠToday": 3916,
      "Ġrates": 3917,
      "Ġmarketing": 3918,
      "dom": 3919,
      "inn": 3920,
      "Ġhusband": 3921,
      "owl": 3922,
      "Ġanalysis": 3923,
      "men": 3924,
      "ĠRel": 3925,
      "Ġaren": 3926,
      "Ġguess": 3927,
      "ona": 3928,
      "Ġconc": 3929,
      "ĠMike": 3930,
      "Ġindic": 3931,
      "Ġdegree": 3932,
      "ĠTy": 3933,
      "Ġpurpose": 3934,
      "Ġsale": 3935,
      "If": 3936,
      "Ġahead": 3937,
      "ĠFranc": 3938,
      "Ġletter": 3939,
      "ĠPeople": 3940,
      "ĠAbout": 3941,
      "vant": 3942,
      "que": 3943,
      "Ġpages": 3944,
      "ruit": 3945,
      "ĠChristmas": 3946,
      "Ġbenefit": 3947,
      "Ġtoward": 3948,
      "house": 3949,
      "bed": 3950,
      "ĠTer": 3951,
      "Ġcert": 3952,
      "ĠCompany": 3953,
      "ĠWho": 3954,
      "ĠLoc": 3955,
      "iation": 3956,
      "ĠFrench": 3957,
      "Ġbasis": 3958,
      "ĠMcC": 3959,
      "Ġhospital": 3960,
      "ĠEach": 3961,
      "Ġbeg": 3962,
      "ĠBritish": 3963,
      "Ġ196": 3964,
      "ĠCheck": 3965,
      "ĠClass": 3966,
      "Ġmanager": 3967,
      "Ġexcellent": 3968,
      "Ġ=": 3969,
      "Ġsenior": 3970,
      "Ġopportunities": 3971,
      "rant": 3972,
      "chan": 3973,
      "Ġapply": 3974,
      "uled": 3975,
      "opped": 3976,
      "ĠDirector": 3977,
      "Ġfem": 3978,
      "iny": 3979,
      "ronic": 3980,
      "Ġexerc": 3981,
      "irgin": 3982,
      "rey": 3983,
      "Ġdry": 3984,
      "Ġborn": 3985,
      "ris": 3986,
      "hens": 3987,
      "Ġactive": 3988,
      "ĠGeorge": 3989,
      "ĠHist": 3990,
      "Ġtowards": 3991,
      "ervation": 3992,
      "Ġfiles": 3993,
      "Ġjoin": 3994,
      "ĠÂ©": 3995,
      "Ġindividuals": 3996,
      "Ġcateg": 3997,
      "ĠMatt": 3998,
      "Ġachieve": 3999,
      "ĠSur": 4000,
      "Ġknows": 4001,
      "Ġobt": 4002,
      "ancing": 4003,
      "ĠCommittee": 4004,
      "Ġload": 4005,
      "Ġreflect": 4006,
      "Ġsolution": 4007,
      "ĠAv": 4008,
      "Ġrepe": 4009,
      "Ġinsurance": 4010,
      "ĠTop": 4011,
      "Ġsports": 4012,
      "Ġnormal": 4013,
      "Ġtemper": 4014,
      "berg": 4015,
      "ĠChild": 4016,
      "Ġcalls": 4017,
      "antly": 4018,
      "Ġfra": 4019,
      "70": 4020,
      "Ġreasons": 4021,
      "Ġanaly": 4022,
      "amm": 4023,
      "ĠInstitute": 4024,
      "Ġdaughter": 4025,
      "aven": 4026,
      "ĠRuss": 4027,
      "Ġpictures": 4028,
      "ĠPosted": 4029,
      "Ġfigure": 4030,
      "ĠRoad": 4031,
      "well": 4032,
      "ĠClub": 4033,
      "arant": 4034,
      "Ġmeaning": 4035,
      "ĠAmericans": 4036,
      "Ġmeasure": 4037,
      "iable": 4038,
      "Ġpattern": 4039,
      "lished": 4040,
      "Ġble": 4041,
      "Ġwild": 4042,
      "ĠInformation": 4043,
      "Ġorigin": 4044,
      "Ġton": 4045,
      "Ġcitiz": 4046,
      "Ġnames": 4047,
      "ĠDuring": 4048,
      "DA": 4049,
      "Ġleader": 4050,
      "ube": 4051,
      "Ġnotice": 4052,
      "ustr": 4053,
      "Ġspring": 4054,
      "Ġadvert": 4055,
      "Ġcold": 4056,
      "rees": 4057,
      "ĠPR": 4058,
      "Ġstudies": 4059,
      "Ġinnov": 4060,
      "Ġfaith": 4061,
      "Ġdefinitely": 4062,
      "Ġspending": 4063,
      "Ġdamage": 4064,
      "itz": 4065,
      "Ġbusinesses": 4066,
      "ĠLeague": 4067,
      "Ġglass": 4068,
      "ims": 4069,
      "Ġseeing": 4070,
      "ĠCarol": 4071,
      "Ġappreci": 4072,
      "75": 4073,
      "Ġwonderful": 4074,
      "Ġpopulation": 4075,
      "ĠRiver": 4076,
      "TS": 4077,
      "ĠCamp": 4078,
      "ĠJim": 4079,
      "Ġgreater": 4080,
      "ĠIndia": 4081,
      "itar": 4082,
      "osh": 4083,
      "mine": 4084,
      "oms": 4085,
      "ĠFrank": 4086,
      "ken": 4087,
      "ĠRobert": 4088,
      "Ġchallenge": 4089,
      ");": 4090,
      "ĠScott": 4091,
      "Ġwat": 4092,
      "Ġnut": 4093,
      "Ġcommercial": 4094,
      "amic": 4095,
      "Ġcreating": 4096,
      "Ġseemed": 4097,
      "Ġpros": 4098,
      "ĠIsland": 4099,
      "Ġfat": 4100,
      "ĠBest": 4101,
      "Ġunderstanding": 4102,
      "Ġcharacters": 4103,
      "Ġfinish": 4104,
      "reak": 4105,
      "iced": 4106,
      "Ġoccas": 4107,
      "Ġhealthy": 4108,
      "ĠTime": 4109,
      "ĠSal": 4110,
      "rial": 4111,
      "Ġfootball": 4112,
      "ivery": 4113,
      "As": 4114,
      "itude": 4115,
      "ĠHum": 4116,
      "ĠUnder": 4117,
      "Ġadvice": 4118,
      "ĠWork": 4119,
      "Ġsweet": 4120,
      "Ġhelps": 4121,
      "ented": 4122,
      "Ġfourth": 4123,
      "Ġblue": 4124,
      "Ġmail": 4125,
      "ĠPC": 4126,
      "Ġspread": 4127,
      "Ġlarger": 4128,
      "riage": 4129,
      "using": 4130,
      "Ġgift": 4131,
      "Ġsociety": 4132,
      "Ġlearned": 4133,
      "outhern": 4134,
      "OW": 4135,
      "Ġprefer": 4136,
      "Ġconsult": 4137,
      "ĠStar": 4138,
      "ĠEducation": 4139,
      "win": 4140,
      "ĠCur": 4141,
      "Ġbasic": 4142,
      "atab": 4143,
      "OP": 4144,
      "za": 4145,
      "itable": 4146,
      "Ġreduce": 4147,
      "ĠLife": 4148,
      "Ġgirls": 4149,
      "Ġbiggest": 4150,
      "Ġexpand": 4151,
      "Ġ80": 4152,
      "Ġabsolute": 4153,
      "rowd": 4154,
      "Ġmer": 4155,
      "ae": 4156,
      "Ġsust": 4157,
      "Ġcommit": 4158,
      "ooth": 4159,
      "Ġproced": 4160,
      "istry": 4161,
      "Ġassess": 4162,
      "ĠEngland": 4163,
      "isco": 4164,
      "ĠSol": 4165,
      "Ġrent": 4166,
      "Ġcolle": 4167,
      "lor": 4168,
      "Ġgrant": 4169,
      "Ġcamera": 4170,
      "ĠMil": 4171,
      "Ġjump": 4172,
      "Ġ35": 4173,
      "Ġpeace": 4174,
      "Ġsecret": 4175,
      "RA": 4176,
      "igned": 4177,
      "----": 4178,
      "Ġtruth": 4179,
      "Ġonto": 4180,
      "ĠFam": 4181,
      "agn": 4182,
      "Ġdescribed": 4183,
      "Ġpaint": 4184,
      "ĠUSA": 4185,
      "Ġdoctor": 4186,
      "ĠVol": 4187,
      "Ġscene": 4188,
      "ucky": 4189,
      "Ġsomew": 4190,
      "Ġanti": 4191,
      "IM": 4192,
      "Ġadop": 4193,
      "Ġentertain": 4194,
      "roy": 4195,
      "Ġthrow": 4196,
      "Ġconstruction": 4197,
      "Ġloved": 4198,
      "ffee": 4199,
      "Ġclin": 4200,
      "itness": 4201,
      "Ġmovement": 4202,
      "yan": 4203,
      "istics": 4204,
      "Ġcontain": 4205,
      "ores": 4206,
      "ĠVis": 4207,
      "uty": 4208,
      "Ġworkers": 4209,
      "Ġkilled": 4210,
      "Ġgra": 4211,
      "ĠAnother": 4212,
      "Ġplatform": 4213,
      "Ġrelative": 4214,
      "ĠDiv": 4215,
      "ĠBack": 4216,
      "Ġgar": 4217,
      "Ġcru": 4218,
      "ĠMex": 4219,
      "Ġcentury": 4220,
      "Ġadvantage": 4221,
      "Ġlength": 4222,
      "Ġ2003": 4223,
      "ĠSum": 4224,
      "Ġappropriate": 4225,
      "Ġtransfer": 4226,
      "ĠBank": 4227,
      "Ġforeign": 4228,
      "pects": 4229,
      "Ġstrateg": 4230,
      "ĠNov": 4231,
      "Ġexhib": 4232,
      "Ġappears": 4233,
      "Ġwhatever": 4234,
      "isf": 4235,
      "Ġthank": 4236,
      "ij": 4237,
      "Ġvirt": 4238,
      "Ġinvestment": 4239,
      "ĠChris": 4240,
      "osure": 4241,
      "Ġweather": 4242,
      "place": 4243,
      "Ġshowed": 4244,
      "Ġorganizations": 4245,
      "Ġassociated": 4246,
      "ĠBer": 4247,
      "Ġearth": 4248,
      "Ġdeliver": 4249,
      "Ġproduce": 4250,
      "Ġaccur": 4251,
      "90": 4252,
      "Ġsurround": 4253,
      "phone": 4254,
      "rupt": 4255,
      "ĠJud": 4256,
      "itect": 4257,
      "Ġ2000": 4258,
      "Ġfab": 4259,
      "ĠWhe": 4260,
      "Ġwine": 4261,
      "ĠDistrict": 4262,
      "ooper": 4263,
      "ĠAlex": 4264,
      "Ġpoll": 4265,
      "ici": 4266,
      "Ġchem": 4267,
      "Ġpowerful": 4268,
      "Ġopinion": 4269,
      "ĠLos": 4270,
      "Ġremains": 4271,
      "esterday": 4272,
      "Ġevening": 4273,
      "inter": 4274,
      "What": 4275,
      "roud": 4276,
      "ĠTim": 4277,
      "500": 4278,
      "omin": 4279,
      "icine": 4280,
      "Ġarrest": 4281,
      "Ġreplace": 4282,
      "ulf": 4283,
      "Ġcompetition": 4284,
      "gal": 4285,
      "anging": 4286,
      "100": 4287,
      "Ġsetting": 4288,
      "Ġclients": 4289,
      "miss": 4290,
      "Ġplaced": 4291,
      "Ġsolid": 4292,
      "Ġdemonstr": 4293,
      "last": 4294,
      "BS": 4295,
      "ĠJer": 4296,
      "IL": 4297,
      "ĠSupp": 4298,
      "Ġhomes": 4299,
      "Ġtruly": 4300,
      "Ġopened": 4301,
      "Ġclot": 4302,
      "Ġheavy": 4303,
      "Ġir": 4304,
      "Ġstandards": 4305,
      "95": 4306,
      "unately": 4307,
      "Ġcompared": 4308,
      "44": 4309,
      "Ġemot": 4310,
      "ĠLake": 4311,
      "ĠHel": 4312,
      "ĠKn": 4313,
      "ym": 4314,
      "Ġwinning": 4315,
      "ĠWil": 4316,
      "Ġrecords": 4317,
      "edy": 4318,
      "ucle": 4319,
      "ĠLook": 4320,
      "estival": 4321,
      "IP": 4322,
      "Ġrequirements": 4323,
      "friend": 4324,
      "Ġgenerally": 4325,
      "ĠScience": 4326,
      "Ġelection": 4327,
      "IA": 4328,
      "ategy": 4329,
      "Ġproduced": 4330,
      "oma": 4331,
      "Ġnove": 4332,
      "ifying": 4333,
      "BA": 4334,
      "ĠCD": 4335,
      "Ġunit": 4336,
      "Ġenh": 4337,
      "istan": 4338,
      "ours": 4339,
      "Ġlots": 4340,
      "Ġthanks": 4341,
      "Ġoffering": 4342,
      "olly": 4343,
      "Ġpieces": 4344,
      "Ġeasier": 4345,
      "Ġlinks": 4346,
      "ĠUN": 4347,
      "Ġacadem": 4348,
      "Ġdevices": 4349,
      "Ġestablished": 4350,
      "annel": 4351,
      "Ġended": 4352,
      "term": 4353,
      "Ġadjust": 4354,
      "Ġweap": 4355,
      "Ġcontinu": 4356,
      "ĠMount": 4357,
      "fit": 4358,
      "Ġmist": 4359,
      "asy": 4360,
      "Ġexpert": 4361,
      "ĠVirgin": 4362,
      "Ġmission": 4363,
      "Ġneighbor": 4364,
      "gment": 4365,
      "Ġappoint": 4366,
      "Ġplus": 4367,
      "Ġbrain": 4368,
      "Ġcontinues": 4369,
      "Ġwed": 4370,
      "gen": 4371,
      "ĠMad": 4372,
      "Ġcompon": 4373,
      "ĠYear": 4374,
      "Ġarr": 4375,
      "Ġwatching": 4376,
      "Ġpresented": 4377,
      "ĠUse": 4378,
      "Ġpatient": 4379,
      "Ġrank": 4380,
      "ĠCap": 4381,
      "Ġsurface": 4382,
      "ĠCentral": 4383,
      "ĠJeff": 4384,
      "Ġclosed": 4385,
      "ĠLove": 4386,
      "ĠPlan": 4387,
      "ĠÂ£": 4388,
      "Ġdepartment": 4389,
      "itors": 4390,
      "Ġstatus": 4391,
      "Ġvehicle": 4392,
      "Ġmemory": 4393,
      "Ġtrial": 4394,
      "Ġdiscussion": 4395,
      "tr": 4396,
      "Ġnine": 4397,
      "Ġowner": 4398,
      "Ġcrowd": 4399,
      "Ġrare": 4400,
      "Ġbag": 4401,
      "Ġ90": 4402,
      "Ġstation": 4403,
      "la": 4404,
      "Ġdistrict": 4405,
      "Ġprimary": 4406,
      "ĠIT": 4407,
      "ĠFore": 4408,
      "point": 4409,
      "Ġiniti": 4410,
      "There": 4411,
      "Ġmax": 4412,
      "semb": 4413,
      "Ġdrop": 4414,
      "ĠVer": 4415,
      "ĠView": 4416,
      "ĠHill": 4417,
      "ĠOk": 4418,
      "ĠJesus": 4419,
      "Ġsched": 4420,
      "36": 4421,
      "Ġclaims": 4422,
      "arks": 4423,
      "Ġsmart": 4424,
      "Ġstick": 4425,
      "ulated": 4426,
      "Ġjournal": 4427,
      "orage": 4428,
      "inese": 4429,
      "Ġolder": 4430,
      "ordin": 4431,
      "Ġretail": 4432,
      "Ġ<": 4433,
      "Ġfear": 4434,
      "Ġmachine": 4435,
      "cript": 4436,
      "Ġclearly": 4437,
      "ĠMarket": 4438,
      "vere": 4439,
      "Ġcritical": 4440,
      "Ġdanger": 4441,
      "Ġincome": 4442,
      "Ġkick": 4443,
      "press": 4444,
      "Ġlaws": 4445,
      "Ġmill": 4446,
      "ĠSk": 4447,
      "Ġexisting": 4448,
      "ĠLord": 4449,
      "gl": 4450,
      "Ġstreet": 4451,
      "Ġradio": 4452,
      "ĠDet": 4453,
      "part": 4454,
      "ĠCall": 4455,
      "Ġbattle": 4456,
      "Ġattract": 4457,
      "ĠDown": 4458,
      "ĠSil": 4459,
      "gers": 4460,
      "ĠCare": 4461,
      "Ġotherwise": 4462,
      "Ġcatch": 4463,
      "Ġtrain": 4464,
      "55": 4465,
      "EM": 4466,
      "ĠAtt": 4467,
      "Ġtransport": 4468,
      "Ġestim": 4469,
      "Ġfashion": 4470,
      "hone": 4471,
      "oices": 4472,
      "ĠWall": 4473,
      "ĠCopy": 4474,
      "Ġbought": 4475,
      "Ġparties": 4476,
      "Ġwaiting": 4477,
      "ĠOpen": 4478,
      "Ġcompleted": 4479,
      "igan": 4480,
      "Ġselection": 4481,
      "Ġfol": 4482,
      "Ġ70": 4483,
      "orial": 4484,
      "ĠLouis": 4485,
      "Ġwear": 4486,
      "!\"": 4487,
      "ĠBob": 4488,
      "Ġestablish": 4489,
      "Ġfunds": 4490,
      "acity": 4491,
      "Ġdriving": 4492,
      "ĠStr": 4493,
      "dule": 4494,
      "okes": 4495,
      "Ġhighest": 4496,
      "Ġfant": 4497,
      "Ġeval": 4498,
      "ĠJohnson": 4499,
      "Ġign": 4500,
      "gn": 4501,
      "Ġhelping": 4502,
      "Ġshop": 4503,
      "udd": 4504,
      "Ġmeant": 4505,
      "ĠBoth": 4506,
      "ologies": 4507,
      "CH": 4508,
      "ĠJoe": 4509,
      "vention": 4510,
      "Ġarm": 4511,
      "Ġprotection": 4512,
      "ĠGovernment": 4513,
      "UR": 4514,
      "Ġcash": 4515,
      "apers": 4516,
      "Ġwhom": 4517,
      "ĠSocial": 4518,
      "Ġmajority": 4519,
      "orney": 4520,
      "Ġagency": 4521,
      "Ġactual": 4522,
      "noon": 4523,
      "state": 4524,
      "ĠThank": 4525,
      "Ġreached": 4526,
      "Ġconnection": 4527,
      "Ġpair": 4528,
      "standing": 4529,
      "ĠMass": 4530,
      "ios": 4531,
      "Ġvill": 4532,
      "Ġreality": 4533,
      "ĠEnter": 4534,
      "Ġpsych": 4535,
      "ties": 4536,
      "Ġhappens": 4537,
      "Ġstarts": 4538,
      "Ġremind": 4539,
      "2013": 4540,
      "ĠShow": 4541,
      "look": 4542,
      "PA": 4543,
      "antic": 4544,
      "Ġyards": 4545,
      "ĠFind": 4546,
      "Ġbrief": 4547,
      "atically": 4548,
      "Ġbask": 4549,
      "ĠArch": 4550,
      "ĠMicrosoft": 4551,
      "oop": 4552,
      "ĠBur": 4553,
      "Ġforum": 4554,
      "Ġstrength": 4555,
      "oves": 4556,
      "Ġkid": 4557,
      "box": 4558,
      "Ġraised": 4559,
      "Ġdirection": 4560,
      "Ġbackground": 4561,
      "kn": 4562,
      "ero": 4563,
      "Ġlose": 4564,
      "38": 4565,
      "orter": 4566,
      "ĠTO": 4567,
      "ĠMal": 4568,
      "ĠAngeles": 4569,
      "ĠAND": 4570,
      "Ġvolunte": 4571,
      "Ġviews": 4572,
      "porary": 4573,
      "Ġcommunities": 4574,
      "ĠFire": 4575,
      "isher": 4576,
      "Ġthousands": 4577,
      "Ġuseful": 4578,
      "ocked": 4579,
      "Ġreturned": 4580,
      "Ġcentral": 4581,
      "Ġrule": 4582,
      "Ġstress": 4583,
      "Ġcovered": 4584,
      "Ġice": 4585,
      "Ġsch": 4586,
      "Ġrob": 4587,
      "iverse": 4588,
      "ĠAustralia": 4589,
      "ĠPolice": 4590,
      "Ġmechan": 4591,
      "34": 4592,
      "Ġbreat": 4593,
      "ĠRichard": 4594,
      "Ġpolic": 4595,
      "ugg": 4596,
      "Ġscen": 4597,
      "imb": 4598,
      "Ġsem": 4599,
      "Ġleaving": 4600,
      "ĠSand": 4601,
      "ĠMedia": 4602,
      "ette": 4603,
      "ĠCommunity": 4604,
      "amin": 4605,
      "Ġextremely": 4606,
      "Ã¢": 4607,
      "Ġdespite": 4608,
      "Ġregarding": 4609,
      "oving": 4610,
      "how": 4611,
      "Ġcris": 4612,
      "ĠÂ»": 4613,
      "ula": 4614,
      "ĠAtl": 4615,
      "Ġplays": 4616,
      "ius": 4617,
      "Ġcaused": 4618,
      "but": 4619,
      "âĢĿ.": 4620,
      "ĠRepublican": 4621,
      "ĠWood": 4622,
      "Ġfinding": 4623,
      "Ġrich": 4624,
      "text": 4625,
      "Ġing": 4626,
      "Ġtraffic": 4627,
      "ĠNY": 4628,
      "Ġur": 4629,
      "ĠDesign": 4630,
      "Ġsteps": 4631,
      "ĠMer": 4632,
      "ĠUnion": 4633,
      "rd": 4634,
      "ĠDV": 4635,
      "Ġgraph": 4636,
      "Ġpartner": 4637,
      "Ġoperations": 4638,
      "Ġexclus": 4639,
      "ĠThomas": 4640,
      "asp": 4641,
      "Ġrap": 4642,
      "Ġtherefore": 4643,
      "Ġsigned": 4644,
      "Ġrequires": 4645,
      "ĠIra": 4646,
      "ĠTor": 4647,
      "itchen": 4648,
      "ĠPower": 4649,
      ".'": 4650,
      "aming": 4651,
      "Ġaudience": 4652,
      "Ġlimit": 4653,
      "ads": 4654,
      "ĠFoundation": 4655,
      "ĠProject": 4656,
      "Ġthus": 4657,
      "bert": 4658,
      "entially": 4659,
      "ĠSteve": 4660,
      "Ġresidents": 4661,
      "asure": 4662,
      "ĠHol": 4663,
      "Ġfish": 4664,
      "ĠProfess": 4665,
      "Ġchair": 4666,
      "Ġapparent": 4667,
      "Ġshowing": 4668,
      "ĠBlue": 4669,
      "ĠJournal": 4670,
      "Ġdeveloping": 4671,
      "Ġflu": 4672,
      "Ġcards": 4673,
      "Ġadministration": 4674,
      "Ġelectric": 4675,
      "Ġvictory": 4676,
      "Ġhar": 4677,
      "ĠSpecial": 4678,
      "Ġepis": 4679,
      "ĠIll": 4680,
      "Ġnor": 4681,
      "outs": 4682,
      "Ġproud": 4683,
      "Ġvs": 4684,
      "gency": 4685,
      "ÃŃ": 4686,
      "ĠTheir": 4687,
      "Ġstructure": 4688,
      "works": 4689,
      "ĠWhere": 4690,
      "Ġfif": 4691,
      "enses": 4692,
      "ĠPeter": 4693,
      "ĠVe": 4694,
      "ection": 4695,
      "pective": 4696,
      "**": 4697,
      "oston": 4698,
      "Ġunless": 4699,
      "ĠFood": 4700,
      "yer": 4701,
      "ĠMusic": 4702,
      "Ġprofession": 4703,
      "Ġliber": 4704,
      "ĠRad": 4705,
      "Ġeth": 4706,
      "Ġminute": 4707,
      "Ġmulti": 4708,
      "ĠChinese": 4709,
      "no": 4710,
      "Ġhearing": 4711,
      "esome": 4712,
      "Ġcounter": 4713,
      "Ġmur": 4714,
      "cape": 4715,
      "Ġwilling": 4716,
      "Ġsources": 4717,
      "Ġlabor": 4718,
      "Ġ2002": 4719,
      "Ġcomfortable": 4720,
      "Ġshut": 4721,
      "Ġagreement": 4722,
      "ĠHam": 4723,
      "Ġapprox": 4724,
      "Ġcells": 4725,
      "37": 4726,
      "overy": 4727,
      "Ġminor": 4728,
      "Ġcollabor": 4729,
      "Ġscored": 4730,
      "Ġsuppl": 4731,
      "kins": 4732,
      "Ġbecomes": 4733,
      "ĠBet": 4734,
      "ĠForm": 4735,
      "Ġdelivery": 4736,
      "ĠGrand": 4737,
      "rep": 4738,
      "Ġpray": 4739,
      "Ġbatter": 4740,
      "ĠMartin": 4741,
      "Ġclasses": 4742,
      "Ġchief": 4743,
      "pan": 4744,
      "Ġenvironmental": 4745,
      "Ġath": 4746,
      "Ġmentioned": 4747,
      "iest": 4748,
      "ste": 4749,
      "Ġlaunch": 4750,
      "Ġdoubt": 4751,
      "Ġnoted": 4752,
      "hy": 4753,
      "Ġadding": 4754,
      "Ġsolutions": 4755,
      "Ġtend": 4756,
      "Ġsnow": 4757,
      "spe": 4758,
      "ĠCath": 4759,
      "ulty": 4760,
      "ĠDevelopment": 4761,
      "ĠRE": 4762,
      "FL": 4763,
      "Ġtelevision": 4764,
      "acks": 4765,
      "estic": 4766,
      "Ġafternoon": 4767,
      "Ġmaster": 4768,
      "ĠSa": 4769,
      "ĠHave": 4770,
      "ĠIraq": 4771,
      "ĠSociety": 4772,
      "Ġran": 4773,
      "Ġleague": 4774,
      "Ġcorner": 4775,
      "Ġseparate": 4776,
      "while": 4777,
      "ulate": 4778,
      "Ġselected": 4779,
      "Ġguarant": 4780,
      "cher": 4781,
      "Ġdinner": 4782,
      "ĠColor": 4783,
      "ĠSenate": 4784,
      "Ġdatab": 4785,
      "Ġputting": 4786,
      "Ġdetermine": 4787,
      "iliar": 4788,
      "Ġship": 4789,
      "48": 4790,
      "fast": 4791,
      "reek": 4792,
      "Ġâ": 4793,
      "Ġsupply": 4794,
      "ss": 4795,
      "05": 4796,
      "imal": 4797,
      "Ġholiday": 4798,
      "Ġafford": 4799,
      "Ġnotes": 4800,
      "Ġharm": 4801,
      "idel": 4802,
      "??": 4803,
      "ĠAT": 4804,
      "gery": 4805,
      "Ġmodels": 4806,
      "ĠLear": 4807,
      "Ġsession": 4808,
      "ka": 4809,
      "ĠDef": 4810,
      "Ġindependent": 4811,
      "Ġentry": 4812,
      "ĠAfrica": 4813,
      "Ġfunding": 4814,
      "Ġguide": 4815,
      "Ġsatisf": 4816,
      "Ġanimals": 4817,
      "ĠJones": 4818,
      "Ġdraft": 4819,
      "Ġimpl": 4820,
      "aked": 4821,
      "Ġkeeping": 4822,
      "ĠJul": 4823,
      "ellow": 4824,
      "ENT": 4825,
      "Ġprepared": 4826,
      "orry": 4827,
      "Ġforms": 4828,
      "ĠFort": 4829,
      "47": 4830,
      "ĠConst": 4831,
      "Ġmonitor": 4832,
      "Ġtough": 4833,
      "icken": 4834,
      "SP": 4835,
      "ĠValley": 4836,
      "Ġnorth": 4837,
      "Ġbra": 4838,
      "ĠJose": 4839,
      "ception": 4840,
      "ĠLong": 4841,
      "met": 4842,
      "uries": 4843,
      "ĠConference": 4844,
      "2012": 4845,
      "ishes": 4846,
      "ading": 4847,
      "Ġmarkets": 4848,
      "ĠManagement": 4849,
      "with": 4850,
      "Ġwinter": 4851,
      "lymp": 4852,
      "Ġban": 4853,
      "Ġpm": 4854,
      "Ġarg": 4855,
      "Ġalle": 4856,
      "ĠReport": 4857,
      "ĠJackson": 4858,
      "Ġreligious": 4859,
      "Ġsongs": 4860,
      "Ġspecies": 4861,
      "ĠMont": 4862,
      "Ġpool": 4863,
      "odes": 4864,
      "Ġsouth": 4865,
      "Ġunc": 4866,
      "Ġstrategy": 4867,
      "Ġlisted": 4868,
      "Ĥ¬": 4869,
      "Ġwindow": 4870,
      "Ġ2001": 4871,
      "ĠMake": 4872,
      "Ġsounds": 4873,
      "ĠStep": 4874,
      "ĠSecurity": 4875,
      "Ġteaching": 4876,
      "Ġappeared": 4877,
      "ĠCard": 4878,
      "88": 4879,
      "erous": 4880,
      "alls": 4881,
      "uit": 4882,
      "Ġexcited": 4883,
      "ĠFollow": 4884,
      "ĠEarth": 4885,
      "ctors": 4886,
      "ĠFederal": 4887,
      "ĠGame": 4888,
      "Ġinjury": 4889,
      "Ġleadership": 4890,
      "ĠCopyright": 4891,
      "Ġslightly": 4892,
      "Ġforget": 4893,
      "ĠOhio": 4894,
      "Ġcars": 4895,
      "Ġcommand": 4896,
      "ushed": 4897,
      "Ġfreed": 4898,
      "Ġstream": 4899,
      "39": 4900,
      "active": 4901,
      "Ġforces": 4902,
      "ĠNetwork": 4903,
      "Ġeditor": 4904,
      "rapy": 4905,
      "ĠParty": 4906,
      "Ġspons": 4907,
      "ĠRoy": 4908,
      "ĠTre": 4909,
      "Ġtechnical": 4910,
      "iques": 4911,
      "ĠBoston": 4912,
      "ails": 4913,
      "Ġpackage": 4914,
      "ĠAP": 4915,
      "ĠTeam": 4916,
      "ĠBush": 4917,
      "ĠThose": 4918,
      "Ġegg": 4919,
      "ĠDou": 4920,
      "Ġtaste": 4921,
      "Ġasking": 4922,
      "Ġdecisions": 4923,
      "Ġyesterday": 4924,
      "Ġcoverage": 4925,
      "Ġcontains": 4926,
      "Ġarticles": 4927,
      "49": 4928,
      "Ġexecutive": 4929,
      "Ġ45": 4930,
      "Ġbutton": 4931,
      "Ġoperating": 4932,
      "32": 4933,
      "Ġresist": 4934,
      "ĠMot": 4935,
      "Ġearn": 4936,
      "Ġfuel": 4937,
      "Ġtransl": 4938,
      "31": 4939,
      "46": 4940,
      "inct": 4941,
      "Ġartist": 4942,
      "ĠWomen": 4943,
      "ĠOffic": 4944,
      "Ġtim": 4945,
      "Ġincred": 4946,
      "ĠOnly": 4947,
      "ĠWestern": 4948,
      "Ġsmaller": 4949,
      "Ġlands": 4950,
      "!!!": 4951,
      "Ġcop": 4952,
      "Ġvalues": 4953,
      "Ġeventually": 4954,
      "uclear": 4955,
      "Ġcoffee": 4956,
      "usion": 4957,
      "Ġbecoming": 4958,
      "Ġrestaurant": 4959,
      "Ġbalance": 4960,
      "Ġmanufacture": 4961,
      "Ġgain": 4962,
      "burg": 4963,
      "ano": 4964,
      "Ġannounce": 4965,
      "Ġsupposed": 4966,
      "Ġjoined": 4967,
      "po": 4968,
      "Ġreviews": 4969,
      "Ġadvance": 4970,
      "Ġmanaged": 4971,
      "ĠWater": 4972,
      "Ġupdate": 4973,
      "ĠSecret": 4974,
      "Ġinternet": 4975,
      "ga": 4976,
      "Ġdefend": 4977,
      "Ġclient": 4978,
      "Ġthr": 4979,
      "Ġspl": 4980,
      "Ġmostly": 4981,
      "ĠVirginia": 4982,
      "Ġrat": 4983,
      "Ġbasket": 4984,
      "lig": 4985,
      "ĠOlymp": 4986,
      "iminal": 4987,
      "Ġcaught": 4988,
      "Ġcitizens": 4989,
      "word": 4990,
      "ram": 4991,
      "Ġbehavior": 4992,
      "Ġseconds": 4993,
      "Ġgall": 4994,
      "ĠNOT": 4995,
      "Ġspect": 4996,
      "Ġtro": 4997,
      "Ġreaders": 4998,
      "Ġsugar": 4999,
      "Ġterror": 5000,
      "ront": 5001,
      "ĠTri": 5002,
      "Ġelements": 5003,
      "Ġcreative": 5004,
      "Ġdebt": 5005,
      "tered": 5006,
      "going": 5007,
      "Ġmarriage": 5008,
      "eria": 5009,
      "Ġcalling": 5010,
      "Ġproposed": 5011,
      "Ġartists": 5012,
      "Ġsand": 5013,
      "Ġpropos": 5014,
      "Ġkill": 5015,
      "do": 5016,
      "Ġposts": 5017,
      "eah": 5018,
      "Ġfamous": 5019,
      "ĠTake": 5020,
      "Ġcharges": 5021,
      "Ġlisten": 5022,
      "ĠWilliams": 5023,
      "Ġrid": 5024,
      "New": 5025,
      "Ġplenty": 5026,
      "Ġdocuments": 5027,
      "Ġteachers": 5028,
      "ĠiPhone": 5029,
      "ĠDen": 5030,
      "Ġmap": 5031,
      "ript": 5032,
      "Ġserver": 5033,
      "Ġholding": 5034,
      "lands": 5035,
      "Ġpolicies": 5036,
      "Ġfill": 5037,
      "Ġbul": 5038,
      "Ġcry": 5039,
      "which": 5040,
      "ixt": 5041,
      "Ġprison": 5042,
      "Ġresponsibility": 5043,
      "Ġsexual": 5044,
      "Ġtesting": 5045,
      "Ġwire": 5046,
      "Ġpun": 5047,
      "orthern": 5048,
      "Ġmaintain": 5049,
      "Ġtight": 5050,
      "Ġfailed": 5051,
      "rick": 5052,
      "illa": 5053,
      "ideo": 5054,
      "ĠPenn": 5055,
      "Ġfacilities": 5056,
      "aine": 5057,
      "ocolate": 5058,
      "Ġpreviously": 5059,
      "ait": 5060,
      "Ġdriver": 5061,
      "Ġpresence": 5062,
      "ĠAcadem": 5063,
      "uke": 5064,
      "ĠWeek": 5065,
      "obe": 5066,
      "CE": 5067,
      "ĠAri": 5068,
      "Ġshape": 5069,
      "ĠFamily": 5070,
      "Ġforced": 5071,
      "Ġschedule": 5072,
      "Ġbird": 5073,
      "ĠNE": 5074,
      "Ġdollars": 5075,
      "ef": 5076,
      "Ġwelcome": 5077,
      "Ġaim": 5078,
      "ĠIts": 5079,
      "ĠDan": 5080,
      "Ġlibrary": 5081,
      "ĠAward": 5082,
      "azz": 5083,
      "Ġraise": 5084,
      "Ġshooting": 5085,
      "Ġshopping": 5086,
      "SA": 5087,
      "pond": 5088,
      "ĠHy": 5089,
      "ĠCarolina": 5090,
      "Ġride": 5091,
      "Ġ36": 5092,
      "ĠNext": 5093,
      "fortunately": 5094,
      "Ġfav": 5095,
      "ĠDi": 5096,
      "Ġtells": 5097,
      "Ġcream": 5098,
      "Ġtree": 5099,
      "Ġchallenges": 5100,
      "oos": 5101,
      "ansas": 5102,
      "Ġincor": 5103,
      "ulture": 5104,
      "Ġbright": 5105,
      "ĠFrance": 5106,
      "ii": 5107,
      "rehens": 5108,
      "Ġmouth": 5109,
      "Ġallowing": 5110,
      "rist": 5111,
      "llig": 5112,
      "Ġsurvey": 5113,
      "ĠSing": 5114,
      "Ġteacher": 5115,
      "ĠStand": 5116,
      "icon": 5117,
      "Ġfilled": 5118,
      "Ġactions": 5119,
      "CT": 5120,
      "craft": 5121,
      "verse": 5122,
      "ĠJon": 5123,
      "enture": 5124,
      "ĠNor": 5125,
      "atin": 5126,
      "Ġcircum": 5127,
      "oles": 5128,
      "Ġdecide": 5129,
      "life": 5130,
      "Ġveter": 5131,
      "roid": 5132,
      "Ġsequ": 5133,
      "Ġviolence": 5134,
      "Ġprinc": 5135,
      "Ġclassic": 5136,
      "IR": 5137,
      "Ġleaves": 5138,
      "Ġcommitted": 5139,
      "ĠOld": 5140,
      "ola": 5141,
      "ushing": 5142,
      "ĠMaybe": 5143,
      "Ġrecip": 5144,
      "ĠLibrary": 5145,
      "Ġmarried": 5146,
      "ania": 5147,
      "Ġsea": 5148,
      "zen": 5149,
      "Ġshared": 5150,
      "Ġconcerns": 5151,
      "Ġgeneration": 5152,
      "Ġoperation": 5153,
      "Ġexercise": 5154,
      "abilities": 5155,
      "Ġsecure": 5156,
      "rolled": 5157,
      "ĠBefore": 5158,
      "Ġhonest": 5159,
      "Ġofficer": 5160,
      "Ġfactors": 5161,
      "ĠNote": 5162,
      "ournament": 5163,
      "NA": 5164,
      "known": 5165,
      "ownt": 5166,
      "Ġconcerned": 5167,
      "Ġreform": 5168,
      "ĠSecond": 5169,
      "Ġexperienced": 5170,
      "ĠMel": 5171,
      "Ġremove": 5172,
      "ifts": 5173,
      "ograp": 5174,
      "care": 5175,
      "Ġarchitect": 5176,
      "Ġder": 5177,
      "ship": 5178,
      "Ġnovel": 5179,
      "ĠBeach": 5180,
      "ĠRyan": 5181,
      "ĠPac": 5182,
      "olars": 5183,
      "ĠSign": 5184,
      "icians": 5185,
      "arsh": 5186,
      "Ġspeech": 5187,
      "TH": 5188,
      "den": 5189,
      "top": 5190,
      "SS": 5191,
      "Ġsport": 5192,
      "Ħ¢": 5193,
      "ĠJun": 5194,
      "ulations": 5195,
      "Ġsustain": 5196,
      "uce": 5197,
      "Ġstorage": 5198,
      "Ġyouth": 5199,
      "free": 5200,
      "ĠID": 5201,
      "Ġrain": 5202,
      "Ġreference": 5203,
      "Ġcapacity": 5204,
      "ĠDVD": 5205,
      "Ġresearc": 5206,
      "eed": 5207,
      "Ġseat": 5208,
      "Ġsitting": 5209,
      "Ġstret": 5210,
      "ĠAfrican": 5211,
      "ĠId": 5212,
      "Ġcore": 5213,
      "Ġlaun": 5214,
      "Ġbath": 5215,
      "Ġmissing": 5216,
      "ternal": 5217,
      "alty": 5218,
      "Ġaccompl": 5219,
      "ev": 5220,
      "OD": 5221,
      "Ġwalking": 5222,
      "osis": 5223,
      "BI": 5224,
      "rim": 5225,
      "ferences": 5226,
      "ĠHaw": 5227,
      "ĠMur": 5228,
      "ĠDri": 5229,
      "Ġvideos": 5230,
      "osen": 5231,
      "Ġrise": 5232,
      "Ġbrings": 5233,
      "ini": 5234,
      "Ġcritic": 5235,
      "ĠMedical": 5236,
      "Ġbrows": 5237,
      "icit": 5238,
      "ena": 5239,
      "Ġfacility": 5240,
      "Ġstated": 5241,
      "Ġpractices": 5242,
      "âĦ¢": 5243,
      "ĠAdminist": 5244,
      "ĠIns": 5245,
      "nergy": 5246,
      "Ġboo": 5247,
      "ĠPubl": 5248,
      "Ġabsolutely": 5249,
      "Ġcart": 5250,
      "Ġinterp": 5251,
      "Ġagreed": 5252,
      "Ġdedicated": 5253,
      "Ġwitness": 5254,
      "Ġfocused": 5255,
      "uated": 5256,
      "Ġcounty": 5257,
      "Ġvision": 5258,
      "Ġcorporate": 5259,
      "Ġwinner": 5260,
      "ampionship": 5261,
      "Ġcompar": 5262,
      "ĠQue": 5263,
      "Ġdebate": 5264,
      "ĠSpring": 5265,
      "Ġassum": 5266,
      "ĠMuseum": 5267,
      "Ġmedium": 5268,
      "And": 5269,
      "Ġguard": 5270,
      "Ġalternative": 5271,
      "nel": 5272,
      "Ġlived": 5273,
      "Ġconven": 5274,
      "Ġdiagn": 5275,
      "Ġstores": 5276,
      "ĠCup": 5277,
      "Ġtrail": 5278,
      "Ġconflic": 5279,
      "coh": 5280,
      "cles": 5281,
      "Ġchanging": 5282,
      "Ġmethods": 5283,
      "umber": 5284,
      "lastname": 5285,
      "Ġ500": 5286,
      "arge": 5287,
      "PR": 5288,
      "Ġhandle": 5289,
      "Ġyes": 5290,
      "Ġcharged": 5291,
      "pet": 5292,
      "Ġmicro": 5293,
      "Ġarrived": 5294,
      "Ġapart": 5295,
      "atures": 5296,
      "Ġplants": 5297,
      "Ġdu": 5298,
      "They": 5299,
      "Ġadvanced": 5300,
      "Ġwriter": 5301,
      "edia": 5302,
      "Ġmovies": 5303,
      "No": 5304,
      "ĠBo": 5305,
      "Ġcities": 5306,
      "Ġintended": 5307,
      "ĠContact": 5308,
      "bo": 5309,
      "Ġ32": 5310,
      "ker": 5311,
      "icate": 5312,
      "ĠSomet": 5313,
      "west": 5314,
      "Ġjudge": 5315,
      "ĠIran": 5316,
      "Ġmotor": 5317,
      "Ġwedding": 5318,
      "night": 5319,
      "Sh": 5320,
      "ĠChief": 5321,
      "Ġmanage": 5322,
      "alog": 5323,
      "phas": 5324,
      "Ġcommunication": 5325,
      "ression": 5326,
      "MS": 5327,
      "Ġconsid": 5328,
      "Ġthoughts": 5329,
      "ĠRev": 5330,
      "Ġcombination": 5331,
      "Ġworse": 5332,
      "Ġmort": 5333,
      "Ġstopped": 5334,
      "ĠSports": 5335,
      "Ġsets": 5336,
      "Ġsav": 5337,
      "ĠHen": 5338,
      "ĠRomney": 5339,
      "Ġsty": 5340,
      "ĠDar": 5341,
      "Ġcontest": 5342,
      "Ġpanel": 5343,
      "LA": 5344,
      "Ġselling": 5345,
      "Ġswitch": 5346,
      "Ġcombined": 5347,
      "ourney": 5348,
      "ĠWal": 5349,
      "ĠMen": 5350,
      "Ġdie": 5351,
      "My": 5352,
      "ĠMa": 5353,
      "Ġfamiliar": 5354,
      "ĠSeries": 5355,
      "ya": 5356,
      "Ġfemale": 5357,
      "Ġsector": 5358,
      "alled": 5359,
      "ĠNC": 5360,
      "Ġapproximately": 5361,
      "Ġworry": 5362,
      "Ġserving": 5363,
      "ĠLee": 5364,
      "Ġdistance": 5365,
      "Ġexplain": 5366,
      "Ġexperiences": 5367,
      "Ġencourage": 5368,
      "Ġunits": 5369,
      "Ġmissed": 5370,
      "ht": 5371,
      "Ġclimate": 5372,
      "Ġveget": 5373,
      "ĠMichigan": 5374,
      "ĠHuman": 5375,
      "Ġeating": 5376,
      "eal": 5377,
      "Ġcampus": 5378,
      "Ġinfluence": 5379,
      "Ġapproved": 5380,
      "Ġresident": 5381,
      "Ġofficers": 5382,
      "Ġinitial": 5383,
      "ĠFund": 5384,
      "under": 5385,
      "rier": 5386,
      "Ġsides": 5387,
      "ĠCharl": 5388,
      "Ġenem": 5389,
      "Ġformat": 5390,
      "Ġtwice": 5391,
      "Ġcrime": 5392,
      "Ġflat": 5393,
      "ĠDig": 5394,
      "ĠMic": 5395,
      "ita": 5396,
      "ĠFull": 5397,
      "Ġrooms": 5398,
      "Ġenjoyed": 5399,
      "oted": 5400,
      "hab": 5401,
      "Ġreserved": 5402,
      ":||": 5403,
      "Ġcab": 5404,
      "Ġnegative": 5405,
      "bur": 5406,
      "ĠList": 5407,
      "Ġremoved": 5408,
      "Ġcolors": 5409,
      "ĠElect": 5410,
      "Ġforg": 5411,
      "Ġnumerous": 5412,
      "ĠWild": 5413,
      "cel": 5414,
      "Ġacademic": 5415,
      "ĠCEO": 5416,
      "Ġmine": 5417,
      "mpt": 5418,
      "Ġinstit": 5419,
      "Ġassistance": 5420,
      "arp": 5421,
      "ĠYoung": 5422,
      "ĠCustom": 5423,
      "Ġlabel": 5424,
      "ĠCH": 5425,
      "Ġcommittee": 5426,
      "Ġexciting": 5427,
      "09": 5428,
      "ien": 5429,
      "rics": 5430,
      "Ġphil": 5431,
      "Ġintellig": 5432,
      "Ġhonor": 5433,
      "Ġanimal": 5434,
      "Ġscheduled": 5435,
      "Ġstanding": 5436,
      "07": 5437,
      "Ġtask": 5438,
      "Ġquiet": 5439,
      "ĠOnline": 5440,
      "secut": 5441,
      "tion": 5442,
      "Ġhero": 5443,
      "Ġguests": 5444,
      "orters": 5445,
      "Ġremaining": 5446,
      "II": 5447,
      "unning": 5448,
      "08": 5449,
      "LC": 5450,
      "ĠFrancisco": 5451,
      "Ġinterests": 5452,
      "ĠOl": 5453,
      "anda": 5454,
      "Ġbond": 5455,
      "Ġtrouble": 5456,
      "Ġhun": 5457,
      "Ġpassion": 5458,
      "ĠBoy": 5459,
      "Ġkitchen": 5460,
      "Ġju": 5461,
      "Ġmetal": 5462,
      "Ġedge": 5463,
      "Ġtickets": 5464,
      "Ġawesome": 5465,
      "Ġtheory": 5466,
      "ĠVict": 5467,
      "ĠHotel": 5468,
      "Ġcommission": 5469,
      "ĠGeorg": 5470,
      "cient": 5471,
      "actions": 5472,
      "Ġhits": 5473,
      "ĠFil": 5474,
      "Ġtun": 5475,
      "ĠTown": 5476,
      "ĠMS": 5477,
      "Ġcraft": 5478,
      "Ġprin": 5479,
      "ĠSar": 5480,
      "Ġbuying": 5481,
      "dden": 5482,
      "Ġtips": 5483,
      "Ġpush": 5484,
      "ĠLin": 5485,
      "Ġessential": 5486,
      "Ġdelic": 5487,
      "Ġstars": 5488,
      "ĠDani": 5489,
      "Ġfeels": 5490,
      "Ġsister": 5491,
      "adian": 5492,
      "Ġmagazine": 5493,
      "ĠInstead": 5494,
      "Ġconsumers": 5495,
      "ĠPan": 5496,
      "Ġcloud": 5497,
      "Ġexpensive": 5498,
      "ĠTechnology": 5499,
      "Ġmeasures": 5500,
      "kin": 5501,
      "ias": 5502,
      "Ġtaxes": 5503,
      "ĠOrgan": 5504,
      "cean": 5505,
      "ĠMexico": 5506,
      "Ġfreedom": 5507,
      "Ġnone": 5508,
      "ĠGen": 5509,
      "56": 5510,
      "ĠWay": 5511,
      "Ġdatabase": 5512,
      "Ġtelling": 5513,
      "ĠEconom": 5514,
      "Ġoccup": 5515,
      "ĠAuthor": 5516,
      "ivered": 5517,
      "Ġdance": 5518,
      "Ġearned": 5519,
      "razy": 5520,
      "grad": 5521,
      "Ġamb": 5522,
      "Ġpicked": 5523,
      "Ġboys": 5524,
      "For": 5525,
      "Ġbegins": 5526,
      "Ġdepart": 5527,
      "Ġupdated": 5528,
      "odies": 5529,
      "Ġfailure": 5530,
      "Ġsalt": 5531,
      "ĠColumb": 5532,
      "ĠON": 5533,
      "ulous": 5534,
      "Ġpredict": 5535,
      "Ġinvestigation": 5536,
      "ĠYOU": 5537,
      "ployment": 5538,
      "Ġbutter": 5539,
      "ĠTur": 5540,
      "That": 5541,
      "Ġdrugs": 5542,
      "paper": 5543,
      "ems": 5544,
      "Ġconcern": 5545,
      "Ġtopic": 5546,
      "Ġadministr": 5547,
      "Ġstorm": 5548,
      "Ġweak": 5549,
      "Ġrecipe": 5550,
      "Ġpayment": 5551,
      "ĠFair": 5552,
      "Ġconversation": 5553,
      "Ġdisappoint": 5554,
      "iat": 5555,
      "Ġauthority": 5556,
      "Ġelement": 5557,
      "ĠFour": 5558,
      "ĠInf": 5559,
      "ĠJustice": 5560,
      "UT": 5561,
      "Ġapplied": 5562,
      "OC": 5563,
      "ĠRights": 5564,
      "Ġtom": 5565,
      "Ġsmooth": 5566,
      "mond": 5567,
      "Ġdetect": 5568,
      "Ġregistered": 5569,
      "Ġpregn": 5570,
      "Ġuns": 5571,
      "Ġsudden": 5572,
      "ĠHistory": 5573,
      "Ġflex": 5574,
      "Ġfriendly": 5575,
      "ĠDivision": 5576,
      "Ġmenu": 5577,
      "Ġmo": 5578,
      "Ġperformed": 5579,
      "ĠEngine": 5580,
      "Ġjoint": 5581,
      "ĠWin": 5582,
      "Ġrelevant": 5583,
      "Ġsurgery": 5584,
      "Ġcrisis": 5585,
      "77": 5586,
      "acle": 5587,
      "Ġleads": 5588,
      "ĠIsl": 5589,
      "Ġring": 5590,
      "Ġneighborhood": 5591,
      "Ġingred": 5592,
      "06": 5593,
      "Ġshots": 5594,
      "Ġintroduced": 5595,
      "Ġathlet": 5596,
      "59": 5597,
      "Ġturns": 5598,
      "Ġtotally": 5599,
      "ĠEnergy": 5600,
      "DF": 5601,
      "ĠDid": 5602,
      "ĠCy": 5603,
      "ria": 5604,
      "Ġrealize": 5605,
      "cipl": 5606,
      "Ġseek": 5607,
      "Ġeducational": 5608,
      "cont": 5609,
      "Ġestate": 5610,
      "ĠMiddle": 5611,
      "ructure": 5612,
      "athe": 5613,
      "hat": 5614,
      "!âĢĿ": 5615,
      "Ġissued": 5616,
      "rag": 5617,
      "When": 5618,
      "equ": 5619,
      "Ġefficient": 5620,
      "Ġagencies": 5621,
      "Ġtemperature": 5622,
      "Ġends": 5623,
      "Ġconcent": 5624,
      "Ġcontext": 5625,
      "Ġpossibly": 5626,
      "Ġdiet": 5627,
      "Ġrelax": 5628,
      "Ġcontro": 5629,
      "Ġdetermined": 5630,
      "Ġcas": 5631,
      "Ġsuspect": 5632,
      "Ġsharing": 5633,
      "ingly": 5634,
      "Ġdomin": 5635,
      "Ġ01": 5636,
      "Ġadults": 5637,
      "Ġfee": 5638,
      "Ġerror": 5639,
      "Ġbusy": 5640,
      "Ġsupported": 5641,
      "Ġimproved": 5642,
      "Ġconsumer": 5643,
      "ĠChildren": 5644,
      "Ġvalid": 5645,
      "ĠAud": 5646,
      "Ġpurposes": 5647,
      "An": 5648,
      "ĠOR": 5649,
      "Ġconnected": 5650,
      "Ġaid": 5651,
      "Ġdiscovered": 5652,
      "Ġfly": 5653,
      "ilding": 5654,
      "Ġenforce": 5655,
      "Ġattacks": 5656,
      "Ġpoly": 5657,
      "Ġhundreds": 5658,
      "ĠLight": 5659,
      "Ġmanner": 5660,
      "itutional": 5661,
      "ĠStill": 5662,
      "!)": 5663,
      "ĠKore": 5664,
      "Ġpitch": 5665,
      "âĢĿ,": 5666,
      "iser": 5667,
      "Ġwearing": 5668,
      "inch": 5669,
      "Ġnuclear": 5670,
      "Ġcuts": 5671,
      "Ġdyn": 5672,
      "Ġteach": 5673,
      "ommod": 5674,
      "ighter": 5675,
      "Ġtrees": 5676,
      "otic": 5677,
      "ĠMo": 5678,
      "OV": 5679,
      "hand": 5680,
      "Ġcultural": 5681,
      "86": 5682,
      "Ġcheap": 5683,
      "Ġgreatest": 5684,
      "ĠTest": 5685,
      "Ġburn": 5686,
      "Ġunf": 5687,
      "ĠHead": 5688,
      "Ġconfidence": 5689,
      "Ġtonight": 5690,
      "oti": 5691,
      "een": 5692,
      "Ġaudio": 5693,
      "ĠDate": 5694,
      "ĠArts": 5695,
      "42": 5696,
      "Ġcloser": 5697,
      "Ġbroken": 5698,
      "Don": 5699,
      "Ġvisual": 5700,
      "prise": 5701,
      "Ġaccident": 5702,
      "ĠBi": 5703,
      "Ġfirstname": 5704,
      "ĠCA": 5705,
      "Ġshipping": 5706,
      "Ġcourses": 5707,
      "ĠGermany": 5708,
      "Ġadapt": 5709,
      "But": 5710,
      "Ġcalc": 5711,
      "Ġemergency": 5712,
      "Ġrow": 5713,
      "Ġprofile": 5714,
      "ĠGal": 5715,
      "Ġanywhere": 5716,
      "ĠStart": 5717,
      "Ġdesk": 5718,
      "ician": 5719,
      "osoph": 5720,
      "ciples": 5721,
      "ĠOper": 5722,
      "Ġdecor": 5723,
      "cluding": 5724,
      "Ġseeking": 5725,
      "ĠFun": 5726,
      "Ġsac": 5727,
      "Ġcommitment": 5728,
      "Ġfellow": 5729,
      "aren": 5730,
      "Ġtables": 5731,
      "ĠProv": 5732,
      "Ġthread": 5733,
      "ĠGall": 5734,
      "Ġfle": 5735,
      "Ġsigns": 5736,
      "Ġmere": 5737,
      "Ġrot": 5738,
      "Ġidentify": 5739,
      "road": 5740,
      "irty": 5741,
      "Ġhousing": 5742,
      "Americ": 5743,
      "Ġappearance": 5744,
      "ultural": 5745,
      "Ġtack": 5746,
      "Ġsad": 5747,
      "ĠBell": 5748,
      "Ġrevenue": 5749,
      "Ġille": 5750,
      "Ġbrown": 5751,
      "kes": 5752,
      "reens": 5753,
      "Ġexchange": 5754,
      "Ġdial": 5755,
      "ĠCommun": 5756,
      "enance": 5757,
      "arian": 5758,
      "ĠCatholic": 5759,
      "Ġbringing": 5760,
      "ĠUpd": 5761,
      "astern": 5762,
      "water": 5763,
      "Ġsquare": 5764,
      "ĠReal": 5765,
      "ĠBrand": 5766,
      "UN": 5767,
      "Ġvan": 5768,
      "Ġsam": 5769,
      "Ġcontem": 5770,
      "Ġlunch": 5771,
      "Ġmir": 5772,
      "door": 5773,
      "Ġadvoc": 5774,
      "Ġbelief": 5775,
      "idden": 5776,
      "urban": 5777,
      "Ġhur": 5778,
      "Ġthick": 5779,
      "Ġmode": 5780,
      "âĤ¬": 5781,
      "Ġwaste": 5782,
      "alian": 5783,
      "Ġuniversity": 5784,
      "ĠRon": 5785,
      "ĠFar": 5786,
      "Ġorders": 5787,
      "rad": 5788,
      "yard": 5789,
      "Ġmental": 5790,
      "Ġdiscl": 5791,
      "Cl": 5792,
      "ĠProduct": 5793,
      "04": 5794,
      "Ġdiscount": 5795,
      "Ġtow": 5796,
      "cohol": 5797,
      "Ġtheme": 5798,
      "ĠBlog": 5799,
      "isters": 5800,
      "season": 5801,
      "essions": 5802,
      "Ġdestroy": 5803,
      "Ġimportance": 5804,
      "Ġpal": 5805,
      "Ġtests": 5806,
      "ĠWalk": 5807,
      "Ġspecifically": 5808,
      "Ġbound": 5809,
      "Ġlicense": 5810,
      "Ġtrib": 5811,
      "Ġcorn": 5812,
      "ĠLog": 5813,
      "Ġhelpful": 5814,
      "uts": 5815,
      "ĠIP": 5816,
      "Ġcircumst": 5817,
      "Ġfilms": 5818,
      "hop": 5819,
      "ĠDev": 5820,
      "Ġteen": 5821,
      "Ġdecades": 5822,
      "Ġworst": 5823,
      "Ġimmig": 5824,
      "Ġparticipate": 5825,
      "lines": 5826,
      "Ġobvious": 5827,
      "ĠSouthern": 5828,
      "Ġarms": 5829,
      "ĠAndrew": 5830,
      "rical": 5831,
      "related": 5832,
      "etic": 5833,
      "Ġexperts": 5834,
      "ĠAff": 5835,
      "erves": 5836,
      "ĠCorpor": 5837,
      "Ġregister": 5838,
      "rehensive": 5839,
      "Ġlosing": 5840,
      "Ġscientific": 5841,
      "real": 5842,
      "ĠSher": 5843,
      "ĠJapanese": 5844,
      "ossible": 5845,
      "mar": 5846,
      "ĠPage": 5847,
      "lets": 5848,
      "Ġfold": 5849,
      "Ġexplained": 5850,
      "ĠJewish": 5851,
      "Ġboot": 5852,
      "Ġtradition": 5853,
      "ĠHD": 5854,
      "ĠCharles": 5855,
      "Ġinstance": 5856,
      "Ġbat": 5857,
      "Ġcoast": 5858,
      "Ġsympt": 5859,
      "irmed": 5860,
      "Ġtechniques": 5861,
      "illy": 5862,
      "Ġrecorded": 5863,
      "cious": 5864,
      "Ġpromote": 5865,
      "Ġforth": 5866,
      "On": 5867,
      "Ġbeauty": 5868,
      "ghan": 5869,
      "Ġdelivered": 5870,
      "ĠCook": 5871,
      "Ġrapid": 5872,
      "atre": 5873,
      "ocket": 5874,
      "Ġcriminal": 5875,
      "Ġpulled": 5876,
      "Ġconserv": 5877,
      "Ġmillions": 5878,
      "Ġimagine": 5879,
      "Ġelimin": 5880,
      "ĠAR": 5881,
      "03": 5882,
      "Ġsurprise": 5883,
      "Ġvisitors": 5884,
      "Ġoccasion": 5885,
      "ĠPerson": 5886,
      "ĠDoes": 5887,
      "ye": 5888,
      "ĠOS": 5889,
      "Ġgarden": 5890,
      "ĠSqu": 5891,
      "reets": 5892,
      "Ġment": 5893,
      "Ġconsequ": 5894,
      "Ġemphas": 5895,
      "Ġfruit": 5896,
      "Ġsubstant": 5897,
      "ĠThree": 5898,
      "Ġfees": 5899,
      "Ġentered": 5900,
      "Ġcrew": 5901,
      "Ġideal": 5902,
      "Ġequal": 5903,
      "Ġpu": 5904,
      "uration": 5905,
      "hew": 5906,
      "Ġunivers": 5907,
      "ĠYet": 5908,
      "Ġfighting": 5909,
      "57": 5910,
      "Ġplanned": 5911,
      "elly": 5912,
      "IF": 5913,
      "ĠMinister": 5914,
      "Ġagent": 5915,
      "Ġfiled": 5916,
      "ĠMuslim": 5917,
      "Ġweapons": 5918,
      "Ġherself": 5919,
      "Ġdropped": 5920,
      "umin": 5921,
      "Ġwalked": 5922,
      "41": 5923,
      "Ġguest": 5924,
      "Ġtermin": 5925,
      "Ġris": 5926,
      "uations": 5927,
      "Ġscr": 5928,
      "ĠAdv": 5929,
      "Ġphotograph": 5930,
      "Ġinternal": 5931,
      "Ġbigger": 5932,
      "Ġpurchased": 5933,
      "ups": 5934,
      "Ġscale": 5935,
      "ĠLead": 5936,
      "Ġvolume": 5937,
      "Ġentirely": 5938,
      "Ġflight": 5939,
      "Ġreceiving": 5940,
      "Ġmale": 5941,
      "ĠTit": 5942,
      "Ġbreast": 5943,
      "43": 5944,
      "Ġ>>": 5945,
      "ĠCat": 5946,
      "Ġang": 5947,
      "can": 5948,
      "Ġaccepted": 5949,
      "Ġgather": 5950,
      "Ġsuit": 5951,
      "Ġcandidate": 5952,
      "Ġdemocr": 5953,
      "rene": 5954,
      "ĠKeep": 5955,
      "Ġidentified": 5956,
      "Ġlaugh": 5957,
      "pass": 5958,
      "ĠEll": 5959,
      "ĠHun": 5960,
      "Ġpositions": 5961,
      "ĠGar": 5962,
      "Ġfolks": 5963,
      "Ġindeed": 5964,
      "Ġpaying": 5965,
      "ĠHospital": 5966,
      "Ġparking": 5967,
      "ĠBas": 5968,
      "Ġreduced": 5969,
      "58": 5970,
      "mosp": 5971,
      "ĠCam": 5972,
      "Ġplastic": 5973,
      "Ġchemical": 5974,
      "Ġhate": 5975,
      "list": 5976,
      "ĠArmy": 5977,
      "Ġdram": 5978,
      "ĠRay": 5979,
      "uable": 5980,
      "Ġrough": 5981,
      "Ġpolitics": 5982,
      "Ġmilk": 5983,
      "Ġdistribution": 5984,
      "Ġ48": 5985,
      "Ġarrange": 5986,
      "Ġproceed": 5987,
      "Ġlaunched": 5988,
      "Ġok": 5989,
      "AY": 5990,
      "ĠMP": 5991,
      "Ġvir": 5992,
      "Ġhurt": 5993,
      "ĠAriz": 5994,
      "lo": 5995,
      "ĠInvest": 5996,
      "awn": 5997,
      "Ġlocations": 5998,
      "Ġ1999": 5999,
      "Ġalleged": 6000,
      "Ġrub": 6001,
      "ĠKenn": 6002,
      "Ġcarried": 6003,
      "cknow": 6004,
      "Ġfigures": 6005,
      "Ġresearchers": 6006,
      "Ġoffensive": 6007,
      "cap": 6008,
      "gas": 6009,
      "ĠHon": 6010,
      "ĠThough": 6011,
      "Ġaccommod": 6012,
      "Ġminimum": 6013,
      "eper": 6014,
      "Ġcreation": 6015,
      "Ġtreated": 6016,
      "ĠGeorgia": 6017,
      "Ġfurn": 6018,
      "Ġusual": 6019,
      "sembly": 6020,
      "Ġinstitutions": 6021,
      "ĠField": 6022,
      "anged": 6023,
      "ĠUt": 6024,
      "Ġfaster": 6025,
      "Ġdogs": 6026,
      "Al": 6027,
      "col": 6028,
      "Ġchocolate": 6029,
      "Ġconfig": 6030,
      "Ġordered": 6031,
      "rible": 6032,
      "ĠMid": 6033,
      "Ġspeaking": 6034,
      "AG": 6035,
      "Ġmeat": 6036,
      "Ġbroadcast": 6037,
      "ĠEr": 6038,
      "ĠSP": 6039,
      "grade": 6040,
      "ĠKen": 6041,
      "Ġframe": 6042,
      "Ġlegislation": 6043,
      "Ġourselves": 6044,
      "otes": 6045,
      "Ġfeatured": 6046,
      "cribe": 6047,
      "Ġbike": 6048,
      "Ġodd": 6049,
      "Ġregional": 6050,
      "respond": 6051,
      "Ġconfident": 6052,
      "ĠPay": 6053,
      "Ġhasn": 6054,
      "Ġrelatively": 6055,
      "iration": 6056,
      "Ġportion": 6057,
      "aylor": 6058,
      "ĠHolly": 6059,
      "Ġunlike": 6060,
      "Ġliqu": 6061,
      "ĠColorado": 6062,
      "iner": 6063,
      "vy": 6064,
      "ĠSup": 6065,
      "ĠSearch": 6066,
      "Ġextensive": 6067,
      "mes": 6068,
      "Ġinvolve": 6069,
      "Ġrac": 6070,
      "owntown": 6071,
      "ĠFOR": 6072,
      "Ġspokes": 6073,
      "iciency": 6074,
      "away": 6075,
      "Ġjourney": 6076,
      "Ġsurprised": 6077,
      "Ġsole": 6078,
      "gs": 6079,
      "sts": 6080,
      "Ġsuggested": 6081,
      "Ġgrab": 6082,
      "ĠFox": 6083,
      "Ġ300": 6084,
      "Ġpure": 6085,
      "ĠDespite": 6086,
      "SE": 6087,
      "Ġrom": 6088,
      "âĢľ": 6089,
      "ĠExper": 6090,
      "ĠKent": 6091,
      "02": 6092,
      "Ġepisode": 6093,
      "ĠVideo": 6094,
      "Ġswim": 6095,
      "Ġdiscover": 6096,
      "dy": 6097,
      ".|": 6098,
      "Ġexplore": 6099,
      "ĠThrough": 6100,
      "Ġcandidates": 6101,
      "ĠRepublicans": 6102,
      "Ġmotion": 6103,
      "Ġtomorrow": 6104,
      "Ġlock": 6105,
      "Ġfactor": 6106,
      "Ġrelationships": 6107,
      "ĠGra": 6108,
      "Ġmut": 6109,
      "ĠAgain": 6110,
      "ĠFed": 6111,
      "Ġcheese": 6112,
      "Ġshoes": 6113,
      "Ġspoke": 6114,
      "clusion": 6115,
      "Ġiron": 6116,
      "Ġplate": 6117,
      "Ġargument": 6118,
      "Ġfollows": 6119,
      "Ġsick": 6120,
      "Ġvoc": 6121,
      "Ġrecommended": 6122,
      "fection": 6123,
      "Ġcoordin": 6124,
      "Ġoptim": 6125,
      "Ġcauses": 6126,
      "Ġgraduate": 6127,
      "ta": 6128,
      "Ġbread": 6129,
      "ĠLab": 6130,
      "oman": 6131,
      "Ġdetailed": 6132,
      "ĠLive": 6133,
      "ĠWH": 6134,
      "Ġneck": 6135,
      "Ġoffense": 6136,
      "Ġwarrant": 6137,
      "ĠProte": 6138,
      "ato": 6139,
      "ĠBrad": 6140,
      "Ġelectronic": 6141,
      "Ġbasketball": 6142,
      "ĠEp": 6143,
      "abled": 6144,
      "Ġmeetings": 6145,
      "ĠLand": 6146,
      "Ġchart": 6147,
      "Ġchapter": 6148,
      "alse": 6149,
      "osite": 6150,
      "igation": 6151,
      "aser": 6152,
      "Ġfaculty": 6153,
      "ario": 6154,
      "Ġfunny": 6155,
      "Ġacknow": 6156,
      "Ġincorpor": 6157,
      "ĠBre": 6158,
      "Ġemployee": 6159,
      "ache": 6160,
      "ĠDie": 6161,
      "Ġscript": 6162,
      "ogue": 6163,
      "Ġwealth": 6164,
      "Ġedition": 6165,
      "Ġmatters": 6166,
      "ĠOrig": 6167,
      "Ġtalent": 6168,
      "Ġking": 6169,
      "Ġappeal": 6170,
      "EST": 6171,
      "ĠSecretary": 6172,
      "ĠRight": 6173,
      "Ġfort": 6174,
      "Ġbanks": 6175,
      "Ġproperly": 6176,
      "Ġinstalled": 6177,
      "Ġdecade": 6178,
      "Ġbaseball": 6179,
      "ench": 6180,
      "Ġprofessionals": 6181,
      "Ġconver": 6182,
      "Ġsevere": 6183,
      "Ġpil": 6184,
      "ĠInte": 6185,
      "ĠData": 6186,
      "Ġvehicles": 6187,
      "ĠPack": 6188,
      "Ġbelieved": 6189,
      "fol": 6190,
      "Ġconsidering": 6191,
      "Ġcopyright": 6192,
      "Ġadm": 6193,
      "CA": 6194,
      "Ġcategory": 6195,
      "Ġbelong": 6196,
      "Ġdegrees": 6197,
      "ĠCross": 6198,
      "gypt": 6199,
      "ĠLittle": 6200,
      "Ġrecognized": 6201,
      "ĠDaniel": 6202,
      "Ġhell": 6203,
      "ĠWatch": 6204,
      "Ġresol": 6205,
      "Ġparticipants": 6206,
      "ĠMax": 6207,
      "ML": 6208,
      "Ġgrew": 6209,
      "abet": 6210,
      "gend": 6211,
      "Ġprepare": 6212,
      "ĠTem": 6213,
      "Ġbeach": 6214,
      "Ġowned": 6215,
      "foot": 6216,
      "Ġcro": 6217,
      "ingu": 6218,
      "Ġped": 6219,
      "arrow": 6220,
      "Ġadvertising": 6221,
      "Ġholds": 6222,
      "Ġabuse": 6223,
      "ĠCoast": 6224,
      "Ġapparently": 6225,
      "Ġtransform": 6226,
      "Ġproperties": 6227,
      "Ġcable": 6228,
      "ĠVan": 6229,
      "aks": 6230,
      "Ġperman": 6231,
      "Ġdomestic": 6232,
      "ĠBra": 6233,
      "ĠTony": 6234,
      "Ġhighlight": 6235,
      "anish": 6236,
      "ERS": 6237,
      "Ġrecovery": 6238,
      "ĠJersey": 6239,
      "ĠHard": 6240,
      "Ġcounsel": 6241,
      "hus": 6242,
      "Ġperspective": 6243,
      "Ġnative": 6244,
      "ĠTour": 6245,
      "ora": 6246,
      "Ġillustr": 6247,
      "iveness": 6248,
      "ĠArab": 6249,
      "ĠWord": 6250,
      "iami": 6251,
      "Ġvoters": 6252,
      "Ġjustice": 6253,
      "ĠEnd": 6254,
      "ĠJenn": 6255,
      "Ġlit": 6256,
      "TV": 6257,
      "Ġinput": 6258,
      "Ġdangerous": 6259,
      "hors": 6260,
      "icial": 6261,
      "Ġfields": 6262,
      "rastructure": 6263,
      "ĠGM": 6264,
      "CS": 6265,
      "ĠParis": 6266,
      "Ġutil": 6267,
      "Is": 6268,
      "ffect": 6269,
      "ĠSite": 6270,
      "adium": 6271,
      "Ġmassive": 6272,
      "zy": 6273,
      "Ġresource": 6274,
      "Ġturning": 6275,
      "Ġdefensive": 6276,
      "Ġdelay": 6277,
      "eless": 6278,
      "Ġmusical": 6279,
      "Ġsusp": 6280,
      "ĠColl": 6281,
      "Ġ||": 6282,
      "ansion": 6283,
      "Ġaffected": 6284,
      "ĠDaily": 6285,
      "Ġfabric": 6286,
      "Ġanswers": 6287,
      "ĠExt": 6288,
      "agues": 6289,
      "Ġdesire": 6290,
      "Ġoutput": 6291,
      "ĠSoft": 6292,
      "Ġaccounts": 6293,
      "rooms": 6294,
      "Ġrand": 6295,
      "Ġnegoti": 6296,
      "ĠNFL": 6297,
      "Ġtwe": 6298,
      "that": 6299,
      "aints": 6300,
      "How": 6301,
      "Ġhistorical": 6302,
      "66": 6303,
      "ĠCast": 6304,
      "Ġentertainment": 6305,
      "Ġnoticed": 6306,
      "ĠGlobal": 6307,
      "Ġtypically": 6308,
      "Ġchosen": 6309,
      "Ġ38": 6310,
      "Ġmessages": 6311,
      "Ġmotiv": 6312,
      ",'": 6313,
      "agon": 6314,
      "ĠNight": 6315,
      "Ġretire": 6316,
      "iability": 6317,
      "ĠEnvironment": 6318,
      "Ġcrazy": 6319,
      "Ġconducted": 6320,
      "Ġchicken": 6321,
      "ĠTenn": 6322,
      "ĠCanadian": 6323,
      "rate": 6324,
      "ĠInn": 6325,
      "Ġbuildings": 6326,
      "Ġbull": 6327,
      "Ġpit": 6328,
      "opp": 6329,
      "Ġfro": 6330,
      "ĠDavis": 6331,
      "ĠChair": 6332,
      "unction": 6333,
      "Ġobviously": 6334,
      "Ġupper": 6335,
      "Ġcolumn": 6336,
      "EE": 6337,
      "ml": 6338,
      "ancer": 6339,
      "78": 6340,
      "ĠHope": 6341,
      "Ġbowl": 6342,
      "Ġtechnologies": 6343,
      "Ġid": 6344,
      "cluded": 6345,
      "Ġstatements": 6346,
      "iscal": 6347,
      "ĠAcademy": 6348,
      "Ġec": 6349,
      "iture": 6350,
      "ATION": 6351,
      "Ġhouses": 6352,
      "ework": 6353,
      "Ġconvention": 6354,
      "ĠItalian": 6355,
      "Ġreasonable": 6356,
      "ĠEric": 6357,
      "Ġautomatically": 6358,
      "Ġcircumstances": 6359,
      "ĠSanta": 6360,
      "ensions": 6361,
      "Ġanyway": 6362,
      "comm": 6363,
      "Ġgro": 6364,
      "Ġcompetitive": 6365,
      "Ġtalks": 6366,
      "inson": 6367,
      "Ġreturns": 6368,
      "ĠAsia": 6369,
      "Ġatmosp": 6370,
      "Ġupdates": 6371,
      "ĠAS": 6372,
      "Ġsupporting": 6373,
      "Ġhorse": 6374,
      "Ġworldwide": 6375,
      "li": 6376,
      "Pro": 6377,
      "ĠFestival": 6378,
      "Ġsymb": 6379,
      "Con": 6380,
      "Ġincident": 6381,
      "Ġinterpret": 6382,
      "ĠLeg": 6383,
      "ĠWhether": 6384,
      "Ġupcoming": 6385,
      "eration": 6386,
      "ĠAD": 6387,
      "oking": 6388,
      "Ġreporting": 6389,
      "iors": 6390,
      "Ġoppon": 6391,
      "rum": 6392,
      "Ġmaximum": 6393,
      "ĠSet": 6394,
      "Ar": 6395,
      "ĠEgypt": 6396,
      "Ġhoping": 6397,
      "Ġcouncil": 6398,
      "Ġfifth": 6399,
      "Ġrandom": 6400,
      "ĠKey": 6401,
      "Ġven": 6402,
      "Ġmel": 6403,
      "ĠBrian": 6404,
      "ala": 6405,
      "lyn": 6406,
      "ĠMaster": 6407,
      "Ġresolution": 6408,
      "Ġoblig": 6409,
      "ĠMiller": 6410,
      "Ġbelieves": 6411,
      "ĠRod": 6412,
      "Ġpassing": 6413,
      "bu": 6414,
      "ĠÂ·": 6415,
      "Ġinfo": 6416,
      "ĠFinally": 6417,
      "rors": 6418,
      "Ġboat": 6419,
      "Ġpresentation": 6420,
      "Ġextended": 6421,
      "Ġinspired": 6422,
      "Ġgod": 6423,
      "Ġkeeps": 6424,
      "Ġprove": 6425,
      "appy": 6426,
      "Ġsymptoms": 6427,
      "ĠQuest": 6428,
      "uction": 6429,
      "199": 6430,
      "ĠCre": 6431,
      "Ġgrown": 6432,
      "Ġprofessor": 6433,
      "ibilities": 6434,
      "adel": 6435,
      "Ġsignal": 6436,
      "Ġformed": 6437,
      "ih": 6438,
      "anny": 6439,
      "ĠArizona": 6440,
      "Ġtruck": 6441,
      "weet": 6442,
      "Ġprocessing": 6443,
      "ĠRest": 6444,
      "Ġcomprehensive": 6445,
      "Ġshares": 6446,
      "ĠStudents": 6447,
      "Ġliked": 6448,
      "aska": 6449,
      "Ġtaught": 6450,
      "Ġoriginally": 6451,
      "800": 6452,
      "Ġsan": 6453,
      "Ġdeals": 6454,
      "ashed": 6455,
      "Ġchoices": 6456,
      "Ġscholars": 6457,
      "obs": 6458,
      "Ġreligion": 6459,
      "angers": 6460,
      "ĠConnect": 6461,
      "essed": 6462,
      "ĠAfghan": 6463,
      "ĠLiber": 6464,
      "ĠTaylor": 6465,
      "So": 6466,
      "Ġtalked": 6467,
      "Ġcomponents": 6468,
      "ĠMean": 6469,
      "ĠContin": 6470,
      "REE": 6471,
      "Ġprocesses": 6472,
      "Ġwal": 6473,
      "ban": 6474,
      "Ġamend": 6475,
      "ĠKevin": 6476,
      "ĠSus": 6477,
      "Ġstands": 6478,
      "Ġsample": 6479,
      "ĠSon": 6480,
      "Ġhappening": 6481,
      "Ġbon": 6482,
      "Ġpump": 6483,
      "Ġingredients": 6484,
      "Ġ?": 6485,
      "ĠVictor": 6486,
      "Ġaspects": 6487,
      "Ġquant": 6488,
      "Ġrenew": 6489,
      "ĠAccess": 6490,
      "Ġperfectly": 6491,
      "Ġfacts": 6492,
      "52": 6493,
      "ĠLim": 6494,
      "inton": 6495,
      "Ġauthorities": 6496,
      "ĠJac": 6497,
      "Ġgay": 6498,
      "ĠRa": 6499,
      "Ġseriously": 6500,
      "ĠSupport": 6501,
      "law": 6502,
      "Ġast": 6503,
      "54": 6504,
      "ĠGirl": 6505,
      "mary": 6506,
      "Ġrevealed": 6507,
      "Ġinvestors": 6508,
      "Ġconfirm": 6509,
      "Ġinches": 6510,
      "obby": 6511,
      "Ġdiss": 6512,
      "rich": 6513,
      "Ġ33": 6514,
      "ĠLind": 6515,
      "Ġexamples": 6516,
      "Ġgoods": 6517,
      "onna": 6518,
      "uting": 6519,
      "orough": 6520,
      "asters": 6521,
      "Ġfantastic": 6522,
      "Ġ37": 6523,
      "idelines": 6524,
      "MA": 6525,
      "ĠHou": 6526,
      "Ġdivision": 6527,
      "Ġrealized": 6528,
      "sell": 6529,
      "ĠMiami": 6530,
      "Ġletters": 6531,
      "ĠCarl": 6532,
      "ĠLew": 6533,
      "ĠPlace": 6534,
      "ATE": 6535,
      "ĠPrice": 6536,
      "Ġfairly": 6537,
      "bour": 6538,
      "Ġknowing": 6539,
      "ĠCost": 6540,
      "hetic": 6541,
      "Ġinfl": 6542,
      "Ġguitar": 6543,
      "Ġbare": 6544,
      "oration": 6545,
      "Ġindex": 6546,
      "Ġsoph": 6547,
      "achel": 6548,
      "Ġ1998": 6549,
      "ua": 6550,
      "Ġtopics": 6551,
      "ĠPacific": 6552,
      "Ġremote": 6553,
      "ĠMs": 6554,
      "Ġcutting": 6555,
      "ĠPot": 6556,
      "Ġprovider": 6557,
      "Ġenhance": 6558,
      "ĠFord": 6559,
      "Ġwarn": 6560,
      "Ġhyd": 6561,
      "ĠHor": 6562,
      "Ġemployment": 6563,
      "utch": 6564,
      "ĠProfessor": 6565,
      "uster": 6566,
      "Ġhardware": 6567,
      "Ġfunctions": 6568,
      "Ġfoods": 6569,
      "Ġroute": 6570,
      "Ġfixed": 6571,
      "GB": 6572,
      "ĠCub": 6573,
      "ĠKat": 6574,
      "Ġvisiting": 6575,
      "orders": 6576,
      "ĠManager": 6577,
      "Ġdiscussed": 6578,
      "Ġtournament": 6579,
      "oster": 6580,
      "ĠSpanish": 6581,
      "ĠJr": 6582,
      "Ġbroke": 6583,
      "Ġstudio": 6584,
      "berry": 6585,
      "Ġcooper": 6586,
      "ampion": 6587,
      "Ġmeal": 6588,
      "Ġsauce": 6589,
      "lete": 6590,
      "Ġhopes": 6591,
      "Ġstretch": 6592,
      "ĠDemocratic": 6593,
      "Ġattorney": 6594,
      "azon": 6595,
      "Ġticket": 6596,
      "ĠTurn": 6597,
      "Ġunable": 6598,
      "ĠExecutive": 6599,
      "isation": 6600,
      "Ġarrested": 6601,
      "inem": 6602,
      "Ġbirthday": 6603,
      "Ġstreets": 6604,
      "Ġimpossible": 6605,
      "ĠDemocrats": 6606,
      "Ġalcohol": 6607,
      "iana": 6608,
      "ĠCO": 6609,
      "ĠWat": 6610,
      "Ġfacing": 6611,
      "Ġconstruct": 6612,
      "Ġexpressed": 6613,
      "ĠAndroid": 6614,
      "inois": 6615,
      "ĠAsh": 6616,
      "Ġpermission": 6617,
      "Ġ1990": 6618,
      "you": 6619,
      "ĠPerhaps": 6620,
      "DS": 6621,
      "ĠFre": 6622,
      "Ġstrike": 6623,
      "Ġseasons": 6624,
      "nesota": 6625,
      "Ġchain": 6626,
      "ĠKim": 6627,
      "Ġflo": 6628,
      "Ġglad": 6629,
      "Ġincreases": 6630,
      "anna": 6631,
      "Ġimpressive": 6632,
      "Ġsoul": 6633,
      "Ġdecre": 6634,
      "ĠIndust": 6635,
      "Ġfeaturing": 6636,
      "Ex": 6637,
      "Ġclinical": 6638,
      "ĠAdam": 6639,
      "Ġtea": 6640,
      "ĠStan": 6641,
      "Ġadds": 6642,
      "Ġvictims": 6643,
      "Ġjoy": 6644,
      "Ġnurs": 6645,
      "Ġchannel": 6646,
      "Ġnav": 6647,
      "weight": 6648,
      "ĠiPad": 6649,
      "ĠControl": 6650,
      "ĠFriend": 6651,
      "Ġsubmit": 6652,
      "pay": 6653,
      "erg": 6654,
      "Ġarts": 6655,
      "Ġwid": 6656,
      "Ġnob": 6657,
      "ints": 6658,
      "Ġserves": 6659,
      "Ġgrade": 6660,
      "elcome": 6661,
      "alle": 6662,
      "Ġsou": 6663,
      "Ġwest": 6664,
      "Ġlikes": 6665,
      "Ġsomewhat": 6666,
      "owing": 6667,
      "ĠBroad": 6668,
      "ĠDC": 6669,
      "TA": 6670,
      "xx": 6671,
      "ĠPlus": 6672,
      "ĠJoseph": 6673,
      "Ġthin": 6674,
      "Ġcarbon": 6675,
      "Ġemp": 6676,
      "Ġcooking": 6677,
      "Ġaccurate": 6678,
      "Ġaf": 6679,
      "ĠPoint": 6680,
      "Ġshel": 6681,
      "53": 6682,
      "inet": 6683,
      "ĠGames": 6684,
      "profit": 6685,
      "ĠHom": 6686,
      "ĠCN": 6687,
      "Ġcontrast": 6688,
      "Ġpounds": 6689,
      "ureau": 6690,
      "nic": 6691,
      "ĠSaf": 6692,
      "Ġlights": 6693,
      "Ġcovers": 6694,
      "Ġgear": 6695,
      "hem": 6696,
      "ey": 6697,
      "Ġkinds": 6698,
      "Ġmoments": 6699,
      "Ġdepth": 6700,
      "irms": 6701,
      "ĠRand": 6702,
      "Ġappreciate": 6703,
      "Ġsignificantly": 6704,
      "Ġexecut": 6705,
      "tle": 6706,
      "Ġwins": 6707,
      "All": 6708,
      "ĠOpt": 6709,
      "Ġspr": 6710,
      "ĠPak": 6711,
      "ĠUnfortunately": 6712,
      "FC": 6713,
      "rid": 6714,
      "ellect": 6715,
      "Ġrelief": 6716,
      "oral": 6717,
      "________": 6718,
      "host": 6719,
      "ican": 6720,
      "ĠLo": 6721,
      "ĠMrs": 6722,
      "Ġ:)": 6723,
      "Ġbreakfast": 6724,
      "Ġinstructions": 6725,
      "Ġmurder": 6726,
      "ĠDun": 6727,
      "Ġloan": 6728,
      "Ġprompt": 6729,
      "ĠHenry": 6730,
      "Ġapproval": 6731,
      "Ġmaintenance": 6732,
      "eries": 6733,
      "PM": 6734,
      "ĠUsing": 6735,
      "nell": 6736,
      "Ġcorrespond": 6737,
      "Ġrestaurants": 6738,
      "Bl": 6739,
      "Ġindustrial": 6740,
      "Ġneither": 6741,
      "arters": 6742,
      ".âĢĻ": 6743,
      "Ġbattery": 6744,
      "ĠWilson": 6745,
      "ĠSupreme": 6746,
      "ĠCe": 6747,
      "Ġyounger": 6748,
      "Ġpleased": 6749,
      "Ġwatched": 6750,
      "Ġdefined": 6751,
      "51": 6752,
      "Ġbeer": 6753,
      "ĠÃ": 6754,
      "ĠFred": 6755,
      "2011": 6756,
      "Ġdepending": 6757,
      "Ġslowly": 6758,
      "Ġlovely": 6759,
      "ĠMinnesota": 6760,
      "long": 6761,
      "Ġillegal": 6762,
      "va": 6763,
      "hot": 6764,
      "ĠAvenue": 6765,
      "Ġsyn": 6766,
      "Ġcrack": 6767,
      "Ġelig": 6768,
      "Ġdirected": 6769,
      "Ġvary": 6770,
      "ĠWhich": 6771,
      "Ġremark": 6772,
      "Ġcock": 6773,
      "Ġspiritual": 6774,
      "Ġexclusive": 6775,
      "ĠLow": 6776,
      "lla": 6777,
      "Ġpercentage": 6778,
      "ĠAC": 6779,
      "Ġprocedures": 6780,
      "Ġcapable": 6781,
      "Ġpersons": 6782,
      "ĠRadio": 6783,
      "Ġconfirmed": 6784,
      "ilit": 6785,
      "rage": 6786,
      "Ġfalse": 6787,
      "Ġisland": 6788,
      "iano": 6789,
      "Ġmoves": 6790,
      "ĠMat": 6791,
      "ĠBull": 6792,
      "ĠHarry": 6793,
      "Ġmedicine": 6794,
      "Ġpossibility": 6795,
      "onym": 6796,
      "ĠDownload": 6797,
      "Ġluck": 6798,
      "encing": 6799,
      "ĠKansas": 6800,
      "ĠBible": 6801,
      "ded": 6802,
      "Ġgolf": 6803,
      "Ġenforcement": 6804,
      "Ġjun": 6805,
      "ums": 6806,
      "Ġagents": 6807,
      "Ġinfrastructure": 6808,
      "Ġdesigns": 6809,
      "Ġscientists": 6810,
      "Ġtall": 6811,
      "ĠRose": 6812,
      "ĠAdministration": 6813,
      "ĠTru": 6814,
      "stream": 6815,
      "Ġweren": 6816,
      "ĠCurrent": 6817,
      "ĠIllinois": 6818,
      "uling": 6819,
      "Ġsupports": 6820,
      "Ġmand": 6821,
      "Ġfaces": 6822,
      "Ġauthors": 6823,
      "ĠFurther": 6824,
      "born": 6825,
      "Ġ49": 6826,
      "ifications": 6827,
      "Ġentit": 6828,
      "ĠSH": 6829,
      "ĠLabor": 6830,
      "Ġriver": 6831,
      "Ġcake": 6832,
      "amber": 6833,
      "Ġrestrict": 6834,
      "Ġfeedback": 6835,
      "Ġproposal": 6836,
      "ĠKh": 6837,
      "Ġelected": 6838,
      "Ġdescribe": 6839,
      "cia": 6840,
      "Ġestimated": 6841,
      "Ġvice": 6842,
      "ĠCirc": 6843,
      "wing": 6844,
      "Ġinjuries": 6845,
      "ĠOK": 6846,
      "Ġclaimed": 6847,
      "Ġages": 6848,
      "ALL": 6849,
      "phy": 6850,
      "Ġsuc": 6851,
      "ĠThus": 6852,
      "ĠDisc": 6853,
      "Ġprope": 6854,
      "Ġ08": 6855,
      "Ġeffectively": 6856,
      "owa": 6857,
      "new": 6858,
      "Ġtypical": 6859,
      "Ġscoring": 6860,
      "Ġdish": 6861,
      "TC": 6862,
      "bar": 6863,
      "lah": 6864,
      "ĠNick": 6865,
      "Ġdescription": 6866,
      "ĠStat": 6867,
      "RI": 6868,
      "Ġshap": 6869,
      "mont": 6870,
      "ĠBru": 6871,
      "Ġ34": 6872,
      "Ġtrend": 6873,
      "Ġcommunications": 6874,
      "Ġfrequently": 6875,
      "otal": 6876,
      "ĠHand": 6877,
      "Ġmixed": 6878,
      "Ġ09": 6879,
      "Ġsight": 6880,
      "Ġsubmitted": 6881,
      "ĠMeet": 6882,
      "Ġlux": 6883,
      "ĠCreat": 6884,
      "izz": 6885,
      "ĠPhoto": 6886,
      "Ġnetworks": 6887,
      "Ġempt": 6888,
      "Ġfuck": 6889,
      "lights": 6890,
      "Ġdrivers": 6891,
      "ĠRoom": 6892,
      "ĠPolicy": 6893,
      "Ġimmediate": 6894,
      "Ġinnovative": 6895,
      "uls": 6896,
      "ĠGuide": 6897,
      "rip": 6898,
      "Ġconflict": 6899,
      "gage": 6900,
      "eding": 6901,
      "ĠAustralian": 6902,
      "Ġvast": 6903,
      "Ġwebsites": 6904,
      "cons": 6905,
      "Ġenthus": 6906,
      "Ġpractical": 6907,
      "Ġheads": 6908,
      "Ġevil": 6909,
      "Ġattended": 6910,
      "Ġtail": 6911,
      "76": 6912,
      "Ġoccurred": 6913,
      "Ġdifferences": 6914,
      "athan": 6915,
      "Ġidentity": 6916,
      "Ġrail": 6917,
      "Ġtag": 6918,
      "aron": 6919,
      "ĠHouston": 6920,
      "ĠPS": 6921,
      "ogs": 6922,
      "ĠSeattle": 6923,
      "Ġaside": 6924,
      "yers": 6925,
      "Ġzone": 6926,
      "Ġphilosoph": 6927,
      "Ġclothes": 6928,
      "Ġ75": 6929,
      "ĠTig": 6930,
      "Ġvaluable": 6931,
      "Ġsurprising": 6932,
      "Ġconsistent": 6933,
      "Ġsomewhere": 6934,
      "Ġrecording": 6935,
      "stein": 6936,
      "Ġfinds": 6937,
      "ĠPass": 6938,
      "ĠHollywood": 6939,
      "Ġsilver": 6940,
      "Ġsettings": 6941,
      "ĠNever": 6942,
      "Ġnarrow": 6943,
      "Ġstood": 6944,
      "ugh": 6945,
      "Ġwheel": 6946,
      "omy": 6947,
      "Ġrose": 6948,
      "Ġinvent": 6949,
      "xy": 6950,
      "Be": 6951,
      "Ġnewspaper": 6952,
      "ca": 6953,
      "Ġphotograp": 6954,
      "ĠRog": 6955,
      "Ġcompr": 6956,
      "Ġregulations": 6957,
      "pat": 6958,
      "Ġinstrument": 6959,
      "Ġplanet": 6960,
      "Ġvillage": 6961,
      "ĠRam": 6962,
      "ĠIII": 6963,
      "Ġengineering": 6964,
      "abb": 6965,
      "osit": 6966,
      "Ġhat": 6967,
      "Ġbear": 6968,
      "Ġreader": 6969,
      "Ġclosely": 6970,
      "Ġhall": 6971,
      "class": 6972,
      "resents": 6973,
      "Ġinterface": 6974,
      "ĠWrit": 6975,
      "Ġlie": 6976,
      "Ġthinks": 6977,
      "Ġsuggests": 6978,
      "Ġsurf": 6979,
      "anges": 6980,
      "run": 6981,
      "Ġnecessarily": 6982,
      "Ġhousehold": 6983,
      "ixture": 6984,
      "Ġspin": 6985,
      "ĠPop": 6986,
      "phia": 6987,
      "ĠBa": 6988,
      "Ġexcess": 6989,
      "ĠSometimes": 6990,
      "Ġeast": 6991,
      "ĠGreg": 6992,
      "ĠBox": 6993,
      "ĠKar": 6994,
      "greg": 6995,
      "teen": 6996,
      "Ġobjects": 6997,
      "Ġrein": 6998,
      "aug": 6999,
      "Ġrepeated": 7000,
      "ĠLuc": 7001,
      "cue": 7002,
      "rated": 7003,
      "ĠCON": 7004,
      "Ġaffili": 7005,
      "ava": 7006,
      "Ġcontrovers": 7007,
      "Ġpromise": 7008,
      "Ġwrites": 7009,
      "Ġfavour": 7010,
      "Ġmuseum": 7011,
      "Ġvictim": 7012,
      "Ġcarefully": 7013,
      "Ġdim": 7014,
      "game": 7015,
      "Ġheav": 7016,
      "endar": 7017,
      "Ġreject": 7018,
      "Ġflood": 7019,
      "ĠSection": 7020,
      "Ġregistration": 7021,
      "Ġexpression": 7022,
      "Ġsufficient": 7023,
      "sue": 7024,
      "ati": 7025,
      "Ġreaction": 7026,
      "nda": 7027,
      "Ġsin": 7028,
      "Ġwet": 7029,
      "Ġremained": 7030,
      "Ã¡": 7031,
      "Ġbasically": 7032,
      "Ġrecognize": 7033,
      "ĠCa": 7034,
      "Ġcompens": 7035,
      "Ġduty": 7036,
      "ĠForce": 7037,
      "Ġtransition": 7038,
      "Ġprinciples": 7039,
      "Ġtiny": 7040,
      "hent": 7041,
      "ĠAp": 7042,
      "ĠCentre": 7043,
      "ĠTech": 7044,
      "agan": 7045,
      "adelphia": 7046,
      "Ġaggress": 7047,
      "Ġunion": 7048,
      "Ġeverybody": 7049,
      "estyle": 7050,
      "Ġborder": 7051,
      "ĠAssist": 7052,
      "Ġlayer": 7053,
      "ailability": 7054,
      "Ġlegs": 7055,
      "star": 7056,
      "Ġpp": 7057,
      "Ġ1997": 7058,
      "amental": 7059,
      "ĠDigital": 7060,
      "esides": 7061,
      "Ġacts": 7062,
      "Ġhang": 7063,
      "Ġsurrounding": 7064,
      "Ġanticip": 7065,
      "Ġhistoric": 7066,
      "ouch": 7067,
      "Ġstrange": 7068,
      "ĠSteven": 7069,
      "ĠExpl": 7070,
      "Ġcycle": 7071,
      "ĠTele": 7072,
      "Ġ~": 7073,
      "Ġsimpl": 7074,
      "ĠHa": 7075,
      "icted": 7076,
      "Ġattrib": 7077,
      "burgh": 7078,
      "ographic": 7079,
      "ĠLocal": 7080,
      "Ġvacation": 7081,
      "umes": 7082,
      "stone": 7083,
      "ĠKnow": 7084,
      "cling": 7085,
      "Ġtherapy": 7086,
      "Ġinstruct": 7087,
      "Ġdistinct": 7088,
      "Ġongoing": 7089,
      "Ġtrading": 7090,
      "Ġobtain": 7091,
      "cers": 7092,
      "Ġinvited": 7093,
      "Ġoutstanding": 7094,
      "Ġyellow": 7095,
      "Ġwalls": 7096,
      "Ġstrategies": 7097,
      "Ġrisks": 7098,
      "Ġorganic": 7099,
      "Ġwindows": 7100,
      "Ġgifts": 7101,
      "ĠSuch": 7102,
      "Ġultimately": 7103,
      "Ġsteel": 7104,
      "ĠVill": 7105,
      "Ġrepresents": 7106,
      "Ġversions": 7107,
      "Ġconcert": 7108,
      "ĠCode": 7109,
      "Ġbomb": 7110,
      "ĠAL": 7111,
      "itage": 7112,
      "ĠStephen": 7113,
      "ĠLA": 7114,
      "ocking": 7115,
      "Ġhyp": 7116,
      "ĠHelp": 7117,
      "entle": 7118,
      "ipal": 7119,
      "etime": 7120,
      "Ġflash": 7121,
      "Ġregularly": 7122,
      "ĠRussian": 7123,
      "Ġagric": 7124,
      "Ġlargely": 7125,
      "Ġlicens": 7126,
      "ĠLt": 7127,
      "suit": 7128,
      "ĠRick": 7129,
      "hi": 7130,
      "Ġboost": 7131,
      "Un": 7132,
      "ĠLearn": 7133,
      "boy": 7134,
      "vi": 7135,
      "==": 7136,
      "Ġancient": 7137,
      "lder": 7138,
      "lahoma": 7139,
      "Ġdoors": 7140,
      "ensus": 7141,
      "oore": 7142,
      "ĠEqu": 7143,
      "Ġadvis": 7144,
      "ĠNAS": 7145,
      "ĠRussia": 7146,
      "ilty": 7147,
      "anche": 7148,
      "sm": 7149,
      "regon": 7150,
      "ras": 7151,
      "ensity": 7152,
      "Ġreput": 7153,
      "Ġnom": 7154,
      "ran": 7155,
      "Ġpra": 7156,
      "Ġbench": 7157,
      "Ġ39": 7158,
      "Ġemotional": 7159,
      "iti": 7160,
      "ĠAsk": 7161,
      "ĠScot": 7162,
      "Ġatmosphere": 7163,
      "iscons": 7164,
      "Ġplayoff": 7165,
      "Ġcoal": 7166,
      "Ġdates": 7167,
      "rett": 7168,
      "Com": 7169,
      "ĠMD": 7170,
      "Ġdebut": 7171,
      "Ġexposure": 7172,
      "ĠGi": 7173,
      "car": 7174,
      "Ġjack": 7175,
      "vard": 7176,
      "isconsin": 7177,
      "Ġbodies": 7178,
      "Ġgrass": 7179,
      "Ġmal": 7180,
      "ĠSU": 7181,
      "Ġsky": 7182,
      "Ġbow": 7183,
      ")|": 7184,
      "Ġcontinuing": 7185,
      "OO": 7186,
      "Ġawards": 7187,
      "ĠCase": 7188,
      "ĠLy": 7189,
      "Ġlistening": 7190,
      "Ġfoundation": 7191,
      "TER": 7192,
      "Ġpersonally": 7193,
      "Ġcollected": 7194,
      "ĠRo": 7195,
      "Ġdelight": 7196,
      "claim": 7197,
      "iley": 7198,
      "ĠConf": 7199,
      "inations": 7200,
      "Ġvotes": 7201,
      "stra": 7202,
      "ĠSky": 7203,
      "VER": 7204,
      "ockey": 7205,
      "Ġhook": 7206,
      "Ġprofit": 7207,
      "Ġtracks": 7208,
      "Ġprepar": 7209,
      "ĠIM": 7210,
      "Ġchose": 7211,
      "Ġstim": 7212,
      "ĠSat": 7213,
      "comes": 7214,
      "American": 7215,
      "Ġmanufacturing": 7216,
      "makers": 7217,
      "ĠTrust": 7218,
      "Ġmonthly": 7219,
      "anned": 7220,
      "Ġ($": 7221,
      "iments": 7222,
      "ĠOak": 7223,
      "Ġcontained": 7224,
      "ĠMult": 7225,
      "Ġrear": 7226,
      "ĠBase": 7227,
      "icing": 7228,
      "bel": 7229,
      "Ġnearby": 7230,
      "Ġsorry": 7231,
      "isms": 7232,
      "ĠDam": 7233,
      "rome": 7234,
      "Ġalive": 7235,
      "Ġmini": 7236,
      "ĠItaly": 7237,
      "Ġmic": 7238,
      "ĠMain": 7239,
      "!!!!": 7240,
      "Ġreplaced": 7241,
      "Ġflavor": 7242,
      "ĠJason": 7243,
      "Ġloves": 7244,
      "ĠSav": 7245,
      "Ġextent": 7246,
      "Ġprocedure": 7247,
      "Ġexplains": 7248,
      "Ġsolar": 7249,
      "ĠVery": 7250,
      "Ġ400": 7251,
      "ione": 7252,
      "ĠPow": 7253,
      "ĠHeart": 7254,
      "ĠJoin": 7255,
      "Ġimprovement": 7256,
      "ĠBal": 7257,
      "Ġfiscal": 7258,
      "ĠFarm": 7259,
      "oir": 7260,
      "ĠBon": 7261,
      "aze": 7262,
      "ĠSE": 7263,
      "allas": 7264,
      "Ġoffices": 7265,
      "Ġexpectations": 7266,
      "Ġbunch": 7267,
      "Ġ46": 7268,
      "ĠMountain": 7269,
      "bal": 7270,
      "Ġdoctors": 7271,
      "iversary": 7272,
      "ennis": 7273,
      "ylv": 7274,
      "Ġgotten": 7275,
      "ĠJay": 7276,
      "Ġsharp": 7277,
      "oned": 7278,
      "Ġfishing": 7279,
      "writ": 7280,
      "she": 7281,
      "Ġincredible": 7282,
      "Ġcentre": 7283,
      "Ġ42": 7284,
      "liam": 7285,
      "Ġplug": 7286,
      "Ġkilling": 7287,
      "Ġawareness": 7288,
      "ĠSn": 7289,
      "Ġincreasingly": 7290,
      "ĠRun": 7291,
      "anes": 7292,
      "Ġdiscipl": 7293,
      "Ġposting": 7294,
      "Ġtitles": 7295,
      "Ġheaded": 7296,
      "Ġassistant": 7297,
      "Ġflour": 7298,
      "ĠSummer": 7299,
      "By": 7300,
      "ritten": 7301,
      "Ġapartment": 7302,
      "Ġlists": 7303,
      "Ġ1995": 7304,
      "Ġdefault": 7305,
      "Ġorganized": 7306,
      "ĠMajor": 7307,
      "ĠAwards": 7308,
      "Ġopposition": 7309,
      "ĠAnth": 7310,
      "Ġmountain": 7311,
      "ĠPhiladelphia": 7312,
      "ĠStaff": 7313,
      "Ġassault": 7314,
      "Ġsubsequ": 7315,
      "Ġconstantly": 7316,
      "Ġurban": 7317,
      "Ġdelicious": 7318,
      "anke": 7319,
      "Ġproof": 7320,
      "aded": 7321,
      "Ġrepair": 7322,
      "reprene": 7323,
      "razil": 7324,
      "raid": 7325,
      "adow": 7326,
      "ĠFoot": 7327,
      "Ġinformed": 7328,
      "AV": 7329,
      "ĠBrook": 7330,
      "Ġpapers": 7331,
      "ounded": 7332,
      "Ġprimarily": 7333,
      "Ġsending": 7334,
      "ikes": 7335,
      "Ġdowntown": 7336,
      "Ġcelebrate": 7337,
      "Ġinstallation": 7338,
      "Ġ)": 7339,
      "high": 7340,
      "ĠLar": 7341,
      "Ġwra": 7342,
      "Ġpartnership": 7343,
      "ĠIowa": 7344,
      "Ġlucky": 7345,
      "Ġexec": 7346,
      "pected": 7347,
      "ĠWisconsin": 7348,
      "Ġapps": 7349,
      "Ġ02": 7350,
      "Ġexternal": 7351,
      "Ġguarantee": 7352,
      "Ġexception": 7353,
      "Ġsymbol": 7354,
      "ĠStudies": 7355,
      "ĠAmazon": 7356,
      "ĠSenior": 7357,
      "ĠSpace": 7358,
      "inder": 7359,
      "ĠHas": 7360,
      "Ġhitting": 7361,
      "redit": 7362,
      "Ġroutine": 7363,
      "ĠMeanwhile": 7364,
      "Ġshift": 7365,
      "Ġtrick": 7366,
      "Ġassign": 7367,
      "plete": 7368,
      "rog": 7369,
      "Ġlinked": 7370,
      "Le": 7371,
      "Ġrevolution": 7372,
      "ĠBry": 7373,
      "ĠOregon": 7374,
      "idays": 7375,
      "Ġseed": 7376,
      "uing": 7377,
      "ĠSpirit": 7378,
      "ĠDiego": 7379,
      "ĠTry": 7380,
      "ĠNon": 7381,
      "Ġtab": 7382,
      "level": 7383,
      "nam": 7384,
      "roit": 7385,
      "Ġprohib": 7386,
      "ologist": 7387,
      "iform": 7388,
      "Ġ1996": 7389,
      "ĠHoly": 7390,
      "eline": 7391,
      "itals": 7392,
      "Ġtied": 7393,
      "Ġsmell": 7394,
      "Ġforever": 7395,
      "Ġjew": 7396,
      "Ġacting": 7397,
      "ĠHIV": 7398,
      "ĠJosh": 7399,
      "Ġdealing": 7400,
      "Ġphase": 7401,
      "Ġsmile": 7402,
      "Ġairport": 7403,
      "Ġtie": 7404,
      "Ġassets": 7405,
      "Ġsuffered": 7406,
      "ĠPalest": 7407,
      "ĠApplic": 7408,
      "Ġskill": 7409,
      "Ġobtained": 7410,
      "Ġresulting": 7411,
      "ĠTravel": 7412,
      "ĠSea": 7413,
      "Ġsaved": 7414,
      "Ġsituations": 7415,
      "Ġdrawing": 7416,
      "Our": 7417,
      "ifer": 7418,
      "olit": 7419,
      "Ġflowers": 7420,
      "asks": 7421,
      "ĠMess": 7422,
      "Ġnormally": 7423,
      "uality": 7424,
      "Ġwriters": 7425,
      "ĠNH": 7426,
      "Ġreward": 7427,
      "Ġyield": 7428,
      "tain": 7429,
      "ĠBE": 7430,
      "Ġphen": 7431,
      "Ġweekly": 7432,
      "liament": 7433,
      "ĠColumbia": 7434,
      "Ġevolution": 7435,
      "Ġvirtual": 7436,
      "Ġliquid": 7437,
      "To": 7438,
      "ĠED": 7439,
      "Ġenable": 7440,
      "Ġ07": 7441,
      "ĠMedicine": 7442,
      "Ġreferred": 7443,
      "Ġbrowser": 7444,
      "ĠAtlanta": 7445,
      "iki": 7446,
      "inent": 7447,
      "Ġtap": 7448,
      "Ġtested": 7449,
      "300": 7450,
      "ĠHoward": 7451,
      "Ġsupplies": 7452,
      "ĠDave": 7453,
      "ĠAmong": 7454,
      "des": 7455,
      "Ġpointed": 7456,
      "abetes": 7457,
      "ylvania": 7458,
      "onto": 7459,
      "rition": 7460,
      "ĠSC": 7461,
      "ĠOrder": 7462,
      "pson": 7463,
      "ĠTrib": 7464,
      "iece": 7465,
      "stood": 7466,
      "Ġattached": 7467,
      "ĠSystems": 7468,
      "Ġtur": 7469,
      "othe": 7470,
      "Ġnoise": 7471,
      "Ġassessment": 7472,
      "ether": 7473,
      "ervations": 7474,
      "sters": 7475,
      "Ġcontrols": 7476,
      "Ġsavings": 7477,
      "Ġheight": 7478,
      "Ġefficiency": 7479,
      "alo": 7480,
      "Ġstruck": 7481,
      "Ġshouldn": 7482,
      "ĠLewis": 7483,
      "RL": 7484,
      "Ġbottle": 7485,
      "ba": 7486,
      "Ġimplementation": 7487,
      "osa": 7488,
      "Ġmoder": 7489,
      "Ġhole": 7490,
      "irts": 7491,
      "utor": 7492,
      "iences": 7493,
      "etry": 7494,
      "Ġera": 7495,
      "fin": 7496,
      "iamond": 7497,
      "ifies": 7498,
      "http": 7499,
      "Ġanymore": 7500,
      "Ġbatt": 7501,
      "ĠWas": 7502,
      "zer": 7503,
      "ĠHaving": 7504,
      "rison": 7505,
      "ĠBowl": 7506,
      "Ġunus": 7507,
      "Ġvend": 7508,
      "pir": 7509,
      "ĠArea": 7510,
      "ĠCru": 7511,
      "Ġintellect": 7512,
      "ĠBern": 7513,
      "Ġlatter": 7514,
      "ĠFREE": 7515,
      "ĠPrem": 7516,
      "ĠOklahoma": 7517,
      "Ġsplit": 7518,
      "ĠJord": 7519,
      "Ġsucceed": 7520,
      "Ġtwenty": 7521,
      "Ġillness": 7522,
      "Ġintelligence": 7523,
      "Pl": 7524,
      "ĠMobile": 7525,
      "85": 7526,
      "Ġattempts": 7527,
      "ĠMembers": 7528,
      "ĠEastern": 7529,
      "ĠSmall": 7530,
      "2010": 7531,
      "pes": 7532,
      "Ġma": 7533,
      "wered": 7534,
      "Ġpassword": 7535,
      "rants": 7536,
      "Ġsheet": 7537,
      "bing": 7538,
      "ĠSilver": 7539,
      "reland": 7540,
      "earing": 7541,
      "celer": 7542,
      "Ġopinions": 7543,
      "Ġprivacy": 7544,
      "Ġhabit": 7545,
      "tw": 7546,
      "Ġ03": 7547,
      "Ġ06": 7548,
      "Ġmembership": 7549,
      "ĠPhys": 7550,
      "enth": 7551,
      "Ġmarked": 7552,
      "Ġaccused": 7553,
      "RS": 7554,
      "GE": 7555,
      "Ġfing": 7556,
      "olis": 7557,
      "Ġchat": 7558,
      "Ġpublication": 7559,
      "Ġunp": 7560,
      "Ġterrit": 7561,
      "bury": 7562,
      "pel": 7563,
      "ĠEs": 7564,
      "Ġdrinking": 7565,
      "ĠPitt": 7566,
      "ESS": 7567,
      "CD": 7568,
      "ĠStudent": 7569,
      "ĠBritain": 7570,
      "Ġassume": 7571,
      "Ġencouraged": 7572,
      "ĠClinton": 7573,
      "Ġdomain": 7574,
      "orable": 7575,
      "Ġvul": 7576,
      "89": 7577,
      "ilton": 7578,
      "Ġseats": 7579,
      "65": 7580,
      "Ġtiss": 7581,
      "Ġinjured": 7582,
      "Ġ1980": 7583,
      "ĠBall": 7584,
      "Ġengage": 7585,
      "'.": 7586,
      "Ġpatterns": 7587,
      "Ġopposite": 7588,
      "ĠCivil": 7589,
      "ults": 7590,
      "Ġsuddenly": 7591,
      "Ġfalling": 7592,
      "ĠNic": 7593,
      "upid": 7594,
      "uties": 7595,
      "Ġoutdoor": 7596,
      "Ġaircraft": 7597,
      "Ġawarded": 7598,
      "Ġvisited": 7599,
      "Ġ04": 7600,
      "Ġproviders": 7601,
      "79": 7602,
      "ĠLady": 7603,
      "olec": 7604,
      "ĠTax": 7605,
      "ĠLinux": 7606,
      "ura": 7607,
      "Ġcontribute": 7608,
      "ĠVi": 7609,
      "Ġfilter": 7610,
      "abeth": 7611,
      "Ġtransportation": 7612,
      "enger": 7613,
      "ortion": 7614,
      "ĠFinancial": 7615,
      "Ġsoldiers": 7616,
      "asant": 7617,
      "ĠCommer": 7618,
      "Ġadmitted": 7619,
      "Ġprotein": 7620,
      "Ġintegrated": 7621,
      "ĠML": 7622,
      "mal": 7623,
      "ĠPolit": 7624,
      "eman": 7625,
      "Ġexistence": 7626,
      "ĠPenns": 7627,
      "heast": 7628,
      "Ġfulf": 7629,
      "Ġbreath": 7630,
      "Ġcontemporary": 7631,
      "ĠRoyal": 7632,
      "Ġsuccessfully": 7633,
      "Ġsessions": 7634,
      "Ġmagn": 7635,
      "asts": 7636,
      "Ġgranted": 7637,
      "urse": 7638,
      "ĠRemember": 7639,
      "Ġdefinition": 7640,
      "ĠDO": 7641,
      "ĠThink": 7642,
      "Ġscenes": 7643,
      "missions": 7644,
      "ĠUlt": 7645,
      "Ġtouchdown": 7646,
      "Ġstruggle": 7647,
      "mates": 7648,
      "etts": 7649,
      "ĠBrazil": 7650,
      "Ġprotected": 7651,
      "ĠDrive": 7652,
      "bre": 7653,
      "Ġending": 7654,
      "Ġwidely": 7655,
      "Ġvoted": 7656,
      "ĠLu": 7657,
      "Ġmachines": 7658,
      "ĠBalt": 7659,
      "Ġtank": 7660,
      "inity": 7661,
      "war": 7662,
      "ĠNorthern": 7663,
      "Ġexperiment": 7664,
      "Ġ05": 7665,
      "Ġprinted": 7666,
      "Ġexplan": 7667,
      "Ġnewly": 7668,
      "Ġwireless": 7669,
      "Ġsees": 7670,
      "ĠComments": 7671,
      "elf": 7672,
      "Ġreduction": 7673,
      "Ġpermanent": 7674,
      "ĠCP": 7675,
      "Ġpin": 7676,
      "ĠTen": 7677,
      "Ġpepper": 7678,
      "Ġempty": 7679,
      "Ġcute": 7680,
      "ĠLatin": 7681,
      "Ġacid": 7682,
      "Ġblocks": 7683,
      "Ġmile": 7684,
      "GA": 7685,
      "Ġrating": 7686,
      "ĠFather": 7687,
      "Ġclar": 7688,
      "Ġbreaking": 7689,
      "Ġpresidential": 7690,
      "ĠCountry": 7691,
      "Ġicon": 7692,
      "ĠTal": 7693,
      "Ġcolour": 7694,
      "ĠWorks": 7695,
      "Se": 7696,
      "och": 7697,
      "ressed": 7698,
      "oil": 7699,
      "ĠAnderson": 7700,
      "Ġbell": 7701,
      "Ġbridge": 7702,
      "oty": 7703,
      "ĠWould": 7704,
      "Ġpace": 7705,
      "Ġjudgment": 7706,
      "Ġcapture": 7707,
      "including": 7708,
      "Ġsevent": 7709,
      "ĠBarb": 7710,
      "ĠMill": 7711,
      "Ġcomputers": 7712,
      "whel": 7713,
      "ĠMA": 7714,
      "Ġroof": 7715,
      "rific": 7716,
      "uter": 7717,
      "ĠEst": 7718,
      "ĠCond": 7719,
      "Ġjur": 7720,
      "ĠAgency": 7721,
      "Ġgiant": 7722,
      "Ġquarterback": 7723,
      "Ġdesigner": 7724,
      "Ġenemy": 7725,
      "ĠStore": 7726,
      "Ed": 7727,
      "Ġafraid": 7728,
      "acon": 7729,
      "Ġflav": 7730,
      "Ġinnings": 7731,
      "ĠDallas": 7732,
      "ĠFall": 7733,
      "ĠMagazine": 7734,
      "Ġclothing": 7735,
      "aza": 7736,
      "Ġstone": 7737,
      "ĠArm": 7738,
      "Ġinvolving": 7739,
      "rance": 7740,
      "Ġplot": 7741,
      "Ġguilty": 7742,
      "ĠEag": 7743,
      "Ġshoulder": 7744,
      "64": 7745,
      "ĠHell": 7746,
      "Â°": 7747,
      "ĠIreland": 7748,
      "Ġmonitoring": 7749,
      "ĠMcG": 7750,
      "Ġpharm": 7751,
      "erts": 7752,
      "atell": 7753,
      "Ġpayments": 7754,
      "Ġconstant": 7755,
      "Ġvital": 7756,
      "UL": 7757,
      "pons": 7758,
      "ĠRoll": 7759,
      "Ġcausing": 7760,
      "Ġimproving": 7761,
      "ador": 7762,
      "Ġrum": 7763,
      "Ġlad": 7764,
      "ĠIrish": 7765,
      "Ġputs": 7766,
      "ĠMemorial": 7767,
      "Ġ150": 7768,
      "ĠPennsylvania": 7769,
      "tes": 7770,
      "bro": 7771,
      "Ġfasc": 7772,
      "Ġdrawn": 7773,
      "Ġfindings": 7774,
      "Ġtip": 7775,
      "Ġbrill": 7776,
      "Ġembr": 7777,
      "Ġaspect": 7778,
      "Ġexpansion": 7779,
      "ĠFac": 7780,
      "Ġeverywhere": 7781,
      "athy": 7782,
      "ĠFR": 7783,
      "Ġreturning": 7784,
      "Ġwave": 7785,
      "Ġstuck": 7786,
      "ĠAfghanistan": 7787,
      "ĠTick": 7788,
      "icide": 7789,
      "ĠCapt": 7790,
      "ĠShould": 7791,
      "ĠCorporation": 7792,
      "Ġrig": 7793,
      "Ġ65": 7794,
      "Ġelev": 7795,
      "Ġloud": 7796,
      "Ġcomponent": 7797,
      "Ġpowers": 7798,
      "Ġ55": 7799,
      "aturally": 7800,
      "Ġengaged": 7801,
      "rete": 7802,
      "intend": 7803,
      "front": 7804,
      "ĠPerform": 7805,
      "remony": 7806,
      "Ġlies": 7807,
      "Ġpersonnel": 7808,
      "ĠFact": 7809,
      "child": 7810,
      "Ġblind": 7811,
      "Ġcategories": 7812,
      "Ġformal": 7813,
      "Ġmoral": 7814,
      "Ġdollar": 7815,
      "rieved": 7816,
      "Ġoperate": 7817,
      "Ġinqu": 7818,
      "umps": 7819,
      "De": 7820,
      "achus": 7821,
      "Ġdevelopers": 7822,
      "AB": 7823,
      "Ġjunior": 7824,
      "oln": 7825,
      "anted": 7826,
      "Ġarmy": 7827,
      "ucks": 7828,
      "Ġdivid": 7829,
      "Ġfounded": 7830,
      "Ġlimits": 7831,
      "Ġcarrying": 7832,
      "ĠEnt": 7833,
      "case": 7834,
      "then": 7835,
      "etary": 7836,
      "Ġstead": 7837,
      "ulating": 7838,
      "cr": 7839,
      "Ġrising": 7840,
      "ĠBuilding": 7841,
      "Ġstring": 7842,
      "ĠDeb": 7843,
      "Ġperforming": 7844,
      "Ġsuffering": 7845,
      "Ġconservative": 7846,
      "Oh": 7847,
      "ĠKelly": 7848,
      "Ġstro": 7849,
      "oken": 7850,
      "Ġeveryday": 7851,
      "ĠGuard": 7852,
      "Ġrequests": 7853,
      "isted": 7854,
      "Ġcontrolled": 7855,
      "imore": 7856,
      "Ġbab": 7857,
      "Ġ;": 7858,
      "ĠEliz": 7859,
      "ĠDetroit": 7860,
      "Ġtrig": 7861,
      "Ġfraud": 7862,
      "page": 7863,
      "iders": 7864,
      "ĠDark": 7865,
      "Ġcompete": 7866,
      "orne": 7867,
      "Ġvari": 7868,
      "Ġtradem": 7869,
      "ĠCab": 7870,
      "da": 7871,
      "Ġpainting": 7872,
      "Ġbags": 7873,
      "ĠSir": 7874,
      "ERE": 7875,
      "Ġthorough": 7876,
      "Ġinvention": 7877,
      "ĠMir": 7878,
      "Ġclimb": 7879,
      "lled": 7880,
      "Ġbutt": 7881,
      "Ġlaid": 7882,
      "ĠMaryland": 7883,
      "ĠAllen": 7884,
      "ĠUr": 7885,
      "oked": 7886,
      "Ġcourts": 7887,
      "lee": 7888,
      "Ġadj": 7889,
      "Ġdiverse": 7890,
      "acking": 7891,
      "Ġreplacement": 7892,
      "AND": 7893,
      "izza": 7894,
      "Ġforest": 7895,
      "Ġlect": 7896,
      "Ġvoting": 7897,
      "Ġtroops": 7898,
      "heim": 7899,
      "ĠJews": 7900,
      "Ġintent": 7901,
      "Ġpresents": 7902,
      "ped": 7903,
      "bell": 7904,
      "Ġsubsid": 7905,
      "ĠJam": 7906,
      "Ġunem": 7907,
      "Ġbrands": 7908,
      "Ġaccomplish": 7909,
      "One": 7910,
      "iot": 7911,
      "Ġdad": 7912,
      "Ġhumans": 7913,
      "Ġprecise": 7914,
      "Ġfundamental": 7915,
      "ILL": 7916,
      "Ġstrategic": 7917,
      "ĠCro": 7918,
      "worth": 7919,
      "Ġprogramming": 7920,
      "otton": 7921,
      "ĠLine": 7922,
      "oga": 7923,
      "Ġsustainable": 7924,
      "Ġmig": 7925,
      "ificate": 7926,
      "Ġvolunteers": 7927,
      "TE": 7928,
      "idance": 7929,
      "Ġproven": 7930,
      "Ġstayed": 7931,
      "Ġrecognition": 7932,
      "Ġeggs": 7933,
      "achusetts": 7934,
      "Ġaddresses": 7935,
      "uct": 7936,
      "ĠAsian": 7937,
      "ĠMoore": 7938,
      "She": 7939,
      "ĠNorm": 7940,
      "Ġreputation": 7941,
      "Ġmixture": 7942,
      "ĠRecent": 7943,
      "Ġinterior": 7944,
      "ĠSpain": 7945,
      "Ġflying": 7946,
      "issions": 7947,
      "SU": 7948,
      "essel": 7949,
      "ĠCL": 7950,
      "Ġdining": 7951,
      "Ġchallenging": 7952,
      "Ġcreates": 7953,
      "ĠJordan": 7954,
      "Ġrepresented": 7955,
      "Ġentitled": 7956,
      "Ġstations": 7957,
      "acher": 7958,
      "ĠPriv": 7959,
      "ĠDisney": 7960,
      "Ġphr": 7961,
      "ĠNEW": 7962,
      "Ġelections": 7963,
      "ĠLink": 7964,
      "Ġopposed": 7965,
      "ĠJudge": 7966,
      "Ġpriority": 7967,
      "owned": 7968,
      "Ġcombat": 7969,
      "izer": 7970,
      "ĠTraining": 7971,
      "gent": 7972,
      "ĠDE": 7973,
      "Ġtrained": 7974,
      "ĠVisit": 7975,
      "isa": 7976,
      "Ġpipe": 7977,
      "inth": 7978,
      "amps": 7979,
      "ĠPatrick": 7980,
      "oen": 7981,
      "Ġrecon": 7982,
      "Ġevol": 7983,
      "Ġultimate": 7984,
      "ĠHay": 7985,
      "Ġhung": 7986,
      "ĠSoftware": 7987,
      "Ġpremium": 7988,
      "Ġpropecia": 7989,
      "Ġchampionship": 7990,
      "Ġphones": 7991,
      "ĠOlympic": 7992,
      "sub": 7993,
      "Ġcenters": 7994,
      "ĠCert": 7995,
      "Ġexpertise": 7996,
      "cal": 7997,
      "Ġgovernments": 7998,
      "Ġfestival": 7999,
      "Ġsought": 8000,
      "Ġfeelings": 8001,
      "Ġflag": 8002,
      "ĠRequ": 8003,
      "Ġpushed": 8004,
      "Ġrecommendations": 8005,
      "Ġpleasure": 8006,
      "Ġdecent": 8007,
      "Ġparticipation": 8008,
      "Ġeligible": 8009,
      "Ġsoil": 8010,
      "2009": 8011,
      "ĠToronto": 8012,
      "ĠAh": 8013,
      "inte": 8014,
      "Ġadopted": 8015,
      "from": 8016,
      "Ġroot": 8017,
      "Ġpotentially": 8018,
      "oured": 8019,
      "lections": 8020,
      "ĠGro": 8021,
      "Ġske": 8022,
      "--------": 8023,
      "ĠRus": 8024,
      "ĠRoman": 8025,
      "ĠPu": 8026,
      "Ġnations": 8027,
      "Ġoven": 8028,
      "ĠForum": 8029,
      "Ġavailability": 8030,
      "Ġpasses": 8031,
      "Ġamounts": 8032,
      "amework": 8033,
      "Ġplain": 8034,
      "annels": 8035,
      "Ġbehalf": 8036,
      "Ġproducing": 8037,
      "letter": 8038,
      "stery": 8039,
      "Ġconvenient": 8040,
      "May": 8041,
      "person": 8042,
      "ĠMassachusetts": 8043,
      "ĠEvent": 8044,
      "ĠGolden": 8045,
      "epend": 8046,
      "',": 8047,
      "Ġfaced": 8048,
      "olar": 8049,
      "Ġfranch": 8050,
      "Ġjoining": 8051,
      "bles": 8052,
      "Ġ44": 8053,
      "Ġpink": 8054,
      "Ġadventure": 8055,
      "ĠHur": 8056,
      "ĠBuff": 8057,
      "mann": 8058,
      "Ġblow": 8059,
      "ĠProdu": 8060,
      "ĠShare": 8061,
      "Ġboss": 8062,
      "Ġwithd": 8063,
      "ĠSarah": 8064,
      "Ġstronger": 8065,
      "ĠBow": 8066,
      "Ġmagic": 8067,
      "Ġprotest": 8068,
      "ĠNO": 8069,
      "days": 8070,
      "Ġharder": 8071,
      "Ġraising": 8072,
      "ĠIndiana": 8073,
      "essee": 8074,
      "ĠCamer": 8075,
      "ĠPhill": 8076,
      "ĠPA": 8077,
      "Ġisol": 8078,
      "Ġalt": 8079,
      "Ġliterally": 8080,
      "Ġease": 8081,
      "Ġscheme": 8082,
      "Ġmainly": 8083,
      "Ġloans": 8084,
      "Ġdust": 8085,
      "Ġchances": 8086,
      "Ġaband": 8087,
      "ĠHistor": 8088,
      "Ġheading": 8089,
      "aper": 8090,
      "Ġtechnique": 8091,
      "Ġachieved": 8092,
      "ĠChapter": 8093,
      "Ġminister": 8094,
      "IE": 8095,
      "Ġauthent": 8096,
      "Ġindicated": 8097,
      "ĠEth": 8098,
      "Ġintention": 8099,
      "Ġcontributions": 8100,
      "ceived": 8101,
      "uous": 8102,
      "bridge": 8103,
      "cover": 8104,
      "acc": 8105,
      "ĠPut": 8106,
      "ĠTherefore": 8107,
      "Ġmerely": 8108,
      "Ġoverwhel": 8109,
      "Ġfarmers": 8110,
      "ĠGreek": 8111,
      "ĠStock": 8112,
      "Ġ1994": 8113,
      "ĠVegas": 8114,
      "Ġsamples": 8115,
      "yes": 8116,
      "87": 8117,
      "Ġdynamic": 8118,
      "Ġauto": 8119,
      "Ġadmit": 8120,
      "BM": 8121,
      "Ġsomehow": 8122,
      "Ġboards": 8123,
      "umer": 8124,
      "Ġdriven": 8125,
      "Ad": 8126,
      "ĠLas": 8127,
      "Ġ64": 8128,
      "Ġreact": 8129,
      "making": 8130,
      "incoln": 8131,
      "Ġrecipes": 8132,
      "Ġstir": 8133,
      "Ġ(\"": 8134,
      "Ġanx": 8135,
      "Ġ47": 8136,
      "ĠHart": 8137,
      "abama": 8138,
      "lock": 8139,
      "Ġbid": 8140,
      "usal": 8141,
      "Ġsentence": 8142,
      "ruption": 8143,
      "Ġrecover": 8144,
      "Ġrepresentative": 8145,
      "Ġloose": 8146,
      "ĠNBA": 8147,
      "ĠMarc": 8148,
      "Ġequival": 8149,
      "Ġcolleagues": 8150,
      "Ġbirds": 8151,
      "ĠStory": 8152,
      "Ġtired": 8153,
      "Ġscores": 8154,
      "ĠExpress": 8155,
      "Ġcollaboration": 8156,
      "Ġraw": 8157,
      "Ġtelephone": 8158,
      "ĠBad": 8159,
      "Ġtone": 8160,
      "69": 8161,
      "?)": 8162,
      "riers": 8163,
      "Ġfirms": 8164,
      "Ġborrow": 8165,
      "Ġmistake": 8166,
      "Ġretirement": 8167,
      "ĠGre": 8168,
      "Ġnarr": 8169,
      "Ġconsideration": 8170,
      "Ġfacilit": 8171,
      "Ġstrongly": 8172,
      "ĠPakistan": 8173,
      "cific": 8174,
      "Ġabsor": 8175,
      "Ġsuggestions": 8176,
      "Ġsearching": 8177,
      "Ġmemories": 8178,
      "ĠQueen": 8179,
      "haust": 8180,
      "aud": 8181,
      "Ġplane": 8182,
      "parent": 8183,
      "Ġgenerated": 8184,
      "At": 8185,
      "ĠVers": 8186,
      "ĠEU": 8187,
      "Ġheaven": 8188,
      "lements": 8189,
      "acked": 8190,
      "ART": 8191,
      "ĠNeed": 8192,
      "Ġcleaning": 8193,
      "sen": 8194,
      "Ġads": 8195,
      "Ġsmoke": 8196,
      "Ġmarks": 8197,
      "ĠPo": 8198,
      "ĠPDF": 8199,
      "oval": 8200,
      "ĠWithout": 8201,
      "ĠFA": 8202,
      "Ġcoc": 8203,
      "ocation": 8204,
      "Ġhadn": 8205,
      "ĠBrother": 8206,
      "Ġthousand": 8207,
      "Ġprovision": 8208,
      "ĠMother": 8209,
      "ĠElizabeth": 8210,
      "Ġclosing": 8211,
      "ĠPen": 8212,
      "ĠFa": 8213,
      "Ġappointed": 8214,
      "ogether": 8215,
      "Ġdestination": 8216,
      "Ġvacc": 8217,
      "Ġmatches": 8218,
      "UM": 8219,
      "Ġwarning": 8220,
      "Ġexplos": 8221,
      "ĠSem": 8222,
      "Ġcontaining": 8223,
      "ĠPhone": 8224,
      "Ġspark": 8225,
      "agra": 8226,
      "Ġreducing": 8227,
      "ĠStew": 8228,
      "ĠMatthew": 8229,
      "Ġstrict": 8230,
      "Ġtape": 8231,
      "Ġans": 8232,
      "ĠResources": 8233,
      "Ġperformances": 8234,
      "ĠLLC": 8235,
      "Ġlets": 8236,
      "ĠWebs": 8237,
      "ĠProp": 8238,
      "Ġdismiss": 8239,
      "Ġunderstood": 8240,
      "Ġrecru": 8241,
      "Ġmanaging": 8242,
      "Ġassociation": 8243,
      "Ġchampion": 8244,
      "Ġvulner": 8245,
      "Ġol": 8246,
      "Ġstupid": 8247,
      "Ġfinger": 8248,
      "Ġintense": 8249,
      "Ġlegend": 8250,
      "Ġhandling": 8251,
      "ĠSix": 8252,
      "raction": 8253,
      "Ġremem": 8254,
      "ĠMember": 8255,
      "Ġleather": 8256,
      "ĠEditor": 8257,
      "Ġly": 8258,
      "ĠIslam": 8259,
      "bow": 8260,
      "Ġvit": 8261,
      "ĠDu": 8262,
      "odge": 8263,
      "Ġpocket": 8264,
      "UD": 8265,
      "otted": 8266,
      "ĠEveryone": 8267,
      "Ġunw": 8268,
      "Ġtor": 8269,
      "inding": 8270,
      "Ġannouncement": 8271,
      "Ġguidelines": 8272,
      "Ġarrive": 8273,
      "Ġcoaches": 8274,
      "ĠSant": 8275,
      "Ġquote": 8276,
      "lers": 8277,
      "Ġstyles": 8278,
      "ĠSource": 8279,
      "More": 8280,
      "ĠKentucky": 8281,
      "ĠClin": 8282,
      "Ġextension": 8283,
      "Ġchest": 8284,
      "Ġcareful": 8285,
      "Ġwake": 8286,
      "Ġclubs": 8287,
      "Ġhidden": 8288,
      "Ġinspiration": 8289,
      "Ġqualified": 8290,
      "Ġracing": 8291,
      "Ġinitiative": 8292,
      "%.": 8293,
      "olds": 8294,
      "Ġsizes": 8295,
      "Ġmargin": 8296,
      "ĠTro": 8297,
      "opher": 8298,
      "ĠUC": 8299,
      "Ġunknown": 8300,
      "ĠForest": 8301,
      "made": 8302,
      "Ġreliable": 8303,
      "Ġindicate": 8304,
      "Ġbands": 8305,
      "Ġfewer": 8306,
      "Ġcovering": 8307,
      "ĠAnnual": 8308,
      "ighth": 8309,
      "ĠBud": 8310,
      "ĠDead": 8311,
      "Ġinnovation": 8312,
      "ĠEmer": 8313,
      "Ġlapt": 8314,
      "Ġdenied": 8315,
      "ĠBaltimore": 8316,
      "ouri": 8317,
      "Ġinch": 8318,
      "stract": 8319,
      "Ġblank": 8320,
      "Ġpenalty": 8321,
      "iac": 8322,
      "Ġkiss": 8323,
      "Ġinterviews": 8324,
      "Ġliterature": 8325,
      "Ġgallery": 8326,
      "folio": 8327,
      "ĠAttorney": 8328,
      "Ġbills": 8329,
      ".-": 8330,
      "Ġfinance": 8331,
      "uine": 8332,
      "Ġlandscape": 8333,
      "Ġgraphics": 8334,
      "Ġobserved": 8335,
      "ishop": 8336,
      "Ġnights": 8337,
      "Ġspots": 8338,
      "Ġgentle": 8339,
      "urities": 8340,
      "ĠSafety": 8341,
      "Ġsixth": 8342,
      "ĠStandard": 8343,
      "ĠAustin": 8344,
      "ĠRen": 8345,
      "ĠNumber": 8346,
      "Tube": 8347,
      "ĠLyn": 8348,
      "Ġlegit": 8349,
      "Ġresponded": 8350,
      "Ġtact": 8351,
      "Ġaffordable": 8352,
      "Ġtum": 8353,
      "rient": 8354,
      "onic": 8355,
      "osc": 8356,
      "Ġresistance": 8357,
      "Ġmoist": 8358,
      "âĢĺ": 8359,
      "PC": 8360,
      "orous": 8361,
      "ahoo": 8362,
      "ĠFer": 8363,
      "ĠAlabama": 8364,
      "ĠProm": 8365,
      "Ġexceed": 8366,
      "Ġsouthern": 8367,
      "ĠMarsh": 8368,
      "ools": 8369,
      "Ġcapabilities": 8370,
      "ĠCut": 8371,
      "ĠArticle": 8372,
      "Ġlessons": 8373,
      "Ġmerch": 8374,
      "holders": 8375,
      "gel": 8376,
      "ĠNatural": 8377,
      "ista": 8378,
      "Ġdispl": 8379,
      "ĠRef": 8380,
      "Ġregions": 8381,
      "Ġrural": 8382,
      "Ġattitude": 8383,
      "Ġasks": 8384,
      "Ġbass": 8385,
      "Ġjail": 8386,
      "Ġdisplayed": 8387,
      "Ġinstitution": 8388,
      "Ġsaving": 8389,
      "Ġrecall": 8390,
      "verty": 8391,
      "Ġvolunteer": 8392,
      "Ġ1970": 8393,
      "Ġhosted": 8394,
      "ĠCR": 8395,
      "wich": 8396,
      "Ġscan": 8397,
      "Ġlin": 8398,
      "Ġwondering": 8399,
      "Ġlighting": 8400,
      "Ġequally": 8401,
      "Ġfired": 8402,
      "ĠSS": 8403,
      "Ġproved": 8404,
      "67": 8405,
      "Ġgenerate": 8406,
      "otten": 8407,
      "Ġcomparison": 8408,
      "ĠTalk": 8409,
      "Ġru": 8410,
      "Ġarchitecture": 8411,
      "Ġbrilliant": 8412,
      "icious": 8413,
      "Ġprize": 8414,
      "ĠServer": 8415,
      "Ġlawyer": 8416,
      "Ġtrends": 8417,
      "Ġanswered": 8418,
      "Ġceremony": 8419,
      "ĠKorea": 8420,
      "Ġsections": 8421,
      "ĠGarden": 8422,
      "Ġcos": 8423,
      "FA": 8424,
      "Ġcopies": 8425,
      "ĠCorp": 8426,
      "Ġaccessible": 8427,
      "imp": 8428,
      "Ġswing": 8429,
      "Ġconsumption": 8430,
      "ĠSep": 8431,
      "Ġrice": 8432,
      "Ġriding": 8433,
      "ĠKir": 8434,
      "Ġ800": 8435,
      "Ġblogs": 8436,
      "ĠTennessee": 8437,
      "fall": 8438,
      "Ġinstruction": 8439,
      "ds": 8440,
      "zes": 8441,
      "Ġpoverty": 8442,
      "Ġclock": 8443,
      "aste": 8444,
      "Ġrequested": 8445,
      "Ġencoun": 8446,
      "ĠOs": 8447,
      "ĠBarack": 8448,
      "Ġworried": 8449,
      "iah": 8450,
      "].": 8451,
      "ĠMah": 8452,
      "Ġsubjects": 8453,
      "Ġescape": 8454,
      "ĠVice": 8455,
      "hour": 8456,
      "Ġexhibition": 8457,
      "ĠCas": 8458,
      "ĠMarketing": 8459,
      "Ġbars": 8460,
      "Ġentering": 8461,
      "Ġphenomen": 8462,
      "icking": 8463,
      "Ġconsequences": 8464,
      "ĠPur": 8465,
      "ĠBeing": 8466,
      "ĠClark": 8467,
      "ĠDefense": 8468,
      "ĠAccount": 8469,
      "Ġdecline": 8470,
      "Ġparam": 8471,
      "ĠZeal": 8472,
      "Ġconcerning": 8473,
      ".;": 8474,
      "Ġadequ": 8475,
      "unes": 8476,
      "ĠTheatre": 8477,
      "Ġdiscussions": 8478,
      "Ġclassroom": 8479,
      "Ġsurve": 8480,
      "ĠConstitution": 8481,
      "Post": 8482,
      "Ġanniversary": 8483,
      "Ġcups": 8484,
      "Ġregardless": 8485,
      "ĠCooper": 8486,
      "ĠCra": 8487,
      "ĠPH": 8488,
      "print": 8489,
      "Ġtrips": 8490,
      "Ġaver": 8491,
      "400": 8492,
      "Ġroles": 8493,
      "Ġbrothers": 8494,
      "Ġsuperior": 8495,
      "inally": 8496,
      "Ġjury": 8497,
      "ĠComment": 8498,
      "ila": 8499,
      "ĠMorgan": 8500,
      "Ġroads": 8501,
      "ĠSquare": 8502,
      "ĠEnvironmental": 8503,
      "Ġunex": 8504,
      "Ġ43": 8505,
      "ĠIsraeli": 8506,
      "eping": 8507,
      "Ġexposed": 8508,
      "ĠCapital": 8509,
      "Ġparticipating": 8510,
      "Ġsinger": 8511,
      "ĠBudd": 8512,
      "ĠSound": 8513,
      "Ġhosting": 8514,
      "ĠAnthony": 8515,
      "Ġintellectual": 8516,
      "ĠPract": 8517,
      "Ġconclusion": 8518,
      "ĠEX": 8519,
      "style": 8520,
      "ĠSelect": 8521,
      "Ġarray": 8522,
      "Ġentreprene": 8523,
      "68": 8524,
      "kel": 8525,
      "Ġchannels": 8526,
      "ĠDer": 8527,
      "Ġdisaster": 8528,
      "Ġappointment": 8529,
      "ĠLtd": 8530,
      "ĠAction": 8531,
      "Ġcomplaint": 8532,
      "Ġerrors": 8533,
      "Ġdistributed": 8534,
      "ĠAge": 8535,
      "With": 8536,
      "Ġuniform": 8537,
      "Ġ41": 8538,
      "onymous": 8539,
      "bi": 8540,
      "ĠViet": 8541,
      "unicip": 8542,
      "Ġessentially": 8543,
      "ĠNob": 8544,
      "Book": 8545,
      "ĠET": 8546,
      "Ġcrash": 8547,
      "Ġunusual": 8548,
      "ogen": 8549,
      "Ġpowder": 8550,
      "ĠOil": 8551,
      "Ġtub": 8552,
      "ĠCreek": 8553,
      "ĠFig": 8554,
      "Ġpreparation": 8555,
      "ĠDream": 8556,
      "Ġlosses": 8557,
      "ĠLincoln": 8558,
      "ĠBM": 8559,
      "Ġ1993": 8560,
      "ĠHarris": 8561,
      "Ġdeeply": 8562,
      "Ġmanagers": 8563,
      "low": 8564,
      "athered": 8565,
      "Ġgained": 8566,
      "ĠYanke": 8567,
      "ĠCredit": 8568,
      "Ġelsewhere": 8569,
      "isp": 8570,
      "ĠBuy": 8571,
      "pton": 8572,
      "Ġtort": 8573,
      "intage": 8574,
      "ĠSeason": 8575,
      "ĠSure": 8576,
      "roller": 8577,
      "Ġinner": 8578,
      "ko": 8579,
      "rell": 8580,
      "ington": 8581,
      "ĠBeck": 8582,
      "Ġinvolves": 8583,
      "Ġimprovements": 8584,
      "Ġbuff": 8585,
      "Ġextract": 8586,
      "Ġcompare": 8587,
      "Ġpig": 8588,
      "ĠMov": 8589,
      "Ġdepends": 8590,
      "Ġgonna": 8591,
      "Ġguidance": 8592,
      "leans": 8593,
      "Ġtrem": 8594,
      "Ġweird": 8595,
      "Ġactor": 8596,
      "Ġretired": 8597,
      "Ġsomebody": 8598,
      "Ġfalls": 8599,
      "Ġdrag": 8600,
      "ĠTable": 8601,
      "Ġfurniture": 8602,
      "Ġaccord": 8603,
      "ystem": 8604,
      "ĠTell": 8605,
      "Ġopens": 8606,
      "Ġsolo": 8607,
      "zing": 8608,
      "98": 8609,
      "ĠChange": 8610,
      "Ġsensitive": 8611,
      "Ġguns": 8612,
      "Ġofficially": 8613,
      "gov": 8614,
      "ĠMom": 8615,
      "isdom": 8616,
      "Ġintroduction": 8617,
      "onder": 8618,
      "overs": 8619,
      "ĠCancer": 8620,
      "ĠPsych": 8621,
      "Ġjuice": 8622,
      "âĢ¦.": 8623,
      "oosing": 8624,
      "Ġconstit": 8625,
      "Ġranked": 8626,
      "Ġpreferred": 8627,
      "stal": 8628,
      "Ġgreatly": 8629,
      "Well": 8630,
      "olt": 8631,
      "rary": 8632,
      "ĠCOM": 8633,
      "ĠHawai": 8634,
      "Ġtomat": 8635,
      "Ġfrustr": 8636,
      "Ġcircuit": 8637,
      "ĠCommon": 8638,
      "owed": 8639,
      "Ġrefused": 8640,
      "ĠNations": 8641,
      "Ġpetition": 8642,
      "Ġproducer": 8643,
      "ĠZealand": 8644,
      "Ġheavily": 8645,
      "ounce": 8646,
      "ĠBat": 8647,
      "ĠFive": 8648,
      "Ġexpenses": 8649,
      "aning": 8650,
      "Ġwinners": 8651,
      "orses": 8652,
      "Ġvisible": 8653,
      "ashes": 8654,
      "ership": 8655,
      "Ġsuitable": 8656,
      "Ġmeets": 8657,
      "Ġscream": 8658,
      "ĠPalestin": 8659,
      "PD": 8660,
      "Ġshell": 8661,
      "aret": 8662,
      "ĠCome": 8663,
      "Ġknee": 8664,
      "Ġupload": 8665,
      "clude": 8666,
      "nie": 8667,
      "Ġterrible": 8668,
      "Ġboxes": 8669,
      "lessly": 8670,
      "ĠFollowing": 8671,
      "Ġsynt": 8672,
      "ĠFilm": 8673,
      "ĠRoss": 8674,
      "Ġchairman": 8675,
      "ĠUtah": 8676,
      "Ġmood": 8677,
      "Ġargue": 8678,
      "ospitals": 8679,
      "Ġveteran": 8680,
      "giving": 8681,
      "ĠGallery": 8682,
      "Ġpill": 8683,
      "ĠMach": 8684,
      "vit": 8685,
      "Ġphotography": 8686,
      "Ġrecy": 8687,
      "Ġlady": 8688,
      "tra": 8689,
      "ĠOrleans": 8690,
      "ĠYeah": 8691,
      "Ġexists": 8692,
      "ĠOwn": 8693,
      "Ġeleg": 8694,
      "Ġdesper": 8695,
      "\")": 8696,
      "Ġsolve": 8697,
      "mers": 8698,
      "ĠLooking": 8699,
      "who": 8700,
      "Ġbaking": 8701,
      "ĠSO": 8702,
      "Ġacceler": 8703,
      "Ġconnections": 8704,
      "Ġprincipal": 8705,
      "ĠAth": 8706,
      "viously": 8707,
      "RC": 8708,
      "ĠÂ§": 8709,
      "Ġmob": 8710,
      "Ġstaying": 8711,
      "Ġdrama": 8712,
      "Ġsubstantial": 8713,
      "Ġhealthcare": 8714,
      "Ġmad": 8715,
      "jection": 8716,
      "ĠSenator": 8717,
      "ĠâĢĻ": 8718,
      "asted": 8719,
      "ĠHT": 8720,
      "Ġvessel": 8721,
      "Ġassists": 8722,
      "ĠMu": 8723,
      "ĠTreat": 8724,
      "ĠSEC": 8725,
      "ĠRegist": 8726,
      "rite": 8727,
      "ĠYouTube": 8728,
      "ĠAnton": 8729,
      "Ġcalendar": 8730,
      "ĠGary": 8731,
      "Ġforecast": 8732,
      "Ġlifestyle": 8733,
      "ogy": 8734,
      "blog": 8735,
      "cribed": 8736,
      "Ġgap": 8737,
      "ĠRub": 8738,
      "erving": 8739,
      "Ġdozen": 8740,
      "ĠShort": 8741,
      "visor": 8742,
      "Ġpilot": 8743,
      "ĠNCAA": 8744,
      "Ġocean": 8745,
      "ĠExp": 8746,
      "Ġham": 8747,
      "Ġtestim": 8748,
      "Ġphilosophy": 8749,
      "Ġliberal": 8750,
      "KE": 8751,
      "Ġreven": 8752,
      "ĠAirport": 8753,
      "Ġmaintained": 8754,
      "ĠRetrieved": 8755,
      "Ġelectricity": 8756,
      "Ġprivile": 8757,
      "Ġtraveling": 8758,
      "power": 8759,
      "Ġbone": 8760,
      "ĠMayor": 8761,
      "Ġexhaust": 8762,
      "Ġpreced": 8763,
      "Ġnorthern": 8764,
      "ĠLib": 8765,
      "ĠHim": 8766,
      "IST": 8767,
      "Ġsurvive": 8768,
      "Ġdescribes": 8769,
      "Ġupgrade": 8770,
      "PL": 8771,
      "esy": 8772,
      "izon": 8773,
      "Ġwhenever": 8774,
      "Ġgovernor": 8775,
      "Ġlogo": 8776,
      "ĠAve": 8777,
      "Ġdesired": 8778,
      "Ġcontracts": 8779,
      "ulum": 8780,
      "Ġthrew": 8781,
      "Ġyard": 8782,
      "ĠHold": 8783,
      "Ġacknowled": 8784,
      "Ġhip": 8785,
      "Ġ1992": 8786,
      "ardens": 8787,
      "ĠBand": 8788,
      "ĠSeveral": 8789,
      "Ġtasks": 8790,
      "Ġelectron": 8791,
      "ĠSM": 8792,
      "Ġchecked": 8793,
      "Ġrib": 8794,
      "Ġspell": 8795,
      "Star": 8796,
      "Ġinstant": 8797,
      "ĠPrime": 8798,
      "ĠRegional": 8799,
      "Ġje": 8800,
      "ĠOfficer": 8801,
      "ĠAvailable": 8802,
      "ceeds": 8803,
      "Ġcomprom": 8804,
      "Ġuniverse": 8805,
      "Sp": 8806,
      "this": 8807,
      "Ġweapon": 8808,
      "Ġdreams": 8809,
      "looking": 8810,
      "Ġhyper": 8811,
      "ĠPict": 8812,
      "Ġjewel": 8813,
      "Ġinitially": 8814,
      "Ġcriteria": 8815,
      "jo": 8816,
      "Ġundert": 8817,
      "Ġprime": 8818,
      "Ġhotels": 8819,
      "ĠSwed": 8820,
      "Ġluxury": 8821,
      "words": 8822,
      "Ġattractive": 8823,
      "HT": 8824,
      "uters": 8825,
      "Ġagenda": 8826,
      "rets": 8827,
      "Ġstored": 8828,
      "ĠPublished": 8829,
      "Ġnomin": 8830,
      "mod": 8831,
      "Ġrebounds": 8832,
      "Ġdiseases": 8833,
      "Ġassigned": 8834,
      "Ġpersonality": 8835,
      "cludes": 8836,
      "Ġstructures": 8837,
      "Ġmeals": 8838,
      "Ġchildhood": 8839,
      "orgeous": 8840,
      "pport": 8841,
      "Ġobst": 8842,
      "itionally": 8843,
      "ĠMotor": 8844,
      "ĠCou": 8845,
      "Ġvisits": 8846,
      "Ġacquis": 8847,
      "Ġthy": 8848,
      "ĠStation": 8849,
      "ĠBarn": 8850,
      "Ġuncom": 8851,
      "Ġdeclared": 8852,
      "ieties": 8853,
      "Ġloving": 8854,
      "acular": 8855,
      "ĠGil": 8856,
      "ĠAtlantic": 8857,
      "Ġtheater": 8858,
      "Ġwaters": 8859,
      "Ġpitc": 8860,
      "Ġpod": 8861,
      "icity": 8862,
      "after": 8863,
      "ja": 8864,
      "Ġaddressed": 8865,
      "ĠStudy": 8866,
      "chers": 8867,
      "je": 8868,
      "ĠTrade": 8869,
      "isd": 8870,
      "Ġrequirement": 8871,
      "Ġpushing": 8872,
      "Ġsuffer": 8873,
      "ĠBooks": 8874,
      "Ġstake": 8875,
      "IDS": 8876,
      "Ġestimates": 8877,
      "Ġgene": 8878,
      "ĠDenver": 8879,
      "Ġphotographs": 8880,
      "Ġdrives": 8881,
      "Ġelectrical": 8882,
      "ĠDor": 8883,
      "Ġpackages": 8884,
      "Ġtalented": 8885,
      "Ġequivalent": 8886,
      "Ġmortgage": 8887,
      "Ġdramatic": 8888,
      "Ġshops": 8889,
      "Ġspaces": 8890,
      "Ġcontributed": 8891,
      "Ġreprodu": 8892,
      "ĠAndy": 8893,
      "Ġlesson": 8894,
      "ĠName": 8895,
      ")||": 8896,
      "Ġrarely": 8897,
      "Ġmanufacturer": 8898,
      "Ġmanufacturers": 8899,
      "Ġshirt": 8900,
      "ITY": 8901,
      "Ġattending": 8902,
      "Ne": 8903,
      "ĠSony": 8904,
      "ĠMichel": 8905,
      "Ġ`": 8906,
      "ĠTR": 8907,
      "ĠReturn": 8908,
      "ĠDNA": 8909,
      "ĠHills": 8910,
      "Ġsecondary": 8911,
      "ĠKingdom": 8912,
      "Ġsinging": 8913,
      "mo": 8914,
      "Ġoccurs": 8915,
      "Not": 8916,
      "Ġinfection": 8917,
      "Ġcomic": 8918,
      "Ġoutcome": 8919,
      "Ġwash": 8920,
      "...]": 8921,
      "Ġstable": 8922,
      "Ġdemands": 8923,
      "Ġgenuine": 8924,
      "Ġcasual": 8925,
      "QL": 8926,
      "ĠALL": 8927,
      "books": 8928,
      "ĠEmail": 8929,
      "Ġzero": 8930,
      "Ġreaching": 8931,
      "icut": 8932,
      "veland": 8933,
      "Ġinteract": 8934,
      "ĠChampionship": 8935,
      "Ġinteractive": 8936,
      "ĠIndepend": 8937,
      "Do": 8938,
      "Ġinning": 8939,
      "Ġenjoying": 8940,
      "Ġshock": 8941,
      "Ġincredibly": 8942,
      "uten": 8943,
      "Ġstatistics": 8944,
      "ĠMap": 8945,
      "ĠMethod": 8946,
      "Ġblame": 8947,
      "phones": 8948,
      "Ġlibr": 8949,
      "Ġviewing": 8950,
      "Ġnose": 8951,
      "Ġdistingu": 8952,
      "ĠFL": 8953,
      "Ġcameras": 8954,
      "Ġstom": 8955,
      "Ġorange": 8956,
      "Ġwestern": 8957,
      "itis": 8958,
      "ĠBloom": 8959,
      "Ġrapidly": 8960,
      "Ġraces": 8961,
      "Ġinsight": 8962,
      "ĠEdward": 8963,
      "Ġconsists": 8964,
      "mate": 8965,
      "Ġhide": 8966,
      "aver": 8967,
      "Ġrental": 8968,
      "ĠFIG": 8969,
      "Ġrespectively": 8970,
      "ĠKennedy": 8971,
      "ĠMissouri": 8972,
      "ĠAst": 8973,
      "ulpt": 8974,
      "fits": 8975,
      "Ġspokesman": 8976,
      "ĠDur": 8977,
      "ami": 8978,
      "Ġsquad": 8979,
      "ĠGovernor": 8980,
      "nce": 8981,
      "ĠJean": 8982,
      "Ġbedroom": 8983,
      "ĠType": 8984,
      "ĠJane": 8985,
      "dri": 8986,
      "Ġ]": 8987,
      "ĠJess": 8988,
      "char": 8989,
      "una": 8990,
      "ĠEnjoy": 8991,
      "Ġsuck": 8992,
      "rowse": 8993,
      "ĠRos": 8994,
      "Ġ52": 8995,
      "ĠAmend": 8996,
      "ĠRh": 8997,
      "ĠEve": 8998,
      "61": 8999,
      "Ġoverse": 9000,
      "Ġupset": 9001,
      "EG": 9002,
      "vas": 9003,
      "ĠVen": 9004,
      "Ġpreparing": 9005,
      "ĠHi": 9006,
      "Ġcelebration": 9007,
      "Ġimpressed": 9008,
      "town": 9009,
      "ĠConvention": 9010,
      "ORE": 9011,
      "Ġmanual": 9012,
      "ĠUSB": 9013,
      "bits": 9014,
      "Ġdisag": 9015,
      "ĠArk": 9016,
      "market": 9017,
      "ĠInterest": 9018,
      "Ġfiction": 9019,
      "ĠEngineering": 9020,
      "Ġmuscle": 9021,
      "Ġrepresentatives": 9022,
      "wan": 9023,
      "ĠIce": 9024,
      "secutive": 9025,
      "sex": 9026,
      "ĠBureau": 9027,
      "Ġreleases": 9028,
      "Ġtoler": 9029,
      "ĠLes": 9030,
      "Ġprogramme": 9031,
      "world": 9032,
      "Ġcompat": 9033,
      "ologists": 9034,
      "Ġvent": 9035,
      "ĠCollection": 9036,
      "ĠChristians": 9037,
      "ĠSciences": 9038,
      "ĠPersonal": 9039,
      "Ġspeaker": 9040,
      "istent": 9041,
      "awa": 9042,
      "72": 9043,
      "SC": 9044,
      "ICE": 9045,
      "hyth": 9046,
      "Ġbathroom": 9047,
      "Ġdestroyed": 9048,
      "Ġpossession": 9049,
      "rine": 9050,
      "Ġouts": 9051,
      "ayer": 9052,
      "eling": 9053,
      "Ġprovisions": 9054,
      "atellite": 9055,
      "Ġemployed": 9056,
      "Ġfingers": 9057,
      "Ġnobody": 9058,
      "core": 9059,
      "Ġtill": 9060,
      "ĠChampions": 9061,
      "Ġbarely": 9062,
      "Ġhardly": 9063,
      "Ġwise": 9064,
      "vals": 9065,
      "olen": 9066,
      "Ġcookies": 9067,
      "ĠHP": 9068,
      "bered": 9069,
      "Ġaccessories": 9070,
      "udes": 9071,
      "Ġokay": 9072,
      "ĠThird": 9073,
      "Ġconscious": 9074,
      "Ġneighb": 9075,
      "UC": 9076,
      "Ġlens": 9077,
      "ĠGene": 9078,
      "Ġgang": 9079,
      "ĠSales": 9080,
      "ĠDom": 9081,
      "Ġclim": 9082,
      "Ġcrucial": 9083,
      "Ġacquired": 9084,
      "ĠURL": 9085,
      "Ġwanting": 9086,
      "ĠProtection": 9087,
      "ĠBed": 9088,
      "ĠBreak": 9089,
      "Ġtissue": 9090,
      "called": 9091,
      "Ġenterprise": 9092,
      "kee": 9093,
      "inking": 9094,
      "hire": 9095,
      "ĠMade": 9096,
      "ishment": 9097,
      "........": 9098,
      "ighters": 9099,
      "Ġbuck": 9100,
      "pled": 9101,
      "ĠToy": 9102,
      "Ġcomedy": 9103,
      "ĠLeon": 9104,
      "Ġdiabetes": 9105,
      "Ġfranchise": 9106,
      "Ġdrove": 9107,
      "Ġtemporary": 9108,
      "ropri": 9109,
      "ĠLiving": 9110,
      "ĠOx": 9111,
      "Ġprayer": 9112,
      "ĠBeaut": 9113,
      "ĠPitts": 9114,
      "Ġski": 9115,
      "iate": 9116,
      "ĠCleveland": 9117,
      "Ġspeakers": 9118,
      "Ġpregnant": 9119,
      "ez": 9120,
      "oli": 9121,
      "Ġresort": 9122,
      "Ġfounder": 9123,
      "Ġdeploy": 9124,
      "ĠCoach": 9125,
      "rection": 9126,
      "ĠContent": 9127,
      "cut": 9128,
      "Ġpacked": 9129,
      "ĠWhit": 9130,
      "Ġstudied": 9131,
      "ipt": 9132,
      "imize": 9133,
      "criptions": 9134,
      "UST": 9135,
      "Ġminds": 9136,
      "Ġcatalog": 9137,
      "Ġgig": 9138,
      "Ġmolec": 9139,
      "Ġexplo": 9140,
      "ĠGrant": 9141,
      "era": 9142,
      "Ġcul": 9143,
      "Ġapplicable": 9144,
      "ĠJustin": 9145,
      "Ġbranch": 9146,
      "Ġstruggling": 9147,
      "ĠIndex": 9148,
      "Ġnaturally": 9149,
      "Ġteeth": 9150,
      "Ġdough": 9151,
      "ols": 9152,
      "gie": 9153,
      "Ġhal": 9154,
      "Ġcompe": 9155,
      "Ġgrounds": 9156,
      "Ġenthusi": 9157,
      "Ġevaluation": 9158,
      "erk": 9159,
      "papers": 9160,
      "ĠBridge": 9161,
      "Ġbreaks": 9162,
      "Ġcircle": 9163,
      "Ġutility": 9164,
      "ĠGive": 9165,
      "Ġresulted": 9166,
      "ĠPartners": 9167,
      "ĠSusan": 9168,
      "tery": 9169,
      "ĠShop": 9170,
      "ĠNothing": 9171,
      "Ġ250": 9172,
      "week": 9173,
      "Ġ2014": 9174,
      "igious": 9175,
      "orse": 9176,
      "Ġgate": 9177,
      "Ġreviewed": 9178,
      "Ġdefeat": 9179,
      "html": 9180,
      "73": 9181,
      "Ġpul": 9182,
      "%,": 9183,
      "Ġmyth": 9184,
      "Ġcolon": 9185,
      "ĠBruce": 9186,
      "ĠLaur": 9187,
      "ĠPers": 9188,
      "Ġcontribution": 9189,
      "ĠMoon": 9190,
      "ĠChallen": 9191,
      "ĠFlash": 9192,
      "ĠMcK": 9193,
      "ĠPortland": 9194,
      "ĠDeath": 9195,
      "Ġexplanation": 9196,
      "Man": 9197,
      "Ġattach": 9198,
      "Ġchecking": 9199,
      "Ġedited": 9200,
      "Ġ''": 9201,
      "Ġcommonly": 9202,
      "Ġalleg": 9203,
      "HS": 9204,
      "ounding": 9205,
      "Ġtransmission": 9206,
      "Ġvirtually": 9207,
      "Ġexpanded": 9208,
      "ĠClassic": 9209,
      "âĢĻ.": 9210,
      "ĠKids": 9211,
      "quarters": 9212,
      "Ġentries": 9213,
      "Ġhopefully": 9214,
      "Ġsigning": 9215,
      "enter": 9216,
      "elve": 9217,
      "ĠDick": 9218,
      "Ġtries": 9219,
      "ĠPrince": 9220,
      "Ġcompliance": 9221,
      "ĠConnecticut": 9222,
      "Ġmaintaining": 9223,
      "etch": 9224,
      "Ġfitness": 9225,
      "Ġballs": 9226,
      "Ġsed": 9227,
      "Ġconsecutive": 9228,
      "ĠEN": 9229,
      "Ġregime": 9230,
      "attan": 9231,
      "Ġkit": 9232,
      "Ġtaxpay": 9233,
      "Ġloy": 9234,
      "Ġscope": 9235,
      "Ġvirus": 9236,
      "Ġdrinks": 9237,
      "Ġdivided": 9238,
      "ĠRome": 9239,
      "ĠThings": 9240,
      "Ġprinciple": 9241,
      "Ġvegetables": 9242,
      "Ġlanguages": 9243,
      "Ġbeef": 9244,
      "Ġcommunicate": 9245,
      "Ġcrimes": 9246,
      "Ġintegration": 9247,
      "63": 9248,
      "Ġ99": 9249,
      "Ġemerging": 9250,
      "ĠRecords": 9251,
      "Ġreply": 9252,
      "Ġapproaches": 9253,
      "Ġfur": 9254,
      "ĠNavy": 9255,
      "friendly": 9256,
      "apolis": 9257,
      "ĠTransport": 9258,
      "Qu": 9259,
      "Ġseeds": 9260,
      "ĠStewart": 9261,
      "Ġarmed": 9262,
      "unate": 9263,
      "Ġscar": 9264,
      "Ġviagra": 9265,
      "Ġanybody": 9266,
      "ricts": 9267,
      "Ġaccuracy": 9268,
      "oenix": 9269,
      "Ġtremend": 9270,
      "acter": 9271,
      "ĠWebsite": 9272,
      "ĠSend": 9273,
      "pending": 9274,
      "inals": 9275,
      "Ġcompensation": 9276,
      "Ġsupporters": 9277,
      "race": 9278,
      "84": 9279,
      "BN": 9280,
      "Ġlobby": 9281,
      "gged": 9282,
      "amsung": 9283,
      "ĠHad": 9284,
      "Ġdemocracy": 9285,
      "don": 9286,
[...]
