<unk>	0
<pad>	0
<0x00>	0
<0x01>	0
<0x02>	0
<0x03>	0
<0x04>	0
<0x05>	0
<0x06>	0
<0x07>	0
<0x08>	0
<0x09>	0
<0x0A>	0
<0x0B>	0
<0x0C>	0
<0x0D>	0
<0x0E>	0
<0x0F>	0
<0x10>	0
<0x11>	0
<0x12>	0
<0x13>	0
<0x14>	0
<0x15>	0
<0x16>	0
<0x17>	0
<0x18>	0
<0x19>	0
<0x1A>	0
<0x1B>	0
<0x1C>	0
<0x1D>	0
<0x1E>	0
<0x1F>	0
<0x20>	0
<0x21>	0
<0x22>	0
<0x23>	0
<0x24>	0
<0x25>	0
<0x26>	0
<0x27>	0
<0x28>	0
<0x29>	0
<0x2A>	0
<0x2B>	0
<0x2C>	0
<0x2D>	0
<0x2E>	0
<0x2F>	0
<0x30>	0
<0x31>	0
<0x32>	0
<0x33>	0
<0x34>	0
<0x35>	0
<0x36>	0
<0x37>	0
<0x38>	0
<0x39>	0
<0x3A>	0
<0x3B>	0
<0x3C>	0
<0x3D>	0
<0x3E>	0
<0x3F>	0
<0x40>	0
<0x41>	0
<0x42>	0
<0x43>	0
<0x44>	0
<0x45>	0
<0x46>	0
<0x47>	0
<0x48>	0
<0x49>	0
<0x4A>	0
<0x4B>	0
<0x4C>	0
<0x4D>	0
<0x4E>	0
<0x4F>	0
<0x50>	0
<0x51>	0
<0x52>	0
<0x53>	0
<0x54>	0
<0x55>	0
<0x56>	0
<0x57>	0
<0x58>	0
<0x59>	0
<0x5A>	0
<0x5B>	0
<0x5C>	0
<0x5D>	0
<0x5E>	0
<0x5F>	0
<0x60>	0
<0x61>	0
<0x62>	0
<0x63>	0
<0x64>	0
<0x65>	0
<0x66>	0
<0x67>	0
<0x68>	0
<0x69>	0
<0x6A>	0
<0x6B>	0
<0x6C>	0
<0x6D>	0
<0x6E>	0
<0x6F>	0
<0x70>	0
<0x71>	0
<0x72>	0
<0x73>	0
<0x74>	0
<0x75>	0
<0x76>	0
<0x77>	0
<0x78>	0
<0x79>	0
<0x7A>	0
<0x7B>	0
<0x7C>	0
<0x7D>	0
<0x7E>	0
<0x7F>	0
<0x80>	0
<0x81>	0
<0x82>	0
<0x83>	0
<0x84>	0
<0x85>	0
<0x86>	0
<0x87>	0
<0x88>	0
<0x89>	0
<0x8A>	0
<0x8B>	0
<0x8C>	0
<0x8D>	0
<0x8E>	0
<0x8F>	0
<0x90>	0
<0x91>	0
<0x92>	0
<0x93>	0
<0x94>	0
<0x95>	0
<0x96>	0
<0x97>	0
<0x98>	0
<0x99>	0
<0x9A>	0
<0x9B>	0
<0x9C>	0
<0x9D>	0
<0x9E>	0
<0x9F>	0
<0xA0>	0
<0xA1>	0
<0xA2>	0
<0xA3>	0
<0xA4>	0
<0xA5>	0
<0xA6>	0
<0xA7>	0
<0xA8>	0
<0xA9>	0
<0xAA>	0
<0xAB>	0
<0xAC>	0
<0xAD>	0
<0xAE>	0
<0xAF>	0
<0xB0>	0
<0xB1>	0
<0xB2>	0
<0xB3>	0
<0xB4>	0
<0xB5>	0
<0xB6>	0
<0xB7>	0
<0xB8>	0
<0xB9>	0
<0xBA>	0
<0xBB>	0
<0xBC>	0
<0xBD>	0
<0xBE>	0
<0xBF>	0
<0xC0>	0
<0xC1>	0
<0xC2>	0
<0xC3>	0
<0xC4>	0
<0xC5>	0
<0xC6>	0
<0xC7>	0
<0xC8>	0
<0xC9>	0
<0xCA>	0
<0xCB>	0
<0xCC>	0
<0xCD>	0
<0xCE>	0
<0xCF>	0
<0xD0>	0
<0xD1>	0
<0xD2>	0
<0xD3>	0
<0xD4>	0
<0xD5>	0
<0xD6>	0
<0xD7>	0
<0xD8>	0
<0xD9>	0
<0xDA>	0
<0xDB>	0
<0xDC>	0
<0xDD>	0
<0xDE>	0
<0xDF>	0
<0xE0>	0
<0xE1>	0
<0xE2>	0
<0xE3>	0
<0xE4>	0
<0xE5>	0
<0xE6>	0
<0xE7>	0
<0xE8>	0
<0xE9>	0
<0xEA>	0
<0xEB>	0
<0xEC>	0
<0xED>	0
<0xEE>	0
<0xEF>	0
<0xF0>	0
<0xF1>	0
<0xF2>	0
<0xF3>	0
<0xF4>	0
<0xF5>	0
<0xF6>	0
<0xF7>	0
<0xF8>	0
<0xF9>	0
<0xFA>	0
<0xFB>	0
<0xFC>	0
<0xFD>	0
<0xFE>	0
<0xFF>	0
▁t	-0
▁a	-1
in	-2
he	-3
re	-4
on	-5
er	-6
▁the	-7
▁s	-8
▁w	-9
or	-10
at	-11
nd	-12
ou	-13
▁c	-14
it	-15
es	-16
▁f	-17
is	-18
en	-19
▁b	-20
ing	-21
▁p	-22
▁o	-23
ed	-24
an	-25
ar	-26
al	-27
▁to	-28
▁m	-29
▁and	-30
▁in	-31
▁of	-32
ic	-33
le	-34
▁d	-35
as	-36
▁h	-37
om	-38
ion	-39
▁th	-40
il	-41
▁T	-42
▁S	-43
▁l	-44
ent	-45
▁I	-46
st	-47
ve	-48
ro	-49
▁re	-50
▁n	-51
▁A	-52
▁e	-53
▁g	-54
▁C	-55
▁y	-56
et	-57
ac	-58
ay	-59
id	-60
ly	-61
ot	-62
▁on	-63
▁for	-64
▁be	-65
▁is	-66
▁M	-67
ow	-68
am	-69
ol	-70
▁you	-71
ad	-72
ig	-73
el	-74
ct	-75
▁P	-76
us	-77
ut	-78
ver	-79
im	-80
▁B	-81
ith	-82
▁st	-83
ation	-84
ur	-85
▁W	-86
▁that	-87
ir	-88
▁with	-89
▁The	-90
ch	-91
▁he	-92
▁it	-93
▁D	-94
ter	-95
▁F	-96
▁H	-97
ce	-98
ill	-99
un	-100
▁R	-101
▁an	-102
▁1	-103
ers	-104
out	-105
▁al	-106
▁2	-107
ul	-108
ke	-109
▁wh	-110
se	-111
▁as	-112
▁at	-113
oo	-114
ag	-115
▁L	-116
▁we	-117
▁pro	-118
▁N	-119
▁ha	-120
if	-121
▁are	-122
our	-123
▁-	-124
ate	-125
pp	-126
her	-127
ri	-128
ore	-129
ew	-130
igh	-131
em	-132
▁G	-133
▁con	-134
▁com	-135
est	-136
ra	-137
▁(	-138
▁or	-139
ld	-140
▁se	-141
▁E	-142
rom	-143
ess	-144
▁O	-145
ts	-146
ab	-147
th	-148
op	-149
▁was	-150
um	-151
▁r	-152
res	-153
▁v	-154
ist	-155
ity	-156
▁this	-157
▁from	-158
ment	-159
ive	-160
▁J	-161
qu	-162
▁have	-163
▁ex	-164
00	-165
ust	-166
▁by	-167
oc	-168
..	-169
pe	-170
▁sh	-171
▁de	-172
up	-173
and	-174
art	-175
os	-176
all	-177
ies	-178
ain	-179
ard	-180
ear	-181
▁ch	-182
▁your	-183
▁will	-184
ort	-185
ud	-186
▁not	-187
ant	-188
ight	-189
nt	-190
ost	-191
ast	-192
▁su	-193
ome	-194
▁le	-195
▁us	-196
▁can	-197
ack	-198
▁pl	-199
red	-200
▁ab	-201
ould	-202
▁"	-203
gh	-204
▁U	-205
▁j	-206
ell	-207
iv	-208
ge	-209
te	-210
rou	-211
▁wor	-212
ak	-213
ine	-214
▁has	-215
ide	-216
▁Th	-217
▁all	-218
ial	-219
ice	-220
od	-221
▁sa	-222
og	-223
▁k	-224
▁In	-225
▁but	-226
ook	-227
ff	-228
ure	-229
▁ad	-230
▁out	-231
▁ne	-232
▁up	-233
▁do	-234
ip	-235
01	-236
▁St	-237
ally	-238
age	-239
ry	-240
▁K	-241
ions	-242
ap	-243
▁me	-244
are	-245
one	-246
▁whe	-247
ail	-248
ame	-249
ake	-250
▁comp	-251
▁more	-252
ite	-253
ber	-254
ind	-255
ther	-256
ich	-257
▁Y	-258
ood	-259
act	-260
ie	-261
ated	-262
▁V	-263
▁so	-264
able	-265
ong	-266
▁my	-267
ect	-268
ick	-269
ep	-270
ime	-271
orm	-272
▁cl	-273
cc	-274
▁their	-275
▁one	-276
▁his	-277
very	-278
▁they	-279
ike	-280
▁about	-281
▁off	-282
▁“	-283
▁en	-284
ans	-285
iz	-286
ub	-287
▁3	-288
▁te	-289
ase	-290
▁who	-291
ll	-292
ous	-293
▁cont	-294
▁Ch	-295
ia	-296
cl	-297
so	-298
▁year	-299
ks	-300
▁our	-301
▁201	-302
▁go	-303
ue	-304
ire	-305
ace	-306
ary	-307
▁un	-308
pl	-309
▁new	-310
▁said	-311
du	-312
ree	-313
per	-314
day	-315
ign	-316
ach	-317
ass	-318
und	-319
ays	-320
erv	-321
▁man	-322
▁im	-323
▁per	-324
ance	-325
▁res	-326
ib	-327
▁tr	-328
reat	-329
ord	-330
▁It	-331
pt	-332
ile	-333
ven	-334
own	-335
▁app	-336
form	-337
ents	-338
▁qu	-339
to	-340
▁sp	-341
ove	-342
ations	-343
▁like	-344
▁get	-345
ark	-346
▁We	-347
ount	-348
▁other	-349
▁which	-350
▁He	-351
▁any	-352
▁ag	-353
▁some	-354
▁been	-355
...	-356
av	-357
ings	-358
▁also	-359
▁time	-360
▁over	-361
ress	-362
ction	-363
▁sc	-364
ond	-365
▁rec	-366
mer	-367
▁dis	-368
▁ar	-369
ors	-370
ound	-371
irst	-372
ical	-373
▁kn	-374
▁work	-375
vel	-376
▁just	-377
ough	-378
▁would	-379
ition	-380
ob	-381
▁Re	-382
▁had	-383
ren	-384
▁when	-385
▁This	-386
ose	-387
ult	-388
ck	-389
▁them	-390
ink	-391
▁her	-392
ild	-393
▁pe	-394
▁than	-395
▁ro	-396
low	-397
▁4	-398
vers	-399
▁were	-400
▁tw	-401
ence	-402
wn	-403
ens	-404
▁part	-405
ru	-406
▁|	-407
fter	-408
ish	-409
▁its	-410
fe	-411
▁what	-412
ory	-413
oy	-414
▁there	-415
▁fe	-416
oin	-417
ov	-418
▁if	-419
▁pre	-420
com	-421
▁spe	-422
▁first	-423
ning	-424
ool	-425
▁5	-426
▁acc	-427
ade	-428
clud	-429
lic	-430
itt	-431
old	-432
▁pr	-433
amp	-434
▁200	-435
▁into	-436
use	-437
hed	-438
ang	-439
▁am	-440
end	-441
ater	-442
ons	-443
ne	-444
▁add	-445
iew	-446
rough	-447
ople	-448
ian	-449
port	-450
▁bl	-451
▁Wh	-452
▁need	-453
gr	-454
▁two	-455
ft	-456
▁includ	-457
anc	-458
▁play	-459
▁$	-460
▁des	-461
ates	-462
▁how	-463
▁look	-464
▁19	-465
▁she	-466
lp	-467
tern	-468
▁no	-469
▁comm	-470
▁back	-471
ict	-472
▁people	-473
▁only	-474
▁col	-475
les	-476
▁bec	-477
iss	-478
▁know	-479
▁after	-480
▁make	-481
▁As	-482
als	-483
▁may	-484
▁help	-485
ph	-486
ious	-487
round	-488
▁see	-489
xt	-490
▁You	-491
▁New	-492
▁em	-493
▁prov	-494
▁Un	-495
we	-496
▁ph	-497
▁Com	-498
▁An	-499
hing	-500
ful	-501
▁through	-502
▁most	-503
rent	-504
▁6	-505
▁every	-506
ont	-507
aw	-508
▁serv	-509
▁produ	-510
ause	-511
ock	-512
▁If	-513
▁bet	-514
urn	-515
lect	-516
row	-517
ting	-518
ational	-519
▁co	-520
▁wee	-521
▁use	-522
▁well	-523
ities	-524
▁De	-525
▁bu	-526
▁years	-527
▁und	-528
▁act	-529
ating	-530
ual	-531
formation	-532
▁now	-533
ments	-534
ise	-535
▁stud	-536
▁And	-537
ices	-538
▁fl	-539
ject	-540
▁good	-541
▁&	-542
ily	-543
▁ind	-544
oun	-545
▁want	-546
▁Pro	-547
ife	-548
▁gu	-549
).	-550
chool	-551
bs	-552
▁For	-553
▁could	-554
▁supp	-555
vent	-556
▁sec	-557
▁don	-558
ason	-559
."	-560
cial	-561
ased	-562
enc	-563
▁fin	-564
fore	-565
▁under	-566
ics	-567
▁Sh	-568
▁these	-569
▁7	-570
ork	-571
ward	-572
oth	-573
hen	-574
ident	-575
▁cons	-576
ures	-577
▁Al	-578
▁very	-579
pect	-580
▁show	-581
▁here	-582
uch	-583
aking	-584
▁reg	-585
▁great	-586
ty	-587
arch	-588
man	-589
rib	-590
▁ke	-591
get	-592
▁last	-593
▁10	-594
lease	-595
iness	-596
ull	-597
▁8	-598
▁way	-599
▁sm	-600
▁Cl	-601
▁many	-602
▁down	-603
▁Se	-604
▁even	-605
rit	-606
yst	-607
▁did	-608
oss	-609
▁–	-610
ix	-611
uring	-612
▁rem	-613
▁ent	-614
▁information	-615
ited	-616
▁tra	-617
erson	-618
hes	-619
gram	-620
▁too	-621
ange	-622
▁then	-623
olog	-624
ific	-625
,"	-626
ert	-627
▁own	-628
ath	-629
its	-630
ied	-631
pr	-632
ner	-633
ble	-634
▁where	-635
▁mon	-636
ues	-637
io	-638
▁But	-639
▁think	-640
air	-641
▁him	-642
▁should	-643
hip	-644
▁again	-645
▁imp	-646
other	-647
▁inc	-648
▁day	-649
▁min	-650
▁inv	-651
▁loc	-652
||	-653
▁read	-654
any	-655
▁rel	-656
▁set	-657
▁find	-658
▁bus	-659
▁call	-660
▁high	-661
▁ass	-662
ible	-663
),	-664
▁av	-665
▁start	-666
▁much	-667
ility	-668
▁team	-669
ars	-670
velop	-671
▁dif	-672
▁made	-673
ton	-674
▁Ar	-675
ys	-676
▁Be	-677
alth	-678
▁because	-679
ublic	-680
▁att	-681
ug	-682
▁9	-683
ivers	-684
elf	-685
▁br	-686
▁Ad	-687
▁mem	-688
gan	-689
ank	-690
▁che	-691
ex	-692
▁pol	-693
ience	-694
land	-695
▁ac	-696
▁before	-697
▁fam	-698
atch	-699
▁inst	-700
ax	-701
ollow	-702
ular	-703
▁take	-704
▁exper	-705
▁post	-706
ystem	-707
▁long	-708
▁pres	-709
▁dec	-710
▁home	-711
rest	-712
pen	-713
ative	-714
view	-715
omet	-716
ets	-717
cess	-718
▁Le	-719
way	-720
▁2012	-721
az	-722
ters	-723
▁end	-724
▁art	-725
▁All	-726
irect	-727
alk	-728
ins	-729
line	-730
▁does	-731
ms	-732
ince	-733
▁best	-734
▁run	-735
ave	-736
▁sur	-737
▁right	-738
ng	-739
▁those	-740
meric	-741
.”	-742
read	-743
ener	-744
▁car	-745
iel	-746
riend	-747
ower	-748
▁i	-749
ah	-750
▁world	-751
ash	-752
▁Fr	-753
▁game	-754
▁program	-755
▁three	-756
▁rep	-757
▁lead	-758
▁while	-759
▁being	-760
ces	-761
▁0	-762
ced	-763
ouse	-764
▁inte	-765
au	-766
▁bo	-767
▁ra	-768
▁vis	-769
ames	-770
▁ed	-771
▁ear	-772
▁ins	-773
▁On	-774
ier	-775
▁ret	-776
▁design	-777
ric	-778
▁eff	-779
orts	-780
▁really	-781
▁cre	-782
▁Bl	-783
ale	-784
ather	-785
oint	-786
▁such	-787
▁char	-788
000	-789
unity	-790
akes	-791
roup	-792
▁hand	-793
▁ser	-794
ailable	-795
imes	-796
▁product	-797
The	-798
▁business	-799
chn	-800
ros	-801
▁disc	-802
▁gr	-803
▁Americ	-804
▁going	-805
-1	-806
ered	-807
▁around	-808
ages	-809
▁each	-810
ives	-811
▁requ	-812
riv	-813
▁say	-814
▁cur	-815
▁develop	-816
▁Col	-817
▁top	-818
▁follow	-819
▁So	-820
▁mark	-821
▁med	-822
▁used	-823
▁person	-824
ple	-825
▁still	-826
ually	-827
ittle	-828
▁cour	-829
▁count	-830
ient	-831
▁month	-832
,”	-833
▁week	-834
orn	-835
der	-836
▁Sc	-837
▁win	-838
▁found	-839
uc	-840
▁book	-841
▁sim	-842
oot	-843
▁provid	-844
oh	-845
led	-846
▁though	-847
▁state	-848
▁num	-849
▁child	-850
▁12	-851
oad	-852
▁diffe	-853
ute	-854
▁mod	-855
▁free	-856
▁care	-857
▁2013	-858
cent	-859
els	-860
ants	-861
▁inter	-862
▁school	-863
ional	-864
▁system	-865
▁Pl	-866
▁sub	-867
ene	-868
▁love	-869
▁available	-870
ines	-871
ement	-872
▁life	-873
▁There	-874
▁comple	-875
▁Ph	-876
ize	-877
▁det	-878
▁To	-879
▁list	-880
▁somet	-881
ights	-882
arm	-883
bers	-884
ists	-885
▁sk	-886
▁both	-887
▁They	-888
-2	-889
▁fr	-890
atur	-891
▁sign	-892
▁fil	-893
▁few	-894
iet	-895
▁open	-896
▁str	-897
illion	-898
▁eas	-899
ustom	-900
▁Sp	-901
ield	-902
ott	-903
▁second	-904
▁support	-905
iversity	-906
▁trans	-907
▁Q	-908
▁How	-909
▁little	-910
ished	-911
▁fun	-912
▁rece	-913
▁Ex	-914
▁May	-915
▁Te	-916
▁'	-917
ital	-918
rand	-919
▁same	-920
ness	-921
▁next	-922
▁She	-923
▁including	-924
▁aut	-925
ww	-926
ired	-927
reen	-928
son	-929
▁Or	-930
▁At	-931
▁real	-932
▁friend	-933
ger	-934
▁gl	-935
▁lot	-936
▁place	-937
ology	-938
▁11	-939
▁feat	-940
ween	-941
▁happ	-942
▁during	-943
▁lar	-944
▁season	-945
att	-946
▁ev	-947
▁>	-948
▁Cent	-949
▁def	-950
ik	-951
,000	-952
ways	-953
▁keep	-954
▁four	-955
▁exp	-956
▁del	-957
cer	-958
▁prof	-959
▁big	-960
▁adv	-961
▁cr	-962
▁ann	-963
▁pur	-964
arn	-965
uss	-966
▁What	-967
ved	-968
istr	-969
▁put	-970
be	-971
ving	-972
▁pass	-973
ized	-974
▁plan	-975
ross	-976
gg	-977
▁between	-978
▁No	-979
ering	-980
▁form	-981
▁direct	-982
▁Con	-983
ution	-984
▁since	-985
thing	-986
▁contin	-987
▁cle	-988
▁—	-989
vern	-990
▁--	-991
▁head	-992
▁got	-993
▁come	-994
ever	-995
▁family	-996
▁tri	-997
▁try	-998
▁Is	-999
ley	-1000
▁ext	-1001
ards	-1002
▁int	-1003
▁phot	-1004
▁20	-1005
min	-1006
▁cent	-1007
▁bro	-1008
con	-1009
▁using	-1010
▁iss	-1011
uck	-1012
▁quest	-1013
▁Mar	-1014
▁mus	-1015
ision	-1016
outh	-1017
▁different	-1018
cept	-1019
▁health	-1020
▁techn	-1021
▁better	-1022
iving	-1023
▁allow	-1024
▁Res	-1025
▁rest	-1026
less	-1027
▁group	-1028
▁Chr	-1029
▁interest	-1030
▁mov	-1031
ER	-1032
rence	-1033
▁another	-1034
▁Mon	-1035
ee	-1036
ody	-1037
▁public	-1038
▁today	-1039
▁bel	-1040
▁report	-1041
ling	-1042
ted	-1043
▁says	-1044
iqu	-1045
▁project	-1046
▁things	-1047
▁Z	-1048
▁18	-1049
▁company	-1050
▁small	-1051
▁appro	-1052
ware	-1053
▁15	-1054
▁Ind	-1055
▁class	-1056
ird	-1057
ense	-1058
▁met	-1059
▁gener	-1060
br	-1061
▁site	-1062
▁something	-1063
▁sl	-1064
ality	-1065
▁custom	-1066
aj	-1067
▁Tr	-1068
▁perform	-1069
▁full	-1070
ok	-1071
▁stand	-1072
enn	-1073
iday	-1074
ope	-1075
ata	-1076
ior	-1077
▁old	-1078
▁Comm	-1079
▁against	-1080
▁days	-1081
▁feel	-1082
▁sol	-1083
▁sure	-1084
▁University	-1085
ems	-1086
ote	-1087
ats	-1088
▁ref	-1089
▁hard	-1090
▁service	-1091
pping	-1092
gy	-1093
pped	-1094
▁Fe	-1095
orth	-1096
▁US	-1097
▁opp	-1098
▁resp	-1099
▁organ	-1100
▁ve	-1101
!!	-1102
▁When	-1103
▁That	-1104
▁cap	-1105
▁let	-1106
ann	-1107
self	-1108
▁partic	-1109
urs	-1110
▁water	-1111
▁current	-1112
▁2011	-1113
ared	-1114
ves	-1115
▁special	-1116
▁With	-1117
raph	-1118
ission	-1119
▁inf	-1120
▁process	-1121
▁unt	-1122
▁My	-1123
▁always	-1124
let	-1125
▁wom	-1126
▁conf	-1127
▁must	-1128
▁fac	-1129
ately	-1130
lection	-1131
▁vide	-1132
oney	-1133
▁poss	-1134
▁build	-1135
▁proble	-1136
▁without	-1137
ember	-1138
30	-1139
▁ask	-1140
▁never	-1141
▁Car	-1142
▁news	-1143
▁number	-1144
▁students	-1145
▁market	-1146
ample	-1147
▁wr	-1148
▁visit	-1149
ours	-1150
▁ter	-1151
▁pat	-1152
ining	-1153
ploy	-1154
▁give	-1155
▁meet	-1156
▁var	-1157
ically	-1158
▁manag	-1159
▁cor	-1160
ium	-1161
gin	-1162
tend	-1163
ohn	-1164
▁bre	-1165
▁night	-1166
▁import	-1167
▁offic	-1168
▁Fl	-1169
aut	-1170
▁Br	-1171
ract	-1172
co	-1173
me	-1174
ney	-1175
▁until	-1176
ording	-1177
ccess	-1178
▁past	-1179
▁ide	-1180
▁view	-1181
▁...	-1182
iver	-1183
tt	-1184
▁Co	-1185
▁[	-1186
▁main	-1187
▁opt	-1188
▁access	-1189
50	-1190
▁sal	-1191
▁ty	-1192
▁recent	-1193
ories	-1194
▁pay	-1195
ral	-1196
▁email	-1197
mber	-1198
▁Rep	-1199
rol	-1200
ball	-1201
▁area	-1202
une	-1203
▁online	-1204
▁Count	-1205
ina	-1206
▁dr	-1207
▁val	-1208
work	-1209
utes	-1210
▁el	-1211
▁cost	-1212
▁$1	-1213
.,	-1214
int	-1215
▁bas	-1216
▁John	-1217
▁might	-1218
▁ob	-1219
ator	-1220
ery	-1221
▁.	-1222
inal	-1223
▁local	-1224
▁Man	-1225
ged	-1226
▁webs	-1227
here	-1228
▁job	-1229
▁rese	-1230
▁law	-1231
▁event	-1232
alf	-1233
▁experience	-1234
▁looking	-1235
oci	-1236
joy	-1237
▁incre	-1238
IN	-1239
▁percent	-1240
ubl	-1241
▁turn	-1242
/2	-1243
▁children	-1244
▁expl	-1245
▁App	-1246
▁Jan	-1247
ured	-1248
▁million	-1249
oor	-1250
▁invest	-1251
icle	-1252
aff	-1253
ids	-1254
▁near	-1255
▁30	-1256
avor	-1257
ency	-1258
▁less	-1259
▁power	-1260
ps	-1261
bo	-1262
▁level	-1263
med	-1264
augh	-1265
ored	-1266
▁spec	-1267
osed	-1268
▁food	-1269
▁dri	-1270
▁test	-1271
ertain	-1272
▁exc	-1273
▁provide	-1274
▁left	-1275
artment	-1276
▁prom	-1277
irl	-1278
nect	-1279
▁fact	-1280
ruct	-1281
stand	-1282
▁State	-1283
ains	-1284
▁par	-1285
▁community	-1286
▁expect	-1287
We	-1288
ury	-1289
▁sing	-1290
book	-1291
▁page	-1292
▁grow	-1293
▁able	-1294
uff	-1295
▁away	-1296
ret	-1297
▁soc	-1298
▁line	-1299
▁addition	-1300
▁Christ	-1301
▁pop	-1302
ode	-1303
▁name	-1304
▁govern	-1305
▁camp	-1306
▁Pr	-1307
▁En	-1308
▁order	-1309
ON	-1310
▁members	-1311
hor	-1312
▁belie	-1313
by	-1314
▁Ste	-1315
the	-1316
▁oper	-1317
▁Cont	-1318
ama	-1319
▁American	-1320
▁Can	-1321
▁sit	-1322
▁Med	-1323
▁working	-1324
ably	-1325
▁room	-1326
▁dist	-1327
▁making	-1328
▁include	-1329
ges	-1330
ised	-1331
fect	-1332
pend	-1333
ron	-1334
▁leg	-1335
▁pos	-1336
▁sw	-1337
ec	-1338
ified	-1339
▁music	-1340
oints	-1341
ream	-1342
▁2010	-1343
▁hot	-1344
iron	-1345
▁Intern	-1346
▁Che	-1347
▁Tw	-1348
ases	-1349
ills	-1350
lege	-1351
▁record	-1352
▁Ne	-1353
uper	-1354
▁services	-1355
▁hist	-1356
ows	-1357
load	-1358
▁check	-1359
▁please	-1360
ived	-1361
por	-1362
▁effect	-1363
▁important	-1364
iam	-1365
▁mar	-1366
ten	-1367
▁point	-1368
▁One	-1369
ready	-1370
▁Post	-1371
ature	-1372
ots	-1373
▁Our	-1374
yr	-1375
veral	-1376
▁Me	-1377
ries	-1378
ults	-1379
▁16	-1380
aring	-1381
ism	-1382
conom	-1383
aster	-1384
nes	-1385
▁14	-1386
▁eng	-1387
▁(1	-1388
ym	-1389
yle	-1390
▁intern	-1391
▁City	-1392
ined	-1393
▁aff	-1394
▁video	-1395
▁beh	-1396
ajor	-1397
▁didn	-1398
ference	-1399
▁Am	-1400
iting	-1401
▁Ass	-1402
▁thing	-1403
▁enjoy	-1404
▁air	-1405
▁website	-1406
▁course	-1407
▁data	-1408
▁won	-1409
▁Bro	-1410
▁times	-1411
omm	-1412
▁five	-1413
ane	-1414
▁Wor	-1415
▁dep	-1416
▁review	-1417
atter	-1418
▁story	-1419
▁profess	-1420
▁blog	-1421
ients	-1422
▁products	-1423
RE	-1424
ential	-1425
AT	-1426
▁Do	-1427
pecial	-1428
▁light	-1429
org	-1430
▁chang	-1431
▁large	-1432
ober	-1433
▁present	-1434
▁within	-1435
▁Mc	-1436
▁Eng	-1437
▁cut	-1438
▁Cal	-1439
▁County	-1440
▁est	-1441
▁complete	-1442
▁money	-1443
ST	-1444
▁Off	-1445
▁change	-1446
▁*	-1447
▁contact	-1448
▁impro	-1449
reet	-1450
ush	-1451
itions	-1452
▁following	-1453
ising	-1454
ern	-1455
iety	-1456
vious	-1457
▁13	-1458
sh	-1459
▁applic	-1460
▁toget	-1461
▁together	-1462
▁More	-1463
▁ever	-1464
▁already	-1465
▁along	-1466
▁Not	-1467
▁ago	-1468
▁offer	-1469
▁tell	-1470
▁case	-1471
▁School	-1472
osp	-1473
ivid	-1474
▁After	-1475
sc	-1476
▁Center	-1477
▁mil	-1478
▁games	-1479
aper	-1480
▁vers	-1481
eral	-1482
▁X	-1483
▁199	-1484
▁Serv	-1485
▁minutes	-1486
▁dem	-1487
oon	-1488
▁Gu	-1489
ider	-1490
▁city	-1491
▁country	-1492
▁By	-1493
▁York	-1494
tain	-1495
▁equ	-1496
▁success	-1497
--	-1498
▁bit	-1499
▁proper	-1500
uly	-1501
▁why	-1502
▁return	-1503
▁educ	-1504
▁enough	-1505
ister	-1506
▁prote	-1507
▁easy	-1508
▁Please	-1509
▁trad	-1510
▁Gr	-1511
▁ce	-1512
app	-1513
▁detail	-1514
▁several	-1515
▁live	-1516
▁far	-1517
▁word	-1518
▁getting	-1519
▁called	-1520
▁points	-1521
▁/	-1522
AN	-1523
ention	-1524
ones	-1525
▁Dr	-1526
▁Ed	-1527
▁short	-1528
▁below	-1529
rop	-1530
▁activ	-1531
▁buy	-1532
▁talk	-1533
ique	-1534
ization	-1535
▁dra	-1536
ials	-1537
▁side	-1538
▁:	-1539
ability	-1540
▁came	-1541
side	-1542
year	-1543
oll	-1544
▁kind	-1545
▁Friday	-1546
▁men	-1547
▁‘	-1548
ille	-1549
▁17	-1550
▁indust	-1551
▁hum	-1552
▁pract	-1553
ourn	-1554
▁employ	-1555
duct	-1556
idd	-1557
▁learn	-1558
▁friends	-1559
▁told	-1560
ead	-1561
▁fund	-1562
ocus	-1563
▁makes	-1564
▁creat	-1565
ify	-1566
aturday	-1567
ips	-1568
▁Pres	-1569
▁quality	-1570
▁Comp	-1571
▁least	-1572
▁done	-1573
unch	-1574
▁elect	-1575
▁soft	-1576
▁having	-1577
▁net	-1578
▁took	-1579
▁research	-1580
AR	-1581
▁cou	-1582
▁Bo	-1583
▁Des	-1584
viron	-1585
▁opport	-1586
.5	-1587
20	-1588
ched	-1589
ograph	-1590
▁Dep	-1591
▁move	-1592
▁24	-1593
fort	-1594
yl	-1595
ides	-1596
▁half	-1597
▁deal	-1598
arr	-1599
▁dev	-1600
ift	-1601
ump	-1602
10	-1603
▁perfect	-1604
ource	-1605
▁Wed	-1606
▁months	-1607
▁announ	-1608
yn	-1609
▁went	-1610
▁compet	-1611
▁doesn	-1612
iven	-1613
oice	-1614
▁yet	-1615
▁const	-1616
rew	-1617
▁major	-1618
anks	-1619
▁hours	-1620
▁hold	-1621
▁early	-1622
rap	-1623
▁North	-1624
▁Saturday	-1625
▁house	-1626
▁la	-1627
▁25	-1628
▁These	-1629
▁orig	-1630
▁women	-1631
▁needs	-1632
allen	-1633
▁writ	-1634
▁Ab	-1635
▁government	-1636
▁tax	-1637
▁pack	-1638
//	-1639
▁Apr	-1640
▁based	-1641
▁National	-1642
ither	-1643
▁cond	-1644
▁Now	-1645
▁young	-1646
▁rele	-1647
▁become	-1648
▁News	-1649
uture	-1650
aim	-1651
▁non	-1652
▁Your	-1653
of	-1654
uro	-1655
▁Feb	-1656
▁favor	-1657
▁sum	-1658
ony	-1659
ibr	-1660
▁wa	-1661
back	-1662
://	-1663
▁works	-1664
▁six	-1665
It	-1666
▁United	-1667
▁pain	-1668
▁Min	-1669
▁beaut	-1670
▁Sep	-1671
▁Qu	-1672
▁Here	-1673
fer	-1674
ript	-1675
▁pot	-1676
▁Will	-1677
▁share	-1678
acy	-1679
▁2009	-1680
▁doing	-1681
enef	-1682
▁es	-1683
room	-1684
▁thought	-1685
▁Per	-1686
itor	-1687
▁appear	-1688
▁Just	-1689
▁treat	-1690
▁tre	-1691
ners	-1692
ches	-1693
▁Pol	-1694
▁Sm	-1695
▁Oct	-1696
ttp	-1697
hers	-1698
....	-1699
▁pick	-1700
ging	-1701
OR	-1702
▁started	-1703
itive	-1704
ensive	-1705
▁search	-1706
▁possible	-1707
▁store	-1708
▁personal	-1709
Th	-1710
▁address	-1711
▁bring	-1712
▁South	-1713
af	-1714
▁100	-1715
▁field	-1716
verage	-1717
▁purch	-1718
▁low	-1719
▁Ke	-1720
vironment	-1721
▁across	-1722
▁sn	-1723
▁mater	-1724
▁econom	-1725
ances	-1726
▁quick	-1727
▁connect	-1728
▁pie	-1729
most	-1730
▁added	-1731
over	-1732
▁series	-1733
▁comes	-1734
▁focus	-1735
play	-1736
▁control	-1737
aces	-1738
▁pict	-1739
▁Monday	-1740
ape	-1741
illed	-1742
▁Sund	-1743
▁others	-1744
▁#	-1745
for	-1746
▁21	-1747
▁once	-1748
wards	-1749
▁often	-1750
▁close	-1751
▁Im	-1752
▁Dis	-1753
lement	-1754
▁World	-1755
▁occ	-1756
▁March	-1757
▁discuss	-1758
▁red	-1759
aps	-1760
▁PM	-1761
▁upd	-1762
▁mult	-1763
▁Inst	-1764
▁create	-1765
ster	-1766
▁hope	-1767
.1	-1768
▁offers	-1769
▁Bar	-1770
atic	-1771
▁comb	-1772
▁development	-1773
▁invol	-1774
ources	-1775
▁third	-1776
▁Park	-1777
▁Pre	-1778
go	-1779
▁lim	-1780
▁later	-1781
resh	-1782
arter	-1783
sw	-1784
▁land	-1785
inc	-1786
▁fore	-1787
▁Em	-1788
▁Ge	-1789
▁June	-1790
ination	-1791
aken	-1792
▁understand	-1793
▁Pe	-1794
oose	-1795
▁features	-1796
pro	-1797
▁break	-1798
▁problem	-1799
aur	-1800
▁Aug	-1801
▁mess	-1802
ateg	-1803
▁future	-1804
▁mean	-1805
▁mom	-1806
▁happen	-1807
▁Mr	-1808
▁mor	-1809
▁join	-1810
ians	-1811
▁individ	-1812
▁benef	-1813
▁Dav	-1814
▁host	-1815
▁Stud	-1816
▁publ	-1817
ienc	-1818
ursday	-1819
▁tot	-1820
aren	-1821
▁Day	-1822
uesday	-1823
▁miss	-1824
▁account	-1825
ai	-1826
urity	-1827
ison	-1828
icy	-1829
▁High	-1830
▁Gl	-1831
▁Add	-1832
gest	-1833
▁hit	-1834
-0	-1835
▁strong	-1836
umb	-1837
▁Ob	-1838
time	-1839
.)	-1840
▁•	-1841
▁press	-1842
▁begin	-1843
▁sound	-1844
ES	-1845
▁Go	-1846
▁Mark	-1847
▁link	-1848
▁Thursday	-1849
urch	-1850
▁pret	-1851
AS	-1852
▁seen	-1853
ument	-1854
▁Tuesday	-1855
utions	-1856
nesday	-1857
▁stay	-1858
▁West	-1859
:00	-1860
gle	-1861
unic	-1862
▁prob	-1863
uary	-1864
atest	-1865
▁April	-1866
iful	-1867
▁charac	-1868
▁click	-1869
▁priv	-1870
▁actually	-1871
ators	-1872
▁Sunday	-1873
resent	-1874
▁questions	-1875
▁film	-1876
▁key	-1877
▁watch	-1878
ilities	-1879
▁staff	-1880
ned	-1881
▁foot	-1882
come	-1883
sel	-1884
▁walk	-1885
▁ey	-1886
▁wond	-1887
AL	-1888
▁price	-1889
ring	-1890
ued	-1891
ided	-1892
▁Mich	-1893
▁social	-1894
ague	-1895
irt	-1896
lebr	-1897
▁vol	-1898
roll	-1899
▁1.	-1900
crib	-1901
par	-1902
ests	-1903
▁web	-1904
▁body	-1905
St	-1906
▁El	-1907
EN	-1908
▁Wednesday	-1909
▁wind	-1910
▁girl	-1911
▁2008	-1912
▁cook	-1913
▁comput	-1914
upp	-1915
▁front	-1916
▁ste	-1917
oe	-1918
▁Sec	-1919
▁travel	-1920
▁Don	-1921
▁hig	-1922
▁question	-1923
not	-1924
inks	-1925
▁sent	-1926
▁From	-1927
▁z	-1928
▁member	-1929
▁pretty	-1930
itted	-1931
▁log	-1932
ilt	-1933
▁enc	-1934
▁study	-1935
▁cop	-1936
▁industry	-1937
▁deb	-1938
▁author	-1939
▁Reg	-1940
de	-1941
▁Sept	-1942
▁known	-1943
-3	-1944
▁Inc	-1945
▁according	-1946
▁content	-1947
▁pri	-1948
▁history	-1949
▁Euro	-1950
▁anything	-1951
▁dou	-1952
▁single	-1953
▁http	-1954
▁tool	-1955
▁someone	-1956
▁track	-1957
isk	-1958
▁Read	-1959
▁mag	-1960
▁clear	-1961
cle	-1962
▁taking	-1963
off	-1964
▁star	-1965
▁held	-1966
▁means	-1967
ief	-1968
▁compan	-1969
▁performance	-1970
▁22	-1971
▁technology	-1972
▁particip	-1973
▁certain	-1974
▁Cor	-1975
▁final	-1976
irm	-1977
earch	-1978
▁specific	-1979
▁50	-1980
▁tem	-1981
fact	-1982
▁install	-1983
99	-1984
▁Was	-1985
▁face	-1986
▁Acc	-1987
▁step	-1988
▁Some	-1989
▁However	-1990
▁everything	-1991
▁cred	-1992
urther	-1993
ural	-1994
▁result	-1995
ites	-1996
▁Red	-1997
ask	-1998
wh	-1999
▁bad	-2000
rain	-2001
▁redu	-2002
ler	-2003
▁TH	-2004
▁mind	-2005
▁everyone	-2006
eng	-2007
▁results	-2008
▁events	-2009
▁office	-2010
▁issues	-2011
▁AM	-2012
▁continue	-2013
abor	-2014
▁Part	-2015
itter	-2016
▁President	-2017
▁weeks	-2018
▁players	-2019
▁2.	-2020
▁hom	-2021
▁fire	-2022
▁media	-2023
▁While	-2024
lish	-2025
▁challen	-2026
▁port	-2027
▁given	-2028
itch	-2029
▁(2	-2030
▁Department	-2031
▁heart	-2032
ole	-2033
ED	-2034
▁select	-2035
my	-2036
▁bar	-2037
▁Art	-2038
▁above	-2039
▁among	-2040
▁coming	-2041
▁whole	-2042
atural	-2043
ands	-2044
ancial	-2045
▁trying	-2046
▁Us	-2047
▁believe	-2048
▁card	-2049
▁San	-2050
▁includes	-2051
vert	-2052
▁sell	-2053
▁provides	-2054
iod	-2055
▁iP	-2056
fully	-2057
▁Associ	-2058
▁TV	-2059
obile	-2060
▁anal	-2061
▁House	-2062
▁comment	-2063
IT	-2064
▁July	-2065
kend	-2066
▁ball	-2067
▁version	-2068
▁aud	-2069
nding	-2070
ops	-2071
aus	-2072
▁respons	-2073
▁ant	-2074
aid	-2075
▁age	-2076
lex	-2077
▁fall	-2078
▁reason	-2079
▁America	-2080
▁ener	-2081
amer	-2082
ek	-2083
▁Aust	-2084
▁range	-2085
▁typ	-2086
▁recomm	-2087
▁tou	-2088
pecially	-2089
ilar	-2090
unities	-2091
▁tit	-2092
▁former	-2093
▁recommend	-2094
▁Up	-2095
▁January	-2096
▁prop	-2097
▁States	-2098
▁doc	-2099
iff	-2100
▁Val	-2101
▁latest	-2102
▁ident	-2103
▁soon	-2104
idence	-2105
▁environment	-2106
▁x	-2107
ained	-2108
IC	-2109
ox	-2110
▁black	-2111
name	-2112
▁space	-2113
▁polit	-2114
cript	-2115
eth	-2116
itten	-2117
▁repl	-2118
▁either	-2119
▁Health	-2120
aul	-2121
60	-2122
▁concer	-2123
▁sugg	-2124
▁Act	-2125
▁clean	-2126
adu	-2127
though	-2128
ables	-2129
ply	-2130
eter	-2131
head	-2132
▁Europe	-2133
ese	-2134
ung	-2135
5.	-2136
elt	-2137
ville	-2138
▁favorite	-2139
▁mot	-2140
▁hon	-2141
▁probably	-2142
aily	-2143
▁color	-2144
▁taken	-2145
▁fre	-2146
▁almost	-2147
▁recently	-2148
▁items	-2149
itting	-2150
▁running	-2151
▁companies	-2152
▁Her	-2153
▁seem	-2154
ederal	-2155
▁require	-2156
▁building	-2157
▁police	-2158
▁article	-2159
▁issue	-2160
ili	-2161
▁assist	-2162
▁text	-2163
-4	-2164
▁et	-2165
ried	-2166
▁His	-2167
▁kids	-2168
imate	-2169
▁beautiful	-2170
ino	-2171
▁Nove	-2172
▁nice	-2173
AC	-2174
▁Har	-2175
▁rights	-2176
12	-2177
▁currently	-2178
▁behind	-2179
▁box	-2180
▁asked	-2181
aged	-2182
ival	-2183
ounc	-2184
che	-2185
amed	-2186
ibility	-2187
▁Char	-2188
▁morning	-2189
▁23	-2190
▁idea	-2191
▁Tra	-2192
▁Face	-2193
icult	-2194
▁whether	-2195
▁phone	-2196
▁cup	-2197
▁training	-2198
ams	-2199
▁particular	-2200
bor	-2201
rodu	-2202
ogn	-2203
▁Sen	-2204
▁entire	-2205
coming	-2206
ctor	-2207
▁Calif	-2208
ester	-2209
ze	-2210
▁attend	-2211
nder	-2212
▁wanted	-2213
▁celebr	-2214
▁forward	-2215
▁board	-2216
▁received	-2217
▁God	-2218
▁improve	-2219
▁size	-2220
▁simple	-2221
▁couple	-2222
▁road	-2223
▁,	-2224
istrict	-2225
▁customers	-2226
▁oil	-2227
▁crit	-2228
obal	-2229
ux	-2230
▁cal	-2231
▁president	-2232
▁Ser	-2233
▁Pat	-2234
▁super	-2235
▁Get	-2236
ulation	-2237
▁Par	-2238
▁vict	-2239
erved	-2240
▁Ang	-2241
▁claim	-2242
▁comments	-2243
yright	-2244
▁College	-2245
asing	-2246
ees	-2247
▁party	-2248
▁programs	-2249
ministr	-2250
isc	-2251
▁areas	-2252
▁$2	-2253
itional	-2254
▁energy	-2255
11	-2256
oved	-2257
▁Soc	-2258
ruary	-2259
▁else	-2260
▁brand	-2261
▁late	-2262
▁represent	-2263
▁isn	-2264
▁Street	-2265
err	-2266
OT	-2267
aced	-2268
ety	-2269
▁anyone	-2270
▁song	-2271
aching	-2272
▁November	-2273
▁summer	-2274
▁designed	-2275
▁goal	-2276
▁receive	-2277
cember	-2278
▁shows	-2279
▁due	-2280
▁Af	-2281
▁cool	-2282
▁Int	-2283
7,	-2284
aker	-2285
▁release	-2286
aign	-2287
▁Direct	-2288
ishing	-2289
▁provided	-2290
▁hol	-2291
mit	-2292
IS	-2293
OU	-2294
▁wide	-2295
▁inj	-2296
icro	-2297
ume	-2298
oes	-2299
▁Web	-2300
▁bott	-2301
ruction	-2302
▁Black	-2303
▁playing	-2304
▁www	-2305
hington	-2306
▁period	-2307
▁phys	-2308
▁education	-2309
▁details	-2310
:30	-2311
▁dig	-2312
▁users	-2313
ny	-2314
▁Bu	-2315
.2	-2316
rug	-2317
▁weekend	-2318
▁white	-2319
aby	-2320
▁Wind	-2321
ires	-2322
lev	-2323
oke	-2324
reg	-2325
gress	-2326
▁di	-2327
raft	-2328
▁cult	-2329
6,	-2330
▁unique	-2331
▁answ	-2332
example	-2333
▁previous	-2334
iol	-2335
▁Obama	-2336
▁further	-2337
icles	-2338
arents	-2339
▁quite	-2340
▁human	-2341
▁February	-2342
ef	-2343
▁popular	-2344
▁software	-2345
▁swe	-2346
▁problems	-2347
▁original	-2348
eds	-2349
▁prep	-2350
astic	-2351
▁cover	-2352
▁sales	-2353
adem	-2354
▁town	-2355
▁Aut	-2356
▁fresh	-2357
▁inn	-2358
▁especially	-2359
▁management	-2360
▁action	-2361
▁career	-2362
▁sex	-2363
▁October	-2364
▁collect	-2365
▁meas	-2366
▁likely	-2367
ada	-2368
▁December	-2369
▁Facebook	-2370
ham	-2371
▁meeting	-2372
ouncil	-2373
▁August	-2374
ecut	-2375
▁Sw	-2376
▁style	-2377
▁needed	-2378
oogle	-2379
▁looks	-2380
▁Washington	-2381
▁anim	-2382
▁September	-2383
arent	-2384
ael	-2385
wood	-2386
▁seems	-2387
iber	-2388
ospital	-2389
▁War	-2390
ky	-2391
▁round	-2392
ribut	-2393
▁via	-2394
▁network	-2395
▁relations	-2396
▁ens	-2397
iddle	-2398
▁ground	-2399
▁example	-2400
idge	-2401
▁fig	-2402
na	-2403
▁Click	-2404
▁paper	-2405
▁death	-2406
ental	-2407
cast	-2408
▁protect	-2409
▁national	-2410
▁+	-2411
▁takes	-2412
aging	-2413
▁reading	-2414
▁download	-2415
▁total	-2416
▁Fin	-2417
▁fit	-2418
▁stri	-2419
ibrary	-2420
▁professional	-2421
▁date	-2422
oom	-2423
80	-2424
ming	-2425
▁David	-2426
▁required	-2427
▁played	-2428
▁Cour	-2429
ufact	-2430
▁student	-2431
ana	-2432
▁consum	-2433
hern	-2434
▁Je	-2435
pper	-2436
:4	-2437
hib	-2438
▁stop	-2439
▁Sal	-2440
▁opportunity	-2441
www	-2442
▁pan	-2443
▁wonder	-2444
ises	-2445
▁ap	-2446
▁fail	-2447
4.	-2448
▁value	-2449
▁International	-2450
bur	-2451
▁La	-2452
▁vot	-2453
▁created	-2454
▁©	-2455
▁stra	-2456
rote	-2457
▁court	-2458
overed	-2459
▁Mus	-2460
oph	-2461
▁First	-2462
▁40	-2463
▁type	-2464
▁table	-2465
reme	-2466
▁Hot	-2467
angu	-2468
▁diff	-2469
▁Also	-2470
▁dog	-2471
▁included	-2472
▁Last	-2473
ournal	-2474
selves	-2475
▁books	-2476
ornia	-2477
▁reported	-2478
▁outside	-2479
oring	-2480
▁init	-2481
anced	-2482
▁engine	-2483
▁base	-2484
▁ready	-2485
▁squ	-2486
irth	-2487
ades	-2488
3.	-2489
▁rad	-2490
▁po	-2491
ession	-2492
▁suggest	-2493
__	-2494
ett	-2495
▁announced	-2496
▁tal	-2497
clus	-2498
arning	-2499
▁cand	-2500
▁Rec	-2501
▁leave	-2502
attle	-2503
▁happy	-2504
▁Hol	-2505
▁lost	-2506
▁consider	-2507
▁extra	-2508
ding	-2509
▁Bus	-2510
▁nothing	-2511
▁position	-2512
▁Ac	-2513
ING	-2514
▁fast	-2515
▁potential	-2516
▁match	-2517
▁photos	-2518
lier	-2519
▁player	-2520
▁loss	-2521
mon	-2522
ently	-2523
▁tour	-2524
ively	-2525
key	-2526
ules	-2527
▁comfort	-2528
ought	-2529
ipe	-2530
▁Net	-2531
▁attack	-2532
ford	-2533
pm	-2534
▁veh	-2535
▁regular	-2536
▁general	-2537
▁deter	-2538
based	-2539
medi	-2540
▁send	-2541
▁released	-2542
itte	-2543
▁financial	-2544
▁California	-2545
▁role	-2546
6.	-2547
▁Any	-2548
▁Well	-2549
ledge	-2550
▁center	-2551
▁Are	-2552
▁chance	-2553
▁Ag	-2554
▁coll	-2555
▁hear	-2556
chie	-2557
▁living	-2558
▁dam	-2559
▁common	-2560
▁28	-2561
▁quarter	-2562
▁mix	-2563
▁Home	-2564
▁Air	-2565
▁simply	-2566
▁campaign	-2567
uge	-2568
▁computer	-2569
▁leaders	-2570
aining	-2571
▁throughout	-2572
7.	-2573
▁etc	-2574
▁Tex	-2575
▁ple	-2576
▁bud	-2577
▁Jack	-2578
▁drive	-2579
▁collection	-2580
hel	-2581
sp	-2582
▁tick	-2583
▁op	-2584
aving	-2585
▁subs	-2586
ags	-2587
▁rather	-2588
face	-2589
▁screen	-2590
▁file	-2591
▁clos	-2592
str	-2593
▁Of	-2594
▁changes	-2595
▁Sim	-2596
▁additional	-2597
▁deg	-2598
▁inside	-2599
▁saw	-2600
▁wrote	-2601
▁ways	-2602
AM	-2603
▁boy	-2604
▁investig	-2605
olution	-2606
▁increase	-2607
uation	-2608
▁recogn	-2609
▁Sch	-2610
▁located	-2611
▁Google	-2612
▁various	-2613
▁worked	-2614
zz	-2615
▁Cop	-2616
oud	-2617
hips	-2618
▁expected	-2619
▁natural	-2620
▁park	-2621
▁sus	-2622
▁draw	-2623
elcome	-2624
▁stat	-2625
OM	-2626
▁security	-2627
1,	-2628
▁similar	-2629
▁private	-2630
▁subject	-2631
▁published	-2632
▁touch	-2633
▁shot	-2634
▁Thanks	-2635
▁Free	-2636
apt	-2637
▁Then	-2638
▁sle	-2639
▁3.	-2640
ounts	-2641
ipping	-2642
▁however	-2643
▁words	-2644
▁official	-2645
oid	-2646
▁fans	-2647
▁Group	-2648
-5	-2649
istic	-2650
▁image	-2651
▁accept	-2652
▁cell	-2653
▁Phot	-2654
▁meth	-2655
9.	-2656
▁Play	-2657
ification	-2658
-8	-2659
▁Every	-2660
▁Cr	-2661
▁worth	-2662
:1	-2663
▁sat	-2664
▁abs	-2665
▁property	-2666
▁movie	-2667
ached	-2668
ude	-2669
▁longer	-2670
▁plans	-2671
▁flow	-2672
lin	-2673
mas	-2674
▁shoot	-2675
▁cir	-2676
gar	-2677
▁deep	-2678
▁Out	-2679
▁matter	-2680
azing	-2681
iter	-2682
▁club	-2683
▁Manag	-2684
▁display	-2685
▁Other	-2686
cing	-2687
itc	-2688
arget	-2689
▁mat	-2690
▁systems	-2691
▁teac	-2692
▁difficult	-2693
▁experienc	-2694
▁true	-2695
ondon	-2696
▁Oh	-2697
light	-2698
ida	-2699
▁insp	-2700
▁Dem	-2701
▁aw	-2702
▁signific	-2703
LE	-2704
▁Tod	-2705
▁Sub	-2706
▁lay	-2707
▁model	-2708
▁amount	-2709
▁compl	-2710
▁exist	-2711
now	-2712
erc	-2713
▁sil	-2714
40	-2715
▁Spr	-2716
leg	-2717
▁application	-2718
▁Cons	-2719
▁risk	-2720
▁director	-2721
▁ord	-2722
mission	-2723
ray	-2724
▁necess	-2725
urance	-2726
▁defin	-2727
▁projects	-2728
▁medical	-2729
ffic	-2730
▁tast	-2731
▁sen	-2732
▁character	-2733
▁Paul	-2734
▁stuff	-2735
rect	-2736
ago	-2737
▁leading	-2738
▁posted	-2739
▁East	-2740
BC	-2741
ocr	-2742
▁Most	-2743
▁credit	-2744
orge	-2745
▁nation	-2746
▁respect	-2747
▁award	-2748
uel	-2749
▁international	-2750
▁associ	-2751
like	-2752
▁decision	-2753
band	-2754
▁parents	-2755
▁led	-2756
▁options	-2757
▁Green	-2758
70	-2759
▁rate	-2760
3,	-2761
▁photo	-2762
:2	-2763
TM	-2764
▁Austral	-2765
▁choose	-2766
▁mother	-2767
▁Brit	-2768
ground	-2769
▁lives	-2770
▁Mor	-2771
In	-2772
▁William	-2773
▁surpr	-2774
▁Mem	-2775
bum	-2776
▁decided	-2777
▁1,	-2778
▁sold	-2779
9,	-2780
▁teams	-2781
akers	-2782
▁Service	-2783
▁Internet	-2784
mail	-2785
▁dom	-2786
▁caus	-2787
▁bed	-2788
▁enter	-2789
▁self	-2790
2.	-2791
ma	-2792
▁Michael	-2793
▁Republic	-2794
▁goes	-2795
▁skin	-2796
ID	-2797
▁woman	-2798
▁activities	-2799
board	-2800
▁White	-2801
▁agre	-2802
rec	-2803
illing	-2804
▁involved	-2805
▁Law	-2806
▁feature	-2807
▁Posted	-2808
izing	-2809
▁Program	-2810
▁broad	-2811
5,	-2812
▁ill	-2813
▁cannot	-2814
▁mid	-2815
▁Check	-2816
▁Great	-2817
▁Public	-2818
bl	-2819
▁material	-2820
▁achie	-2821
▁variety	-2822
▁Texas	-2823
▁user	-2824
▁View	-2825
▁Office	-2826
hood	-2827
ellow	-2828
opping	-2829
▁London	-2830
▁hands	-2831
▁score	-2832
▁encour	-2833
avy	-2834
idents	-2835
▁gets	-2836
▁Let	-2837
AP	-2838
▁fine	-2839
▁appe	-2840
▁coach	-2841
▁Hall	-2842
val	-2843
empt	-2844
▁viol	-2845
olf	-2846
ey	-2847
urt	-2848
▁Ger	-2849
▁manufact	-2850
rows	-2851
▁Mag	-2852
▁serious	-2853
▁code	-2854
▁safe	-2855
▁Over	-2856
▁saf	-2857
▁production	-2858
:3	-2859
cription	-2860
1.	-2861
field	-2862
duc	-2863
▁autom	-2864
▁lab	-2865
▁individual	-2866
ament	-2867
▁restaur	-2868
▁interview	-2869
▁Business	-2870
2,	-2871
▁higher	-2872
▁wasn	-2873
rown	-2874
itute	-2875
▁Prof	-2876
ittee	-2877
▁band	-2878
▁@	-2879
where	-2880
▁fight	-2881
▁college	-2882
▁starting	-2883
ET	-2884
▁Gener	-2885
▁seven	-2886
unt	-2887
ara	-2888
▁See	-2889
▁purchase	-2890
▁practice	-2891
airs	-2892
▁pull	-2893
unk	-2894
ounds	-2895
▁Book	-2896
rab	-2897
▁hop	-2898
atives	-2899
iple	-2900
▁saying	-2901
▁significant	-2902
▁related	-2903
▁yourself	-2904
▁method	-2905
▁Good	-2906
▁message	-2907
▁began	-2908
▁estab	-2909
▁reports	-2910
▁Spe	-2911
▁arch	-2912
wide	-2913
▁Angel	-2914
▁Loc	-2915
▁instead	-2916
▁hy	-2917
▁green	-2918
▁defe	-2919
▁source	-2920
▁Twitter	-2921
▁hotel	-2922
▁built	-2923
▁writing	-2924
▁affect	-2925
▁request	-2926
ilies	-2927
asons	-2928
▁Flor	-2929
▁prior	-2930
aves	-2931
▁gave	-2932
▁Cong	-2933
▁immedi	-2934
▁hair	-2935
▁Techn	-2936
▁growth	-2937
rought	-2938
▁Found	-2939
arden	-2940
▁average	-2941
erry	-2942
▁dress	-2943
▁function	-2944
▁choice	-2945
▁drug	-2946
ampions	-2947
down	-2948
▁eight	-2949
▁exact	-2950
▁quickly	-2951
▁Dan	-2952
▁Rich	-2953
▁Sun	-2954
▁Association	-2955
".	-2956
rel	-2957
▁Ear	-2958
▁communic	-2959
uk	-2960
:5	-2961
▁Review	-2962
▁piece	-2963
▁Afric	-2964
aughter	-2965
ald	-2966
▁written	-2967
mercial	-2968
▁dest	-2969
ashion	-2970
word	-2971
▁inde	-2972
▁norm	-2973
atory	-2974
▁note	-2975
erve	-2976
▁regard	-2977
4,	-2978
▁treatment	-2979
▁Mac	-2980
▁prevent	-2981
▁cause	-2982
▁Services	-2983
▁About	-2984
▁usually	-2985
▁roll	-2986
▁describ	-2987
▁feed	-2988
▁Del	-2989
▁dead	-2990
▁contract	-2991
▁198	-2992
acing	-2993
ault	-2994
ares	-2995
▁moment	-2996
owl	-2997
▁remember	-2998
▁bur	-2999
alt	-3000
▁cat	-3001
▁exam	-3002
ipment	-3003
▁Apple	-3004
▁Big	-3005
▁gradu	-3006
▁introdu	-3007
imum	-3008
▁King	-3009
▁son	-3010
This	-3011
▁save	-3012
▁billion	-3013
vey	-3014
▁interested	-3015
▁slow	-3016
▁allows	-3017
▁race	-3018
▁interesting	-3019
▁Super	-3020
▁policy	-3021
▁infl	-3022
iction	-3023
▁title	-3024
▁sun	-3025
EC	-3026
▁giving	-3027
bed	-3028
▁stock	-3029
▁standard	-3030
▁Why	-3031
▁prim	-3032
icated	-3033
raz	-3034
itary	-3035
▁ful	-3036
▁safety	-3037
▁grand	-3038
▁gen	-3039
▁emer	-3040
▁section	-3041
ecutive	-3042
▁Top	-3043
▁ep	-3044
▁Trans	-3045
ule	-3046
▁Educ	-3047
▁warm	-3048
▁dro	-3049
put	-3050
▁prin	-3051
▁THE	-3052
▁wall	-3053
▁Cle	-3054
▁James	-3055
▁budget	-3056
▁Windows	-3057
▁UK	-3058
▁camer	-3059
▁Ann	-3060
ica	-3061
▁Inter	-3062
den	-3063
anguage	-3064
▁impact	-3065
riving	-3066
cy	-3067
▁federal	-3068
inner	-3069
venue	-3070
▁Design	-3071
▁location	-3072
▁Dec	-3073
▁sche	-3074
▁Christmas	-3075
▁skills	-3076
▁ideas	-3077
▁jud	-3078
just	-3079
▁sett	-3080
▁Rom	-3081
▁Chic	-3082
▁schools	-3083
▁excell	-3084
▁neg	-3085
OS	-3086
▁tried	-3087
aches	-3088
ocol	-3089
▁mach	-3090
▁According	-3091
umn	-3092
▁trip	-3093
▁guys	-3094
▁knowledge	-3095
apan	-3096
▁nearly	-3097
▁myself	-3098
▁organization	-3099
▁prices	-3100
▁Year	-3101
vin	-3102
▁vac	-3103
▁groups	-3104
▁mass	-3105
▁wrong	-3106
▁60	-3107
▁war	-3108
bit	-3109
▁lower	-3110
▁dise	-3111
▁integr	-3112
uments	-3113
▁album	-3114
▁Mart	-3115
▁customer	-3116
▁easily	-3117
▁object	-3118
▁amazing	-3119
▁huge	-3120
▁hor	-3121
ography	-3122
▁Rober	-3123
▁sense	-3124
▁baby	-3125
▁mobile	-3126
▁bal	-3127
EL	-3128
anch	-3129
▁English	-3130
▁stories	-3131
▁learning	-3132
omen	-3133
▁express	-3134
iles	-3135
:0	-3136
▁Vis	-3137
aries	-3138
▁birth	-3139
▁apply	-3140
▁upon	-3141
▁pers	-3142
▁Mod	-3143
▁target	-3144
▁Road	-3145
▁stru	-3146
mitted	-3147
▁hour	-3148
▁lo	-3149
▁daily	-3150
-6	-3151
▁lic	-3152
8.	-3153
▁resources	-3154
▁images	-3155
▁Class	-3156
EO	-3157
▁wife	-3158
useum	-3159
▁heard	-3160
▁Mary	-3161
oul	-3162
▁themselves	-3163
▁Council	-3164
▁purp	-3165
▁global	-3166
▁annual	-3167
▁picture	-3168
▁div	-3169
used	-3170
▁Av	-3171
▁political	-3172
▁ability	-3173
▁gives	-3174
▁ur	-3175
ension	-3176
▁levels	-3177
▁Today	-3178
▁gift	-3179
▁except	-3180
▁Sk	-3181
IL	-3182
▁parts	-3183
▁write	-3184
OL	-3185
▁neigh	-3186
▁sites	-3187
▁blood	-3188
▁document	-3189
▁II	-3190
▁providing	-3191
▁rev	-3192
/1	-3193
▁sens	-3194
▁Since	-3195
▁Court	-3196
▁ones	-3197
▁costs	-3198
iding	-3199
onse	-3200
▁Find	-3201
AD	-3202
▁depend	-3203
▁fair	-3204
▁partners	-3205
ha	-3206
enty	-3207
▁item	-3208
estern	-3209
▁bank	-3210
iring	-3211
haps	-3212
▁conference	-3213
iant	-3214
▁System	-3215
▁heat	-3216
▁Best	-3217
▁AN	-3218
▁attention	-3219
▁Tom	-3220
▁separ	-3221
▁Rem	-3222
▁Board	-3223
sy	-3224
▁wait	-3225
sec	-3226
pite	-3227
▁Port	-3228
azine	-3229
▁reb	-3230
▁ensure	-3231
▁Phil	-3232
▁Club	-3233
ston	-3234
erous	-3235
▁ess	-3236
▁Copyright	-3237
▁feet	-3238
▁statement	-3239
▁Pal	-3240
▁ded	-3241
▁answer	-3242
▁Bre	-3243
izes	-3244
▁Miss	-3245
▁Florida	-3246
▁officials	-3247
▁Ir	-3248
▁spent	-3249
-7	-3250
anta	-3251
▁promot	-3252
▁Ev	-3253
▁effort	-3254
▁itself	-3255
▁Open	-3256
▁Even	-3257
▁Japan	-3258
ening	-3259
▁served	-3260
▁administr	-3261
▁rock	-3262
▁weight	-3263
▁pictures	-3264
rive	-3265
imately	-3266
▁sale	-3267
▁cross	-3268
aught	-3269
▁runs	-3270
▁bill	-3271
reng	-3272
▁Thom	-3273
▁straight	-3274
▁block	-3275
US	-3276
▁families	-3277
uals	-3278
▁bi	-3279
▁named	-3280
▁sym	-3281
▁Police	-3282
unte	-3283
▁Rock	-3284
ancy	-3285
ado	-3286
▁became	-3287
nds	-3288
▁finished	-3289
net	-3290
wor	-3291
▁Research	-3292
▁4.	-3293
▁prem	-3294
▁Lou	-3295
▁Chicago	-3296
ota	-3297
▁speed	-3298
▁organiz	-3299
▁Hel	-3300
▁countries	-3301
icks	-3302
▁directly	-3303
king	-3304
▁tools	-3305
▁Bay	-3306
▁ut	-3307
▁mention	-3308
▁turned	-3309
ims	-3310
ples	-3311
▁lif	-3312
ysis	-3313
▁2007	-3314
inary	-3315
▁Brown	-3316
▁maintain	-3317
ivity	-3318
▁Information	-3319
▁legal	-3320
iced	-3321
ror	-3322
-201	-3323
▁Win	-3324
isl	-3325
▁double	-3326
▁applications	-3327
PS	-3328
▁obs	-3329
▁files	-3330
mark	-3331
▁gun	-3332
▁rout	-3333
:||	-3334
▁Develop	-3335
▁Down	-3336
▁Press	-3337
▁wish	-3338
▁Gold	-3339
▁thinking	-3340
▁Rob	-3341
▁wants	-3342
▁Indian	-3343
rench	-3344
▁gas	-3345
atform	-3346
▁benefits	-3347
▁sem	-3348
acts	-3349
ration	-3350
▁lik	-3351
ipped	-3352
▁Many	-3353
▁firm	-3354
AA	-3355
uth	-3356
itation	-3357
▁conditions	-3358
urer	-3359
action	-3360
▁economic	-3361
▁China	-3362
▁maybe	-3363
▁doll	-3364
uit	-3365
▁Bel	-3366
▁Cap	-3367
ength	-3368
Wh	-3369
arc	-3370
▁respond	-3371
▁Ant	-3372
itely	-3373
▁Two	-3374
▁earlier	-3375
▁impress	-3376
▁finally	-3377
ructure	-3378
▁brought	-3379
▁Smith	-3380
▁marketing	-3381
▁fix	-3382
▁»	-3383
▁tom	-3384
▁spot	-3385
hone	-3386
sem	-3387
▁guy	-3388
ened	-3389
▁mail	-3390
▁dry	-3391
▁modern	-3392
▁eye	-3393
ocks	-3394
▁dark	-3395
▁floor	-3396
▁Micro	-3397
▁coun	-3398
▁Camp	-3399
▁fab	-3400
▁rent	-3401
▁Time	-3402
body	-3403
▁wood	-3404
▁qual	-3405
▁Church	-3406
soft	-3407
▁Sur	-3408
▁arg	-3409
▁completely	-3410
▁conduct	-3411
▁Fam	-3412
▁sports	-3413
▁IN	-3414
▁serve	-3415
irit	-3416
▁patients	-3417
▁Director	-3418
▁26	-3419
▁option	-3420
▁Each	-3421
▁imm	-3422
▁terms	-3423
yond	-3424
▁Russ	-3425
▁fan	-3426
ns	-3427
▁gold	-3428
▁miles	-3429
▁cases	-3430
▁forum	-3431
wise	-3432
hest	-3433
iation	-3434
▁employees	-3435
▁Rel	-3436
▁limited	-3437
▁Los	-3438
▁Supp	-3439
ube	-3440
▁Child	-3441
last	-3442
▁Use	-3443
▁candid	-3444
▁planning	-3445
▁hous	-3446
▁overall	-3447
inger	-3448
▁reach	-3449
/201	-3450
isions	-3451
▁decl	-3452
ady	-3453
ivery	-3454
▁attract	-3455
vest	-3456
▁states	-3457
ona	-3458
ils	-3459
ctions	-3460
▁print	-3461
▁himself	-3462
▁ren	-3463
iller	-3464
▁opportunities	-3465
He	-3466
more	-3467
rian	-3468
aint	-3469
add	-3470
▁growing	-3471
▁Sol	-3472
75	-3473
▁largest	-3474
▁digital	-3475
▁Look	-3476
▁River	-3477
▁door	-3478
▁charge	-3479
▁bottom	-3480
ological	-3481
▁jobs	-3482
ipp	-3483
▁Cur	-3484
▁Education	-3485
hold	-3486
▁ri	-3487
▁Sign	-3488
▁mount	-3489
ivil	-3490
▁carry	-3491
amb	-3492
▁reve	-3493
estival	-3494
▁circ	-3495
▁Times	-3496
▁effic	-3497
▁goals	-3498
itchen	-3499
▁hus	-3500
▁£	-3501
house	-3502
ico	-3503
▁German	-3504
▁Nov	-3505
▁eat	-3506
▁sometimes	-3507
arant	-3508
▁cancer	-3509
orrow	-3510
▁histor	-3511
▁Call	-3512
▁Show	-3513
▁wed	-3514
▁plant	-3515
▁Enter	-3516
▁pages	-3517
▁finish	-3518
SS	-3519
▁Canada	-3520
▁equipment	-3521
▁tur	-3522
▁sweet	-3523
▁PC	-3524
▁Pet	-3525
▁father	-3526
iance	-3527
▁correct	-3528
▁League	-3529
▁contrib	-3530
uled	-3531
▁capt	-3532
▁weather	-3533
▁Star	-3534
ban	-3535
▁successful	-3536
▁numbers	-3537
elling	-3538
▁gar	-3539
▁Whe	-3540
ruit	-3541
▁traditional	-3542
mm	-3543
▁commercial	-3544
▁General	-3545
▁cy	-3546
▁Market	-3547
▁region	-3548
idered	-3549
▁ST	-3550
▁approach	-3551
▁highly	-3552
▁senior	-3553
▁Sum	-3554
▁Back	-3555
▁owners	-3556
▁extreme	-3557
▁Who	-3558
DA	-3559
▁pow	-3560
▁suff	-3561
▁streng	-3562
▁dream	-3563
▁USA	-3564
▁spring	-3565
▁helps	-3566
roud	-3567
▁innov	-3568
▁Ital	-3569
▁businesses	-3570
iers	-3571
vis	-3572
▁Vir	-3573
▁multiple	-3574
mp	-3575
▁opin	-3576
▁holiday	-3577
▁football	-3578
▁27	-3579
▁response	-3580
▁stage	-3581
▁felt	-3582
▁beginning	-3583
▁Life	-3584
▁allowed	-3585
▁Once	-3586
▁threat	-3587
▁died	-3588
asc	-3589
▁beat	-3590
▁Fire	-3591
▁wonderful	-3592
pts	-3593
▁whose	-3594
▁Island	-3595
500	-3596
▁categ	-3597
▁Sl	-3598
▁clients	-3599
▁necessary	-3600
▁condition	-3601
▁extend	-3602
▁cert	-3603
▁Tri	-3604
▁spend	-3605
see	-3606
ibly	-3607
▁ten	-3608
▁Lake	-3609
▁Congress	-3610
▁Care	-3611
▁developed	-3612
▁District	-3613
▁Lear	-3614
▁manager	-3615
za	-3616
▁Like	-3617
▁links	-3618
▁materials	-3619
▁glass	-3620
▁ble	-3621
▁entertain	-3622
esterday	-3623
▁ton	-3624
▁pred	-3625
▁vehicle	-3626
▁Bur	-3627
90	-3628
▁opening	-3629
gers	-3630
istry	-3631
▁arriv	-3632
▁positive	-3633
▁Bill	-3634
▁thous	-3635
▁advice	-3636
porate	-3637
▁offered	-3638
rem	-3639
▁healthy	-3640
ION	-3641
oses	-3642
▁Community	-3643
asts	-3644
▁Carol	-3645
▁ult	-3646
rey	-3647
bon	-3648
▁Work	-3649
▁1/2	-3650
▁hospital	-3651
▁arrest	-3652
iate	-3653
que	-3654
▁accom	-3655
▁=	-3656
▁excellent	-3657
▁looked	-3658
▁Govern	-3659
ceed	-3660
▁Media	-3661
iling	-3662
ffee	-3663
▁advert	-3664
▁implement	-3665
▁Det	-3666
▁doub	-3667
▁Special	-3668
▁Company	-3669
▁uses	-3670
▁McC	-3671
▁moving	-3672
▁appl	-3673
istered	-3674
▁Matt	-3675
▁Ret	-3676
▁offering	-3677
▁homes	-3678
▁middle	-3679
▁Franc	-3680
▁attempt	-3681
8,	-3682
▁husband	-3683
▁retail	-3684
box	-3685
▁Love	-3686
▁vote	-3687
▁Kn	-3688
▁knew	-3689
▁places	-3690
▁farm	-3691
▁imag	-3692
▁progress	-3693
▁Mount	-3694
▁effective	-3695
cause	-3696
change	-3697
▁haven	-3698
▁eyes	-3699
raw	-3700
rup	-3701
undred	-3702
▁moved	-3703
iment	-3704
▁nut	-3705
▁Met	-3706
▁ahead	-3707
▁solution	-3708
ying	-3709
▁Hist	-3710
▁Ben	-3711
osing	-3712
Ch	-3713
fl	-3714
▁device	-3715
▁shop	-3716
uing	-3717
▁brother	-3718
▁talking	-3719
▁drink	-3720
▁Exp	-3721
▁Commission	-3722
oly	-3723
atab	-3724
ooth	-3725
opped	-3726
▁load	-3727
▁pet	-3728
▁efforts	-3729
▁Sam	-3730
▁Music	-3731
):	-3732
▁Institute	-3733
▁selection	-3734
▁paid	-3735
▁couldn	-3736
▁daughter	-3737
arily	-3738
▁IT	-3739
▁cold	-3740
▁Sy	-3741
▁surv	-3742
BS	-3743
ios	-3744
▁Mike	-3745
▁sched	-3746
▁apprec	-3747
▁Democr	-3748
▁exhib	-3749
▁helped	-3750
▁blue	-3751
▁language	-3752
25	-3753
▁advant	-3754
▁wear	-3755
▁term	-3756
▁aware	-3757
rig	-3758
▁Food	-3759
▁trade	-3760
▁pattern	-3761
▁consist	-3762
aled	-3763
▁fourth	-3764
orial	-3765
ucky	-3766
▁military	-3767
osh	-3768
itiz	-3769
▁reserved	-3770
inated	-3771
▁wild	-3772
friend	-3773
▁sleep	-3774
▁Scott	-3775
▁Sil	-3776
▁snow	-3777
iable	-3778
rences	-3779
▁Mil	-3780
omb	-3781
ses	-3782
▁convers	-3783
▁situation	-3784
▁platform	-3785
▁disease	-3786
▁conc	-3787
▁fully	-3788
▁Chris	-3789
▁Contact	-3790
OW	-3791
▁exactly	-3792
CC	-3793
ancing	-3794
▁rates	-3795
▁science	-3796
IV	-3797
▁err	-3798
▁iPhone	-3799
▁Color	-3800
force	-3801
▁European	-3802
okes	-3803
order	-3804
▁Angeles	-3805
▁consult	-3806
ervation	-3807
▁economy	-3808
▁Central	-3809
dd	-3810
▁creating	-3811
set	-3812
iled	-3813
inn	-3814
▁Thank	-3815
▁Have	-3816
▁types	-3817
riate	-3818
▁fashion	-3819
▁Arch	-3820
▁pieces	-3821
comes	-3822
▁Ham	-3823
▁wine	-3824
▁indic	-3825
▁80	-3826
▁prot	-3827
▁competition	-3828
lying	-3829
▁Make	-3830
▁demon	-3831
▁Blue	-3832
▁deliver	-3833
▁<	-3834
atever	-3835
oma	-3836
▁bag	-3837
▁winning	-3838
phone	-3839
▁born	-3840
▁Su	-3841
ales	-3842
▁fat	-3843
pendent	-3844
▁Follow	-3845
▁DV	-3846
IP	-3847
▁pen	-3848
isco	-3849
▁Vol	-3850
▁altern	-3851
▁degree	-3852
▁French	-3853
▁immediately	-3854
▁relationship	-3855
lor	-3856
▁Plan	-3857
ander	-3858
▁definitely	-3859
▁considered	-3860
asy	-3861
noon	-3862
▁Date	-3863
▁girls	-3864
ributed	-3865
▁construction	-3866
▁scored	-3867
dule	-3868
icken	-3869
yan	-3870
▁camera	-3871
▁Bank	-3872
▁expert	-3873
▁thanks	-3874
▁Product	-3875
▁Main	-3876
▁lack	-3877
▁trust	-3878
▁lines	-3879
▁proud	-3880
rael	-3881
▁scient	-3882
ads	-3883
",	-3884
▁bask	-3885
▁Div	-3886
▁sort	-3887
ronic	-3888
inally	-3889
orage	-3890
▁Alex	-3891
▁Wood	-3892
ulations	-3893
▁avoid	-3894
▁difference	-3895
▁evening	-3896
ption	-3897
▁insurance	-3898
▁achieve	-3899
roid	-3900
▁Vide	-3901
▁gone	-3902
▁NY	-3903
aling	-3904
▁complex	-3905
▁Mex	-3906
▁plus	-3907
▁responsible	-3908
▁ver	-3909
fit	-3910
sych	-3911
outhern	-3912
berg	-3913
▁medic	-3914
▁active	-3915
ocolate	-3916
▁inform	-3917
▁loved	-3918
▁happened	-3919
▁beyond	-3920
▁activity	-3921
▁demand	-3922
▁Although	-3923
▁Jim	-3924
▁Sand	-3925
▁temper	-3926
met	-3927
▁subst	-3928
▁India	-3929
▁changed	-3930
▁Form	-3931
▁smart	-3932
IM	-3933
▁PR	-3934
▁Science	-3935
▁$3	-3936
▁disapp	-3937
▁People	-3938
▁enh	-3939
▁department	-3940
▁physical	-3941
hens	-3942
▁remain	-3943
▁guess	-3944
▁acqu	-3945
tion	-3946
▁volunte	-3947
▁Team	-3948
▁aren	-3949
▁cast	-3950
/4	-3951
▁Ok	-3952
▁Robert	-3953
▁trou	-3954
▁owner	-3955
▁expand	-3956
▁England	-3957
▁ing	-3958
▁letter	-3959
ears	-3960
esome	-3961
▁George	-3962
ki	-3963
allery	-3964
itect	-3965
▁Valley	-3966
▁solutions	-3967
oves	-3968
▁Foundation	-3969
itz	-3970
▁Virgin	-3971
▁followed	-3972
▁names	-3973
▁Jun	-3974
▁bul	-3975
ette	-3976
95	-3977
▁pair	-3978
▁launch	-3979
▁influ	-3980
▁benefit	-3981
▁Wil	-3982
▁CD	-3983
▁lots	-3984
iny	-3985
asp	-3986
▁path	-3987
arks	-3988
▁Tim	-3989
olute	-3990
▁slight	-3991
▁cards	-3992
▁thank	-3993
▁British	-3994
▁2006	-3995
▁Project	-3996
▁reflect	-3997
▁passed	-3998
▁leader	-3999
▁Australia	-4000
▁Louis	-4001
▁helping	-4002
illa	-4003
▁Under	-4004
▁driving	-4005
▁biggest	-4006
OP	-4007
▁calls	-4008
▁occur	-4009
▁Custom	-4010
▁laws	-4011
▁Offic	-4012
!!!	-4013
▁2,	-4014
▁Fore	-4015
▁stick	-4016
▁197	-4017
??	-4018
▁shopping	-4019
▁Ver	-4020
levision	-4021
▁beg	-4022
▁Ve	-4023
▁Hill	-4024
▁Hotel	-4025
RA	-4026
▁pressure	-4027
▁Join	-4028
▁clot	-4029
ss	-4030
▁cream	-4031
▁jump	-4032
▁Network	-4033
▁speak	-4034
▁pm	-4035
annel	-4036
▁er	-4037
TS	-4038
▁5.	-4039
You	-4040
gl	-4041
▁Mad	-4042
▁recipe	-4043
▁residents	-4044
icious	-4045
anging	-4046
0.	-4047
▁Game	-4048
rast	-4049
▁Power	-4050
▁hundred	-4051
win	-4052
vention	-4053
▁Jeff	-4054
▁instit	-4055
▁copy	-4056
▁Microsoft	-4057
▁sugar	-4058
tr	-4059
lements	-4060
▁reviews	-4061
▁Rad	-4062
isher	-4063
igan	-4064
▁Ber	-4065
lastname	-4066
▁rules	-4067
▁update	-4068
▁Israel	-4069
▁Christian	-4070
▁afternoon	-4071
▁challenge	-4072
▁devices	-4073
▁button	-4074
▁demonstr	-4075
▁Publ	-4076
oop	-4077
▁easier	-4078
▁Atl	-4079
nded	-4080
BA	-4081
▁partner	-4082
well	-4083
SP	-4084
▁graph	-4085
agn	-4086
▁spending	-4087
apter	-4088
▁onto	-4089
edy	-4090
▁videos	-4091
▁mis	-4092
ores	-4093
rief	-4094
▁nine	-4095
▁reduce	-4096
▁completed	-4097
▁scene	-4098
ails	-4099
ech	-4100
▁nature	-4101
▁Week	-4102
▁commit	-4103
▁announce	-4104
amic	-4105
▁instruct	-4106
ken	-4107
▁feeling	-4108
▁drop	-4109
▁bought	-4110
ij	-4111
▁Joe	-4112
▁closed	-4113
osition	-4114
▁although	-4115
gency	-4116
▁Att	-4117
het	-4118
▁Hum	-4119
▁adding	-4120
▁approp	-4121
▁seeing	-4122
▁comfortable	-4123
▁Profess	-4124
▁Yes	-4125
▁listed	-4126
▁shown	-4127
▁brows	-4128
▁Medic	-4129
▁exclus	-4130
▁29	-4131
▁max	-4132
ademic	-4133
▁posts	-4134
▁During	-4135
▁Card	-4136
ously	-4137
▁Management	-4138
▁Grand	-4139
▁profession	-4140
▁contain	-4141
▁wouldn	-4142
▁(3	-4143
FL	-4144
▁Bob	-4145
▁individuals	-4146
▁certainly	-4147
▁Water	-4148
▁analysis	-4149
▁Jul	-4150
▁Family	-4151
▁alone	-4152
▁cash	-4153
▁rank	-4154
ga	-4155
uce	-4156
▁Frank	-4157
ties	-4158
▁capital	-4159
▁Mass	-4160
aith	-4161
▁surround	-4162
▁organizations	-4163
▁Str	-4164
▁Ill	-4165
▁Online	-4166
men	-4167
▁normal	-4168
▁ice	-4169
▁defense	-4170
▁delivery	-4171
▁spons	-4172
▁larger	-4173
▁kick	-4174
dom	-4175
▁Sports	-4176
▁Mot	-4177
▁egg	-4178
▁prec	-4179
▁batter	-4180
▁31	-4181
▁spread	-4182
ls	-4183
▁legisl	-4184
▁exerc	-4185
▁increased	-4186
▁den	-4187
▁culture	-4188
lim	-4189
▁RE	-4190
▁excited	-4191
▁setting	-4192
▁90	-4193
▁Ter	-4194
rowd	-4195
▁Because	-4196
encies	-4197
▁strugg	-4198
▁entry	-4199
▁views	-4200
ustr	-4201
▁campus	-4202
▁Beach	-4203
olic	-4204
▁fem	-4205
▁Johnson	-4206
▁wat	-4207
▁Conference	-4208
▁highest	-4209
▁increasing	-4210
IG	-4211
▁Ty	-4212
▁NE	-4213
apers	-4214
▁strateg	-4215
antly	-4216
▁mission	-4217
▁tickets	-4218
▁behav	-4219
antic	-4220
istics	-4221
▁suit	-4222
▁occas	-4223
▁frequ	-4224
▁knows	-4225
ences	-4226
▁throw	-4227
▁length	-4228
▁fant	-4229
▁Library	-4230
▁winter	-4231
▁heavy	-4232
▁requirements	-4233
▁figure	-4234
▁Next	-4235
▁talent	-4236
▁measure	-4237
▁voice	-4238
▁signed	-4239
▁Take	-4240
▁List	-4241
▁Report	-4242
▁opened	-4243
aven	-4244
▁continues	-4245
▁taste	-4246
▁accur	-4247
gn	-4248
▁church	-4249
▁yesterday	-4250
rees	-4251
▁emb	-4252
▁som	-4253
▁victory	-4254
▁transport	-4255
▁recip	-4256
burg	-4257
▁clin	-4258
▁Bet	-4259
▁butter	-4260
▁Sing	-4261
▁Development	-4262
▁restaurant	-4263
▁package	-4264
rie	-4265
▁minute	-4266
▁station	-4267
ulty	-4268
▁liter	-4269
▁characters	-4270
▁neighbor	-4271
▁colors	-4272
▁Upd	-4273
itors	-4274
▁essential	-4275
▁advantage	-4276
▁Step	-4277
itar	-4278
▁Search	-4279
aming	-4280
lymp	-4281
▁doctor	-4282
uty	-4283
▁tips	-4284
state	-4285
▁fell	-4286
▁kept	-4287
▁welcome	-4288
▁shall	-4289
▁Mal	-4290
▁guests	-4291
▁ath	-4292
ari	-4293
▁guide	-4294
▁force	-4295
Re	-4296
outs	-4297
▁classic	-4298
▁rob	-4299
kins	-4300
▁guarant	-4301
▁relig	-4302
▁Tor	-4303
▁Award	-4304
porary	-4305
▁wedding	-4306
▁artist	-4307
pects	-4308
▁adjust	-4309
oston	-4310
works	-4311
▁background	-4312
▁basic	-4313
▁Committee	-4314
▁particularly	-4315
ini	-4316
▁damage	-4317
▁watching	-4318
▁train	-4319
▁investment	-4320
▁solid	-4321
▁effects	-4322
▁prefer	-4323
▁shipping	-4324
▁mer	-4325
▁poor	-4326
▁notice	-4327
▁catch	-4328
▁starts	-4329
▁Wall	-4330
▁IS	-4331
ustain	-4332
▁continued	-4333
▁basket	-4334
▁>>	-4335
lished	-4336
▁fish	-4337
PA	-4338
gal	-4339
fast	-4340
▁initial	-4341
▁Long	-4342
▁selected	-4343
atically	-4344
▁radio	-4345
obe	-4346
▁map	-4347
▁standards	-4348
45	-4349
▁fol	-4350
▁gra	-4351
atabase	-4352
▁winner	-4353
▁kitchen	-4354
cher	-4355
rd	-4356
ection	-4357
▁transfer	-4358
ologies	-4359
▁traffic	-4360
▁Social	-4361
▁appears	-4362
▁updated	-4363
▁collabor	-4364
place	-4365
oving	-4366
standing	-4367
orney	-4368
▁internet	-4369
▁ended	-4370
▁Mont	-4371
▁existing	-4372
▁appoint	-4373
incip	-4374
▁dinner	-4375
▁session	-4376
▁disp	-4377
▁street	-4378
▁truly	-4379
▁yards	-4380
▁01	-4381
orry	-4382
▁district	-4383
▁unit	-4384
CH	-4385
▁Olymp	-4386
▁killed	-4387
▁bath	-4388
mine	-4389
▁articles	-4390
▁powerful	-4391
▁journal	-4392
▁Full	-4393
▁pool	-4394
▁vs	-4395
▁Orig	-4396
▁70	-4397
▁35	-4398
cks	-4399
bert	-4400
ournament	-4401
▁older	-4402
▁driver	-4403
▁Dou	-4404
▁UN	-4405
orter	-4406
▁outd	-4407
▁afford	-4408
▁creative	-4409
▁presented	-4410
▁evidence	-4411
▁DVD	-4412
▁firstname	-4413
ka	-4414
▁basis	-4415
▁Fun	-4416
▁dang	-4417
acks	-4418
▁pros	-4419
▁models	-4420
15	-4421
oms	-4422
▁charges	-4423
ifts	-4424
▁ship	-4425
▁Cup	-4426
▁Fort	-4427
▁artists	-4428
▁salt	-4429
▁waiting	-4430
▁cru	-4431
active	-4432
cel	-4433
▁toward	-4434
▁Women	-4435
▁classes	-4436
▁approx	-4437
irection	-4438
ula	-4439
▁placed	-4440
▁schedule	-4441
▁Spring	-4442
▁remains	-4443
umber	-4444
▁produce	-4445
▁Ins	-4446
▁suppl	-4447
▁thousands	-4448
▁crowd	-4449
▁Elect	-4450
▁Wr	-4451
▁Note	-4452
▁OF	-4453
imin	-4454
▁agency	-4455
▁records	-4456
▁Thomas	-4457
▁chem	-4458
ixt	-4459
▁Jud	-4460
IA	-4461
EM	-4462
▁library	-4463
▁decor	-4464
▁covered	-4465
ooper	-4466
▁spirit	-4467
top	-4468
**	-4469
unately	-4470
▁AL	-4471
▁chair	-4472
▁AP	-4473
amm	-4474
imal	-4475
chan	-4476
▁ban	-4477
ading	-4478
▁paint	-4479
▁TO	-4480
▁dedicated	-4481
▁Society	-4482
▁Americans	-4483
gery	-4484
▁obvious	-4485
▁ID	-4486
▁secret	-4487
azz	-4488
▁reasons	-4489
▁Medical	-4490
▁absolute	-4491
oices	-4492
▁Both	-4493
ograp	-4494
alls	-4495
If	-4496
▁coffee	-4497
look	-4498
▁produced	-4499
ords	-4500
▁mill	-4501
▁Roy	-4502
▁compared	-4503
▁rich	-4504
▁Log	-4505
atures	-4506
▁ingred	-4507
▁Dig	-4508
ategy	-4509
▁refer	-4510
free	-4511
▁Ari	-4512
iest	-4513
▁Fil	-4514
▁Den	-4515
▁Real	-4516
▁machine	-4517
▁understanding	-4518
▁satis	-4519
▁Boston	-4520
UR	-4521
odes	-4522
▁learned	-4523
rep	-4524
▁communities	-4525
▁Richard	-4526
ulated	-4527
▁perhaps	-4528
▁Ohio	-4529
▁Jones	-4530
ifying	-4531
istan	-4532
▁adop	-4533
▁plays	-4534
miss	-4535
-9	-4536
▁32	-4537
▁leaving	-4538
▁Martin	-4539
-200	-4540
▁Stand	-4541
ownt	-4542
▁towards	-4543
▁stores	-4544
▁showing	-4545
▁showed	-4546
▁Another	-4547
LC	-4548
icing	-4549
▁cars	-4550
▁remind	-4551
istration	-4552
▁arr	-4553
▁Journal	-4554
▁discussion	-4555
▁2005	-4556
▁workers	-4557
/0	-4558
▁studies	-4559
▁assess	-4560
riage	-4561
▁scheduled	-4562
▁window	-4563
▁Fre	-4564
▁196	-4565
▁obtain	-4566
▁Only	-4567
TV	-4568
▁Town	-4569
life	-4570
▁contains	-4571
▁fill	-4572
▁garden	-4573
▁protection	-4574
▁sand	-4575
osure	-4576
▁Blog	-4577
▁Arts	-4578
▁Virginia	-4579
▁finding	-4580
gen	-4581
▁seconds	-4582
no	-4583
▁NC	-4584
aked	-4585
onents	-4586
▁agree	-4587
▁Jackson	-4588
▁shut	-4589
▁executive	-4590
▁grant	-4591
▁Museum	-4592
▁contest	-4593
▁Series	-4594
▁Men	-4595
inese	-4596
▁sch	-4597
xx	-4598
▁purpose	-4599
▁editor	-4600
▁stress	-4601
iences	-4602
▁Carolina	-4603
▁Hy	-4604
▁Penn	-4605
▁status	-4606
▁laun	-4607
kn	-4608
▁Mel	-4609
▁facilities	-4610
▁kid	-4611
Sh	-4612
▁rare	-4613
▁serving	-4614
itude	-4615
reek	-4616
▁regarding	-4617
ano	-4618
▁2012,	-4619
▁extremely	-4620
hem	-4621
iques	-4622
illage	-4623
▁shooting	-4624
88	-4625
▁league	-4626
ato	-4627
▁Jew	-4628
REE	-4629
agon	-4630
▁meaning	-4631
▁Jose	-4632
▁advance	-4633
▁stre	-4634
yer	-4635
▁injury	-4636
▁Williams	-4637
▁wire	-4638
▁corner	-4639
▁cart	-4640
▁chief	-4641
▁Def	-4642
▁Where	-4643
▁master	-4644
▁trail	-4645
▁sport	-4646
term	-4647
▁rain	-4648
▁Union	-4649
▁Haw	-4650
▁Pri	-4651
▁funds	-4652
vant	-4653
▁rooms	-4654
▁exciting	-4655
icted	-4656
▁Sa	-4657
ocked	-4658
▁technical	-4659
ersey	-4660
▁conven	-4661
▁proced	-4662
▁determin	-4663
DF	-4664
▁registered	-4665
ansas	-4666
ordin	-4667
mond	-4668
oos	-4669
itness	-4670
33	-4671
▁Cook	-4672
▁virt	-4673
▁Technology	-4674
▁Author	-4675
▁memory	-4676
ampionship	-4677
▁forget	-4678
▁tables	-4679
▁medium	-4680
▁happens	-4681
▁stream	-4682
▁appropriate	-4683
uries	-4684
▁Light	-4685
▁songs	-4686
rial	-4687
▁CEO	-4688
▁citiz	-4689
icon	-4690
▁awesome	-4691
▁connection	-4692
▁famous	-4693
▁Video	-4694
▁Pac	-4695
▁Engine	-4696
▁critical	-4697
▁developing	-4698
▁plenty	-4699
-10	-4700
▁Wild	-4701
▁keeping	-4702
▁epis	-4703
▁tough	-4704
▁television	-4705
overy	-4706
alog	-4707
▁NOT	-4708
▁animals	-4709
craft	-4710
vere	-4711
dy	-4712
care	-4713
▁estim	-4714
▁Steve	-4715
▁Charl	-4716
▁cheese	-4717
▁CA	-4718
▁peace	-4719
▁nove	-4720
▁bright	-4721
▁primary	-4722
▁north	-4723
arrant	-4724
▁initi	-4725
pan	-4726
▁storage	-4727
);	-4728
▁Start	-4729
▁charged	-4730
▁returned	-4731
ulate	-4732
▁whatever	-4733
▁civil	-4734
▁ride	-4735
▁surface	-4736
▁teaching	-4737
▁survey	-4738
▁bowl	-4739
▁steps	-4740
▁3,	-4741
▁Tre	-4742
▁client	-4743
▁motor	-4744
▁scr	-4745
▁Ryan	-4746
▁election	-4747
▁Mer	-4748
west	-4749
▁fif	-4750
▁earn	-4751
▁battle	-4752
▁somew	-4753
▁audience	-4754
semb	-4755
▁Way	-4756
ishes	-4757
LA	-4758
▁eval	-4759
▁south	-4760
▁emot	-4761
▁joined	-4762
▁2012.	-4763
▁shape	-4764
▁har	-4765
▁Page	-4766
▁server	-4767
ae	-4768
eless	-4769
▁county	-4770
▁useful	-4771
iverse	-4772
▁Senate	-4773
unning	-4774
▁electric	-4775
▁cris	-4776
ements	-4777
▁remove	-4778
▁magazine	-4779
▁Old	-4780
ayer	-4781
OO	-4782
sequ	-4783
orthern	-4784
edia	-4785
▁incred	-4786
▁trial	-4787
while	-4788
▁Cre	-4789
MS	-4790
▁Their	-4791
▁scen	-4792
▁Peter	-4793
▁Download	-4794
▁Jon	-4795
▁tree	-4796
olars	-4797
▁nom	-4798
acity	-4799
▁ju	-4800
▁established	-4801
▁patient	-4802
oles	-4803
▁Di	-4804
▁greater	-4805
▁uns	-4806
▁operations	-4807
▁bird	-4808
but	-4809
▁raised	-4810
▁associated	-4811
▁readers	-4812
▁hearing	-4813
▁strength	-4814
roy	-4815
▁secure	-4816
▁sources	-4817
▁coverage	-4818
rehens	-4819
▁Hospital	-4820
▁century	-4821
▁putting	-4822
enses	-4823
▁veter	-4824
▁Republican	-4825
▁repe	-4826
▁format	-4827
▁funding	-4828
▁Lin	-4829
▁reached	-4830
____	-4831
▁Jes	-4832
▁brown	-4833
ero	-4834
▁thread	-4835
▁breat	-4836
13	-4837
▁menu	-4838
night	-4839
?"	-4840
▁veget	-4841
la	-4842
▁profile	-4843
▁500	-4844
▁Security	-4845
zen	-4846
▁Que	-4847
▁tim	-4848
▁facility	-4849
▁chocolate	-4850
amin	-4851
▁Tur	-4852
▁Rights	-4853
▁distrib	-4854
▁Wal	-4855
▁topic	-4856
▁missing	-4857
bing	-4858
▁markets	-4859
▁Africa	-4860
▁leaves	-4861
▁direction	-4862
▁brings	-4863
rick	-4864
▁brain	-4865
”.	-4866
▁Its	-4867
▁friendly	-4868
▁resident	-4869
▁45	-4870
▁flu	-4871
▁upgr	-4872
▁anti	-4873
nergy	-4874
There	-4875
▁lose	-4876
▁income	-4877
▁prepared	-4878
▁testing	-4879
ita	-4880
▁supply	-4881
point	-4882
arge	-4883
▁cab	-4884
▁smooth	-4885
elly	-4886
▁stars	-4887
▁Western	-4888
▁Nor	-4889
▁Sher	-4890
▁Head	-4891
▁gain	-4892
▁2000	-4893
▁Mur	-4894
▁ge	-4895
▁Chinese	-4896
ius	-4897
▁thr	-4898
▁sounds	-4899
ste	-4900
▁HD	-4901
▁calling	-4902
▁monitor	-4903
22	-4904
65	-4905
idel	-4906
▁requires	-4907
▁ON	-4908
atively	-4909
ht	-4910
going	-4911
▁spl	-4912
▁AT	-4913
▁selling	-4914
▁Brand	-4915
▁limit	-4916
igned	-4917
▁ir	-4918
▁despite	-4919
cell	-4920
part	-4921
▁advanced	-4922
▁Keep	-4923
▁population	-4924
▁operating	-4925
▁Aud	-4926
▁experienced	-4927
▁info	-4928
▁manufacturer	-4929
▁Boy	-4930
▁Connect	-4931
▁mist	-4932
▁meant	-4933
▁fav	-4934
▁Earth	-4935
▁Lee	-4936
▁aim	-4937
▁register	-4938
▁slightly	-4939
▁Build	-4940
inch	-4941
▁documents	-4942
▁environmental	-4943
▁boo	-4944
iliar	-4945
▁Organ	-4946
gu	-4947
▁notes	-4948
▁leadership	-4949
fr	-4950
SA	-4951
▁Columb	-4952
▁independent	-4953
ctors	-4954
uke	-4955
▁movies	-4956
▁shel	-4957
▁guest	-4958
away	-4959
▁asking	-4960
ommod	-4961
▁Live	-4962
▁allowing	-4963
cean	-4964
▁Michigan	-4965
ola	-4966
pective	-4967
▁Administr	-4968
▁Chief	-4969
▁Price	-4970
▁claims	-4971
▁bra	-4972
▁Party	-4973
▁label	-4974
▁handle	-4975
▁spokes	-4976
▁$5	-4977
lands	-4978
▁updates	-4979
▁teacher	-4980
▁Fund	-4981
▁Children	-4982
▁smaller	-4983
ourney	-4984
▁Fair	-4985
▁spect	-4986
▁Federal	-4987
▁||	-4988
▁relax	-4989
arsh	-4990
▁advent	-4991
▁rap	-4992
▁hits	-4993
bre	-4994
▁raise	-4995
▁panel	-4996
otten	-4997
44	-4998
estic	-4999
▁youth	-5000
▁central	-5001
van	-5002
▁challenges	-5003
acement	-5004
▁caused	-5005
▁separate	-5006
▁100%	-5007
35	-5008
▁listen	-5009
▁Watch	-5010
▁brief	-5011
▁actual	-5012
▁committed	-5013
▁Ol	-5014
reens	-5015
!)	-5016
▁officer	-5017
▁seat	-5018
▁mur	-5019
ademy	-5020
▁Vict	-5021
▁Clin	-5022
▁Georg	-5023
▁AND	-5024
▁movement	-5025
▁beauty	-5026
▁featured	-5027
▁AC	-5028
▁previously	-5029
▁fuel	-5030
▁sharing	-5031
▁conv	-5032
▁Pack	-5033
▁Tour	-5034
hop	-5035
▁researc	-5036
▁theme	-5037
ena	-5038
▁architect	-5039
secut	-5040
▁Walk	-5041
▁parking	-5042
▁minor	-5043
▁FREE	-5044
▁Access	-5045
▁earned	-5046
▁opinion	-5047
▁ran	-5048
▁weap	-5049
▁Android	-5050
▁visitors	-5051
atre	-5052
▁database	-5053
▁Daily	-5054
▁Young	-5055
▁Welcome	-5056
▁teachers	-5057
▁upcoming	-5058
▁passion	-5059
▁Exper	-5060
▁assistance	-5061
ushed	-5062
▁Mic	-5063
▁polic	-5064
▁managed	-5065
rist	-5066
▁forms	-5067
▁Photo	-5068
with	-5069
▁storm	-5070
▁agreement	-5071
kin	-5072
▁walking	-5073
!"	-5074
atin	-5075
▁athlet	-5076
▁academic	-5077
▁Francisco	-5078
▁enjoyed	-5079
▁filled	-5080
▁educational	-5081
▁sav	-5082
▁earth	-5083
▁courses	-5084
▁caught	-5085
▁multi	-5086
edom	-5087
icip	-5088
asure	-5089
▁appeared	-5090
ait	-5091
▁dance	-5092
▁becoming	-5093
▁approved	-5094
▁locations	-5095
▁strategy	-5096
▁shared	-5097
▁parties	-5098
▁photograph	-5099
▁rid	-5100
▁chicken	-5101
▁manage	-5102
▁concept	-5103
77	-5104
▁Oper	-5105
▁flex	-5106
▁flat	-5107
▁ingredients	-5108
▁MS	-5109
▁buying	-5110
▁stret	-5111
abilities	-5112
▁CH	-5113
▁fee	-5114
▁Soft	-5115
▁Maybe	-5116
▁otherwise	-5117
▁Land	-5118
▁password	-5119
▁Mid	-5120
▁Division	-5121
▁Pay	-5122
▁France	-5123
▁tight	-5124
▁desk	-5125
New	-5126
▁SP	-5127
19	-5128
eal	-5129
▁audio	-5130
16	-5131
▁sauce	-5132
osen	-5133
ivered	-5134
▁tele	-5135
▁Er	-5136
▁Mat	-5137
▁Mexico	-5138
85	-5139
▁approximately	-5140
▁iPad	-5141
UT	-5142
▁honor	-5143
▁Inf	-5144
▁Set	-5145
▁helpful	-5146
▁controll	-5147
▁corporate	-5148
▁consumers	-5149
▁Squ	-5150
▁Colorado	-5151
▁sets	-5152
▁birthday	-5153
▁Energy	-5154
arently	-5155
▁balance	-5156
▁combined	-5157
▁Before	-5158
▁married	-5159
▁wearing	-5160
▁alle	-5161
how	-5162
▁Festival	-5163
▁unless	-5164
▁determine	-5165
32	-5166
ellig	-5167
▁purs	-5168
▁faith	-5169
▁shots	-5170
▁fabric	-5171
▁arm	-5172
▁missed	-5173
▁van	-5174
▁diagn	-5175
▁tonight	-5176
▁Sar	-5177
▁Lead	-5178
▁esc	-5179
▁counter	-5180
▁mo	-5181
▁fold	-5182
▁purchased	-5183
hy	-5184
▁Person	-5185
ferences	-5186
▁changing	-5187
ris	-5188
▁shoes	-5189
▁Learn	-5190
▁Those	-5191
▁twe	-5192
aks	-5193
▁cas	-5194
rooms	-5195
▁busy	-5196
▁colle	-5197
▁remaining	-5198
▁experiences	-5199
▁seemed	-5200
BI	-5201
▁Id	-5202
▁willing	-5203
igation	-5204
▁Adv	-5205
▁subscrib	-5206
ager	-5207
owntown	-5208
▁Die	-5209
▁sister	-5210
ycl	-5211
▁professionals	-5212
▁furn	-5213
▁foreign	-5214
▁ring	-5215
list	-5216
▁adults	-5217
▁dollars	-5218
▁6.	-5219
14	-5220
▁hun	-5221
paper	-5222
▁Support	-5223
▁apart	-5224
hab	-5225
rehensive	-5226
▁Help	-5227
hew	-5228
▁bac	-5229
▁Ext	-5230
▁Whether	-5231
ship	-5232
fortunately	-5233
▁Lim	-5234
OV	-5235
▁Rev	-5236
▁Government	-5237
▁beach	-5238
▁debut	-5239
iser	-5240
▁princip	-5241
MA	-5242
ucks	-5243
▁Cath	-5244
▁transl	-5245
▁establish	-5246
▁reality	-5247
▁Four	-5248
▁concerns	-5249
▁:)	-5250
▁sustain	-5251
yard	-5252
▁Inn	-5253
▁Bud	-5254
▁Secret	-5255
NA	-5256
▁plants	-5257
lywood	-5258
▁History	-5259
▁Pan	-5260
▁2004	-5261
▁boys	-5262
▁rat	-5263
▁mostly	-5264
▁draft	-5265
▁animal	-5266
▁sea	-5267
▁society	-5268
They	-5269
▁Quest	-5270
▁eating	-5271
weet	-5272
anda	-5273
▁incor	-5274
▁MP	-5275
▁ideal	-5276
▁Gal	-5277
▁investigation	-5278
CE	-5279
▁twice	-5280
▁Daniel	-5281
▁propos	-5282
▁poll	-5283
▁sty	-5284
razy	-5285
▁Rest	-5286
▁participate	-5287
▁structure	-5288
otes	-5289
▁Tit	-5290
▁estate	-5291
coh	-5292
▁Invest	-5293
▁corn	-5294
▁milk	-5295
▁Prov	-5296
▁launched	-5297
▁focused	-5298
▁picked	-5299
▁accommod	-5300
▁Opt	-5301
24	-5302
▁combination	-5303
▁Did	-5304
▁experts	-5305
ipl	-5306
▁Ariz	-5307
▁Place	-5308
▁4,	-5309
ulous	-5310
▁numerous	-5311
ENT	-5312
▁cloud	-5313
▁Const	-5314
▁African	-5315
▁holding	-5316
orters	-5317
▁efficient	-5318
▁decide	-5319
▁lunch	-5320
▁clim	-5321
▁resist	-5322
een	-5323
▁administration	-5324
▁jun	-5325
▁Mo	-5326
▁fly	-5327
▁tun	-5328
▁units	-5329
▁Hun	-5330
▁Cat	-5331
iminal	-5332
▁thoughts	-5333
ighter	-5334
▁payment	-5335
▁core	-5336
IR	-5337
▁practices	-5338
▁cable	-5339
▁0.	-5340
inations	-5341
▁becomes	-5342
▁Hope	-5343
▁Coast	-5344
▁YOU	-5345
▁Southern	-5346
ya	-5347
▁IP	-5348
▁Somet	-5349
▁surgery	-5350
▁entertainment	-5351
.|	-5352
▁cry	-5353
▁row	-5354
▁generally	-5355
▁Ell	-5356
▁basketball	-5357
▁eth	-5358
▁Canad	-5359
usion	-5360
▁Girl	-5361
▁explore	-5362
-12	-5363
essions	-5364
▁Middle	-5365
▁edge	-5366
iture	-5367
ocket	-5368
▁labor	-5369
▁Students	-5370
▁Ut	-5371
cont	-5372
ushing	-5373
▁Santa	-5374
▁exercise	-5375
Cl	-5376
▁$4	-5377
▁orders	-5378
▁accident	-5379
▁plastic	-5380
known	-5381
eline	-5382
▁Tenn	-5383
▁calc	-5384
▁commission	-5385
▁psych	-5386
cles	-5387
▁Dev	-5388
▁cities	-5389
▁majority	-5390
▁tomorrow	-5391
▁faculty	-5392
▁inches	-5393
▁diet	-5394
▁suspect	-5395
▁commitment	-5396
icians	-5397
▁vehicles	-5398
▁teen	-5399
▁mechan	-5400
▁harm	-5401
▁square	-5402
▁proposed	-5403
uzz	-5404
appy	-5405
.'	-5406
ye	-5407
▁Night	-5408
▁Cam	-5409
▁arrested	-5410
▁Three	-5411
iat	-5412
▁Games	-5413
▁installed	-5414
▁university	-5415
▁described	-5416
▁sy	-5417
▁Kent	-5418
▁micro	-5419
eed	-5420
▁anywhere	-5421
UN	-5422
▁metal	-5423
arp	-5424
▁neighborhood	-5425
▁tow	-5426
aylor	-5427
▁Does	-5428
▁Andrew	-5429
ocal	-5430
66	-5431
▁bike	-5432
astern	-5433
▁designs	-5434
▁Aff	-5435
▁Room	-5436
OC	-5437
▁sides	-5438
▁featuring	-5439
▁decisions	-5440
▁Little	-5441
▁writer	-5442
inct	-5443
berry	-5444
▁noted	-5445
aded	-5446
▁ang	-5447
▁Inte	-5448
▁deals	-5449
season	-5450
▁officers	-5451
▁Ce	-5452
▁Georgia	-5453
▁clearly	-5454
▁Cost	-5455
▁Word	-5456
▁Disc	-5457
▁worry	-5458
▁Jenn	-5459
▁cooking	-5460
▁NFL	-5461
▁graduate	-5462
▁Prote	-5463
▁promote	-5464
▁swim	-5465
ups	-5466
oman	-5467
▁tells	-5468
▁Friend	-5469
▁tend	-5470
PM	-5471
abet	-5472
iency	-5473
▁Academy	-5474
under	-5475
▁Gen	-5476
tenance	-5477
▁fear	-5478
▁removed	-5479
rs	-5480
▁absolutely	-5481
▁·	-5482
200	-5483
▁(4	-5484
▁begins	-5485
▁Field	-5486
▁responsibility	-5487
▁emergency	-5488
nel	-5489
▁300	-5490
lets	-5491
▁Hard	-5492
▁delivered	-5493
▁Meet	-5494
▁edition	-5495
awn	-5496
▁failed	-5497
▁consid	-5498
irmed	-5499
▁generation	-5500
▁instr	-5501
▁worldwide	-5502
▁Bas	-5503
▁Nick	-5504
18	-5505
fol	-5506
▁golf	-5507
▁Second	-5508
▁mine	-5509
▁3-	-5510
▁species	-5511
▁prison	-5512
▁Kore	-5513
▁honest	-5514
▁topics	-5515
▁Hen	-5516
which	-5517
▁bringing	-5518
▁dogs	-5519
▁arrived	-5520
▁seeking	-5521
▁2011,	-5522
▁crew	-5523
ression	-5524
▁column	-5525
▁Hand	-5526
▁trees	-5527
oons	-5528
▁confidence	-5529
▁ign	-5530
▁Cross	-5531
▁debt	-5532
▁category	-5533
▁hundreds	-5534
▁push	-5535
▁Romney	-5536
rene	-5537
iami	-5538
iration	-5539
▁Manager	-5540
▁sitting	-5541
▁Jo	-5542
▁Plus	-5543
▁marriage	-5544
PR	-5545
uts	-5546
----	-5547
ucle	-5548
▁error	-5549
▁elements	-5550
▁Econom	-5551
▁neck	-5552
▁Bi	-5553
▁Van	-5554
▁bread	-5555
▁values	-5556
▁vision	-5557
▁Gar	-5558
▁warrant	-5559
▁distance	-5560
oted	-5561
▁fruit	-5562
▁Avenue	-5563
▁eventually	-5564
▁sequ	-5565
▁Saf	-5566
▁appearance	-5567
▁Jersey	-5568
▁5,	-5569
▁accompl	-5570
▁Lab	-5571
gas	-5572
▁sexual	-5573
▁expensive	-5574
▁consumer	-5575
▁intended	-5576
lyn	-5577
▁Forum	-5578
▁bat	-5579
tered	-5580
▁alternative	-5581
▁Sup	-5582
▁Box	-5583
▁cuts	-5584
SE	-5585
eries	-5586
▁encourage	-5587
▁female	-5588
▁rule	-5589
▁meat	-5590
▁behavior	-5591
▁improved	-5592
▁guard	-5593
▁copyright	-5594
▁plug	-5595
obs	-5596
water	-5597
▁Test	-5598
▁pregn	-5599
▁committee	-5600
▁parent	-5601
▁tro	-5602
▁issued	-5603
▁inspired	-5604
prise	-5605
pet	-5606
▁advertising	-5607
▁policies	-5608
onent	-5609
▁switch	-5610
▁Brad	-5611
▁degrees	-5612
▁mentioned	-5613
opp	-5614
▁vir	-5615
col	-5616
▁planned	-5617
▁provider	-5618
▁tournament	-5619
▁exclusive	-5620
▁crime	-5621
▁2011.	-5622
▁Human	-5623
▁rise	-5624
▁methods	-5625
▁truth	-5626
▁Fox	-5627
▁doubt	-5628
▁feels	-5629
▁Gra	-5630
▁visiting	-5631
▁thick	-5632
▁capacity	-5633
text	-5634
▁Italian	-5635
▁Far	-5636
▁discover	-5637
▁frame	-5638
▁Tem	-5639
actions	-5640
▁familiar	-5641
▁truck	-5642
imp	-5643
ram	-5644
▁Contin	-5645
▁rom	-5646
▁flight	-5647
▁cake	-5648
vy	-5649
▁temperature	-5650
▁tack	-5651
▁Global	-5652
▁operation	-5653
▁supposed	-5654
▁forced	-5655
▁trouble	-5656
▁7.	-5657
ician	-5658
ker	-5659
ribe	-5660
▁Master	-5661
hand	-5662
▁techniques	-5663
▁signs	-5664
▁Bell	-5665
▁cells	-5666
oup	-5667
arian	-5668
uction	-5669
▁GM	-5670
▁revenue	-5671
▁highlight	-5672
▁burn	-5673
▁citizens	-5674
▁ticket	-5675
As	-5676
▁sector	-5677
▁pepper	-5678
IF	-5679
▁Guide	-5680
adium	-5681
spe	-5682
▁Local	-5683
aser	-5684
?”	-5685
alty	-5686
AY	-5687
ATE	-5688
▁performed	-5689
▁millions	-5690
▁license	-5691
weight	-5692
▁Tick	-5693
▁Arizona	-5694
▁reference	-5695
▁communication	-5696
▁Carl	-5697
▁broadcast	-5698
▁2013.	-5699
SU	-5700
▁whom	-5701
▁fantastic	-5702
▁ends	-5703
▁sad	-5704
umin	-5705
ml	-5706
▁Harr	-5707
▁journey	-5708
▁detailed	-5709
▁fees	-5710
▁comprehensive	-5711
▁Max	-5712
▁pitch	-5713
ias	-5714
▁Through	-5715
azon	-5716
▁Ray	-5717
▁therap	-5718
profit	-5719
▁Key	-5720
▁yes	-5721
▁lux	-5722
▁Charles	-5723
▁totally	-5724
ora	-5725
▁restaurants	-5726
▁(5	-5727
▁Ken	-5728
▁delicious	-5729
▁Ul	-5730
▁vacation	-5731
onn	-5732
▁agreed	-5733
▁agencies	-5734
17	-5735
ria	-5736
▁quiet	-5737
izz	-5738
▁cheap	-5739
foot	-5740
▁task	-5741
▁films	-5742
▁08	-5743
▁Visit	-5744
▁sup	-5745
atoes	-5746
▁Indust	-5747
▁depart	-5748
▁presence	-5749
▁craft	-5750
▁Comments	-5751
▁aid	-5752
▁Cast	-5753
▁Broad	-5754
▁extensive	-5755
▁Taylor	-5756
illy	-5757
TH	-5758
What	-5759
▁Hou	-5760
▁Turn	-5761
▁Miami	-5762
▁kill	-5763
CA	-5764
201	-5765
▁automatically	-5766
▁Data	-5767
▁Lind	-5768
ender	-5769
▁resource	-5770
▁pal	-5771
▁discovered	-5772
ancer	-5773
otic	-5774
▁prepare	-5775
▁losing	-5776
▁vent	-5777
uable	-5778
▁Current	-5779
▁bond	-5780
▁supported	-5781
acle	-5782
▁Minnes	-5783
related	-5784
▁2003	-5785
poration	-5786
▁Ma	-5787
osis	-5788
oking	-5789
▁adult	-5790
▁taxes	-5791
▁Germany	-5792
gend	-5793
EE	-5794
▁lived	-5795
▁tests	-5796
▁fellow	-5797
▁valid	-5798
gs	-5799
▁researchers	-5800
▁AR	-5801
right	-5802
abled	-5803
▁faster	-5804
ployment	-5805
GB	-5806
▁33	-5807
▁forg	-5808
▁Summer	-5809
ien	-5810
hus	-5811
ensions	-5812
▁Low	-5813
▁covers	-5814
▁Mountain	-5815
▁compar	-5816
Americ	-5817
▁Expl	-5818
▁Awards	-5819
▁recommended	-5820
▁ven	-5821
▁broken	-5822
▁lovely	-5823
▁Kim	-5824
▁leads	-5825
▁musical	-5826
endar	-5827
idden	-5828
resp	-5829
▁dyn	-5830
▁Digital	-5831
▁15,	-5832
▁violence	-5833
▁websites	-5834
▁Still	-5835
▁Mobile	-5836
▁6,	-5837
▁der	-5838
▁fro	-5839
▁recorded	-5840
kes	-5841
iner	-5842
alled	-5843
▁alleged	-5844
▁coast	-5845
▁Paris	-5846
ixture	-5847
▁Hom	-5848
ternal	-5849
inois	-5850
▁dish	-5851
▁novel	-5852
lete	-5853
▁Environment	-5854
▁12,	-5855
▁stopped	-5856
▁restr	-5857
▁gather	-5858
▁Ep	-5859
icit	-5860
otal	-5861
▁Using	-5862
▁innovative	-5863
▁exchange	-5864
▁rub	-5865
can	-5866
▁hero	-5867
▁10,	-5868
▁talks	-5869
▁Travel	-5870
▁optim	-5871
▁properties	-5872
cohol	-5873
road	-5874
▁introduced	-5875
My	-5876
▁Minnesota	-5877
▁End	-5878
▁owned	-5879
emporary	-5880
idays	-5881
▁visual	-5882
mosp	-5883
▁11,	-5884
▁debate	-5885
▁dropped	-5886
▁enhance	-5887
▁Brian	-5888
▁hasn	-5889
▁filed	-5890
▁hoping	-5891
▁contr	-5892
▁config	-5893
▁lock	-5894
▁turns	-5895
▁195	-5896
ache	-5897
FC	-5898
bour	-5899
▁measures	-5900
real	-5901
▁Tig	-5902
▁permission	-5903
▁Radio	-5904
▁outdoor	-5905
▁fifth	-5906
▁gifts	-5907
▁pun	-5908
▁Span	-5909
▁Lt	-5910
▁Sat	-5911
▁mouth	-5912
▁Creat	-5913
▁Kat	-5914
oors	-5915
▁fle	-5916
▁arrang	-5917
inson	-5918
▁funny	-5919
ailability	-5920
▁concerned	-5921
▁closer	-5922
▁Japanese	-5923
▁DC	-5924
▁situ	-5925
▁Jesus	-5926
▁nor	-5927
▁minimum	-5928
iors	-5929
▁dur	-5930
ev	-5931
adel	-5932
▁boat	-5933
▁Store	-5934
II	-5935
▁speech	-5936
▁participants	-5937
For	-5938
hors	-5939
▁Wat	-5940
▁Tech	-5941
▁meal	-5942
▁18,	-5943
▁pounds	-5944
TA	-5945
▁folks	-5946
▁Centre	-5947
▁native	-5948
aped	-5949
▁command	-5950
▁Rod	-5951
▁36	-5952
▁regional	-5953
anna	-5954
▁Dom	-5955
mes	-5956
▁cultural	-5957
▁candidates	-5958
verse	-5959
▁browser	-5960
▁48	-5961
forcement	-5962
▁submit	-5963
▁anc	-5964
ampion	-5965
▁housing	-5966
▁detect	-5967
▁Victor	-5968
▁drivers	-5969
▁Dar	-5970
▁Pot	-5971
▁identify	-5972
▁analy	-5973
▁surprise	-5974
▁incident	-5975
▁cro	-5976
▁mel	-5977
▁Bra	-5978
▁ordered	-5979
▁Drive	-5980
▁returns	-5981
▁drugs	-5982
ala	-5983
▁bigger	-5984
▁baseball	-5985
▁ped	-5986
lights	-5987
▁factors	-5988
aska	-5989
▁flavor	-5990
▁confident	-5991
isters	-5992
▁replace	-5993
owa	-5994
▁pleased	-5995
▁conversation	-5996
▁Chair	-5997
▁Davis	-5998
▁20,	-5999
▁Hor	-6000
▁Kevin	-6001
erg	-6002
▁injuries	-6003
▁Ash	-6004
ench	-6005
▁tag	-6006
▁mode	-6007
▁pump	-6008
▁confirm	-6009
▁Staff	-6010
▁Illinois	-6011
▁council	-6012
mont	-6013
▁maximum	-6014
▁competitive	-6015
▁studio	-6016
▁breakfast	-6017
▁19,	-6018
▁awards	-6019
▁unc	-6020
▁Executive	-6021
▁settings	-6022
▁Jr	-6023
▁judge	-6024
RL	-6025
▁Bush	-6026
▁messages	-6027
▁occasion	-6028
▁seek	-6029
▁tea	-6030
bu	-6031
▁ages	-6032
▁tradition	-6033
▁Minister	-6034
▁fields	-6035
▁possibly	-6036
▁Leg	-6037
▁figures	-6038
▁Site	-6039
▁climate	-6040
▁17,	-6041
▁jew	-6042
▁flour	-6043
iana	-6044
▁cutting	-6045
uses	-6046
▁feedback	-6047
▁specifically	-6048
lah	-6049
▁episode	-6050
▁relevant	-6051
▁7,	-6052
▁Pow	-6053
▁Pop	-6054
▁mort	-6055
▁plate	-6056
▁hardware	-6057
▁receiving	-6058
▁arts	-6059
▁candidate	-6060
▁Kenn	-6061
rier	-6062
cluding	-6063
igr	-6064
▁Foot	-6065
▁greatest	-6066
ington	-6067
▁WH	-6068
inet	-6069
▁soph	-6070
gage	-6071
▁Ford	-6072
▁scholars	-6073
eria	-6074
▁waste	-6075
GE	-6076
▁celebrate	-6077
anche	-6078
▁Houston	-6079
▁Lord	-6080
▁Australian	-6081
▁Prem	-6082
▁Bul	-6083
▁sam	-6084
▁holds	-6085
▁grab	-6086
▁invent	-6087
Pro	-6088
▁gear	-6089
▁Miller	-6090
▁Fed	-6091
▁answers	-6092
▁Canadian	-6093
TC	-6094
▁keeps	-6095
▁photograp	-6096
▁09	-6097
▁rand	-6098
cue	-6099
▁wal	-6100
▁teach	-6101
No	-6102
▁Mult	-6103
ictions	-6104
▁Farm	-6105
▁Pass	-6106
▁Control	-6107
▁battery	-6108
ario	-6109
▁satisf	-6110
Sp	-6111
▁recovery	-6112
▁Ask	-6113
▁hur	-6114
▁OS	-6115
▁Sus	-6116
upper	-6117
▁Instead	-6118
▁Pacific	-6119
▁recipes	-6120
▁presentation	-6121
64	-6122
98	-6123
▁21,	-6124
▁chosen	-6125
irts	-6126
▁Try	-6127
▁crazy	-6128
▁landsc	-6129
▁realize	-6130
▁confirmed	-6131
phas	-6132
▁steel	-6133
▁cute	-6134
▁instructions	-6135
▁)	-6136
▁oven	-6137
▁die	-6138
▁blow	-6139
2)	-6140
eration	-6141
▁Comple	-6142
▁FOR	-6143
eah	-6144
▁NEW	-6145
▁beer	-6146
▁worse	-6147
▁Senior	-6148
▁Student	-6149
▁Hollywood	-6150
▁75	-6151
▁Rose	-6152
▁apps	-6153
▁volume	-6154
▁Cir	-6155
▁forces	-6156
▁impl	-6157
▁Diego	-6158
ERS	-6159
▁meetings	-6160
▁houses	-6161
estyle	-6162
▁rough	-6163
▁Members	-6164
▁Share	-6165
▁flowers	-6166
▁actions	-6167
▁Communic	-6168
▁Want	-6169
▁30,	-6170
▁serves	-6171
athan	-6172
erves	-6173
Story	-6174
iated	-6175
▁entered	-6176
star	-6177
▁Assist	-6178
ua	-6179
▁rot	-6180
mar	-6181
ogs	-6182
▁lights	-6183
▁reform	-6184
▁shares	-6185
▁explain	-6186
apes	-6187
iamond	-6188
▁worst	-6189
Bl	-6190
▁amb	-6191
▁$10	-6192
▁Kansas	-6193
udden	-6194
▁wel	-6195
▁discount	-6196
osit	-6197
▁unf	-6198
▁dram	-6199
▁index	-6200
▁?	-6201
▁mir	-6202
▁Though	-6203
▁bon	-6204
▁FA	-6205
▁random	-6206
▁silver	-6207
▁telling	-6208
▁offensive	-6209
aduate	-6210
▁standing	-6211
▁16,	-6212
▁dial	-6213
▁mental	-6214
▁relationships	-6215
▁posting	-6216
▁MD	-6217
ouch	-6218
▁Buy	-6219
agement	-6220
rip	-6221
▁Hon	-6222
▁originally	-6223
▁advoc	-6224
▁hopes	-6225
▁Seattle	-6226
▁element	-6227
▁accepted	-6228
▁paying	-6229
▁decades	-6230
▁02	-6231
LY	-6232
And	-6233
▁Applic	-6234
▁electronic	-6235
irty	-6236
▁dates	-6237
▁spr	-6238
▁applied	-6239
▁(200	-6240
▁jack	-6241
▁8,	-6242
▁(8	-6243
▁connected	-6244
allas	-6245
onym	-6246
78	-6247
▁stated	-6248
umes	-6249
▁guitar	-6250
utch	-6251
tra	-6252
▁chemical	-6253
pass	-6254
▁retire	-6255
▁Run	-6256
lahoma	-6257
comm	-6258
▁Vers	-6259
▁liqu	-6260
▁13,	-6261
▁Silver	-6262
▁critic	-6263
▁appreciate	-6264
▁Ira	-6265
▁cra	-6266
bar	-6267
▁14,	-6268
▁poly	-6269
▁Rog	-6270
▁Iran	-6271
▁ment	-6272
▁grade	-6273
▁stretch	-6274
▁Phone	-6275
▁34	-6276
▁favour	-6277
▁supporting	-6278
▁Rand	-6279
▁adds	-6280
sembly	-6281
▁Oak	-6282
▁Professor	-6283
▁positions	-6284
odies	-6285
▁struct	-6286
uclear	-6287
▁hate	-6288
▁Right	-6289
▁monthly	-6290
inem	-6291
▁registration	-6292
▁mini	-6293
▁cups	-6294
obby	-6295
▁Cred	-6296
▁distribution	-6297
▁22,	-6298
▁wid	-6299
▁CN	-6300
▁hang	-6301
▁AS	-6302
▁ED	-6303
▁surf	-6304
ffect	-6305
▁nurs	-6306
▁technologies	-6307
orough	-6308
ican	-6309
▁foods	-6310
▁interests	-6311
▁maintenance	-6312
merce	-6313
▁LA	-6314
▁likes	-6315
rowse	-6316
▁atmosp	-6317
▁defensive	-6318
iversary	-6319
▁Area	-6320
▁Know	-6321
pre	-6322
▁nav	-6323
▁surprised	-6324
otton	-6325
▁elig	-6326
▁employee	-6327
▁downtown	-6328
▁gro	-6329
asters	-6330
▁yellow	-6331
▁considering	-6332
▁installation	-6333
onna	-6334
tle	-6335
▁ok	-6336
▁Eric	-6337
▁loan	-6338
iley	-6339
▁sympt	-6340
▁Stan	-6341
23	-6342
ashed	-6343
ennis	-6344
rical	-6345
▁concern	-6346
▁imagine	-6347
▁facing	-6348
▁agent	-6349
▁accounts	-6350
▁2010,	-6351
▁Despite	-6352
▁Sn	-6353
iano	-6354
▁usual	-6355
▁pulled	-6356
pat	-6357
ockey	-6358
▁male	-6359
▁centre	-6360
▁terror	-6361
▁Country	-6362
▁scoring	-6363
▁NAS	-6364
aints	-6365
▁Mean	-6366
new	-6367
▁Ron	-6368
▁designer	-6369
▁Liber	-6370
▁Iowa	-6371
▁tall	-6372
▁religious	-6373
▁Writ	-6374
▁Army	-6375
▁seasons	-6376
▁horse	-6377
▁negot	-6378
▁Bal	-6379
▁laugh	-6380
▁Luc	-6381
▁joint	-6382
▁extended	-6383
▁23,	-6384
▁Lew	-6385
▁SH	-6386
RI	-6387
rupt	-6388
▁conver	-6389
68	-6390
▁util	-6391
▁boost	-6392
▁revealed	-6393
▁enthus	-6394
▁none	-6395
▁liber	-6396
▁Lo	-6397
▁Asia	-6398
▁Memorial	-6399
▁recognized	-6400
boy	-6401
ansion	-6402
▁thus	-6403
▁crisis	-6404
▁PS	-6405
▁Amazon	-6406
▁~	-6407
uous	-6408
▁purposes	-6409
Al	-6410
▁upper	-6411
▁importance	-6412
▁Dun	-6413
▁Requ	-6414
▁Lady	-6415
▁Jay	-6416
▁Bowl	-6417
▁univers	-6418
▁luck	-6419
▁tail	-6420
▁scale	-6421
ulture	-6422
▁evalu	-6423
▁Anal	-6424
▁attacks	-6425
▁supports	-6426
▁grown	-6427
▁internal	-6428
▁profit	-6429
▁wins	-6430
▁SC	-6431
phia	-6432
▁Coll	-6433
▁Equ	-6434
gment	-6435
ava	-6436
▁Base	-6437
ework	-6438
▁outstanding	-6439
▁Stat	-6440
”,	-6441
burgh	-6442
▁impressive	-6443
▁buildings	-6444
OD	-6445
EST	-6446
▁Need	-6447
▁Catholic	-6448
▁hurt	-6449
▁pure	-6450
hi	-6451
hat	-6452
sey	-6453
▁occup	-6454
▁transform	-6455
▁pit	-6456
rance	-6457
▁sample	-6458
▁choices	-6459
▁windows	-6460
▁determined	-6461
▁vice	-6462
▁vary	-6463
▁concert	-6464
▁west	-6465
▁Link	-6466
▁breast	-6467
▁Select	-6468
▁attorney	-6469
▁Atlanta	-6470
▁Works	-6471
fts	-6472
▁Email	-6473
▁affected	-6474
ifications	-6475
▁iron	-6476
▁weekly	-6477
adelphia	-6478
ello	-6479
▁coordin	-6480
▁baking	-6481
▁24,	-6482
▁8.	-6483
▁Published	-6484
▁reporting	-6485
▁Jason	-6486
▁Jac	-6487
▁Perform	-6488
▁attended	-6489
▁Administration	-6490
ded	-6491
▁submitted	-6492
▁criminal	-6493
▁negative	-6494
lines	-6495
▁phil	-6496
▁renew	-6497
▁ec	-6498
▁Ram	-6499
▁delight	-6500
▁gallery	-6501
▁resolution	-6502
dr	-6503
▁NH	-6504
▁2013,	-6505
bury	-6506
▁perfectly	-6507
▁concent	-6508
icial	-6509
▁chain	-6510
▁conce	-6511
▁historic	-6512
▁properly	-6513
▁Dur	-6514
oration	-6515
▁identified	-6516
▁Scot	-6517
▁ille	-6518
▁brands	-6519
idelines	-6520
▁fishing	-6521
▁noticed	-6522
▁Code	-6523
▁odd	-6524
On	-6525
▁OK	-6526
itage	-6527
▁delay	-6528
vell	-6529
▁remote	-6530
▁stands	-6531
/3	-6532
▁Fac	-6533
▁route	-6534
▁licens	-6535
▁engineering	-6536
▁abuse	-6537
▁faces	-6538
▁($	-6539
...]	-6540
▁witness	-6541
▁Enjoy	-6542
game	-6543
afe	-6544
high	-6545
▁tab	-6546
▁affili	-6547
izza	-6548
▁LLC	-6549
▁Iraq	-6550
ulf	-6551
▁professor	-6552
▁Sky	-6553
▁MA	-6554
ikes	-6555
27	-6556
zy	-6557
▁Ro	-6558
iscal	-6559
DS	-6560
▁Eag	-6561
▁partnership	-6562
regon	-6563
▁Rick	-6564
▁Spanish	-6565
▁Wi	-6566
ba	-6567
▁loves	-6568
gent	-6569
▁Linux	-6570
▁influence	-6571
But	-6572
▁Balt	-6573
That	-6574
bol	-6575
▁Space	-6576
▁museum	-6577
▁repair	-6578
▁thin	-6579
▁treated	-6580
▁Garden	-6581
▁Nation	-6582
hered	-6583
▁organic	-6584
▁flav	-6585
▁perman	-6586
▁voters	-6587
▁turning	-6588
▁2010.	-6589
▁crack	-6590
enced	-6591
▁Fred	-6592
▁04	-6593
▁pil	-6594
erate	-6595
uality	-6596
run	-6597
▁motiv	-6598
▁Brook	-6599
iki	-6600
intage	-6601
▁believes	-6602
▁components	-6603
▁rapid	-6604
▁division	-6605
▁Justice	-6606
▁u	-6607
▁03	-6608
▁glad	-6609
▁emphas	-6610
▁sick	-6611
▁trading	-6612
ERE	-6613
▁input	-6614
▁reduced	-6615
Don	-6616
▁194	-6617
▁fighting	-6618
▁10.	-6619
▁PDF	-6620
▁1/4	-6621
▁Tony	-6622
rastructure	-6623
iece	-6624
▁letters	-6625
▁25,	-6626
▁Cert	-6627
rell	-6628
etime	-6629
▁resol	-6630
▁Columbia	-6631
)|	-6632
▁07	-6633
claim	-6634
▁Comput	-6635
GA	-6636
▁Made	-6637
▁lists	-6638
▁UC	-6639
▁Ball	-6640
ella	-6641
▁creation	-6642
▁legislation	-6643
▁therefore	-6644
rid	-6645
▁Available	-6646
oster	-6647
urning	-6648
21	-6649
do	-6650
Ar	-6651
rome	-6652
agues	-6653
▁authorities	-6654
▁Dist	-6655
▁Medicine	-6656
▁icon	-6657
▁accurate	-6658
▁dangerous	-6659
▁depending	-6660
▁mixture	-6661
▁chat	-6662
▁broke	-6663
▁follows	-6664
▁invited	-6665
law	-6666
▁victim	-6667
▁sizes	-6668
▁55	-6669
▁du	-6670
osoph	-6671
▁Dallas	-6672
▁liked	-6673
▁trend	-6674
28	-6675
acr	-6676
ubs	-6677
▁versions	-6678
▁9,	-6679
▁Philadelphia	-6680
▁Which	-6681
itution	-6682
!!!!	-6683
imore	-6684
orable	-6685
▁Number	-6686
long	-6687
▁Greg	-6688
aron	-6689
▁streets	-6690
▁conducted	-6691
▁offense	-6692
▁wra	-6693
▁illustr	-6694
▁appeal	-6695
ati	-6696
remony	-6697
▁ol	-6698
▁Shop	-6699
▁pink	-6700
▁Son	-6701
▁Systems	-6702
arrow	-6703
letter	-6704
▁Disney	-6705
▁tie	-6706
cover	-6707
▁explained	-6708
▁massive	-6709
iscons	-6710
▁PA	-6711
▁05	-6712
rible	-6713
▁intellig	-6714
▁Very	-6715
▁unlike	-6716
▁processing	-6717
Ex	-6718
▁OR	-6719
▁SE	-6720
▁freedom	-6721
▁Magazine	-6722
▁Adam	-6723
▁Trust	-6724
▁joy	-6725
▁Recent	-6726
wr	-6727
isconsin	-6728
▁Oklahoma	-6729
▁accessories	-6730
▁Small	-6731
▁Labor	-6732
▁weak	-6733
▁Wilson	-6734
▁Policy	-6735
▁printed	-6736
▁ris	-6737
child	-6738
▁Oregon	-6739
phy	-6740
▁grew	-6741
▁styles	-6742
▁typically	-6743
▁apparently	-6744
igration	-6745
▁guarantee	-6746
▁approval	-6747
▁spin	-6748
▁Stephen	-6749
▁conflic	-6750
host	-6751
▁domestic	-6752
▁400	-6753
▁Cond	-6754
▁2002	-6755
38	-6756
arters	-6757
▁Joseph	-6758
34	-6759
▁decade	-6760
When	-6761
▁bound	-6762
▁failure	-6763
▁Ms	-6764
elry	-6765
rich	-6766
▁Stock	-6767
▁rac	-6768
▁Type	-6769
▁chapter	-6770
▁Italy	-6771
▁teasp	-6772
▁Comment	-6773
ghan	-6774
irms	-6775
▁involve	-6776
ibilities	-6777
you	-6778
▁rating	-6779
▁supplies	-6780
▁Secretary	-6781
isation	-6782
▁island	-6783
oga	-6784
▁clothing	-6785
100	-6786
▁Training	-6787
ylvan	-6788
▁severe	-6789
▁airport	-6790
▁playoff	-6791
▁hook	-6792
▁leather	-6793
▁Steven	-6794
▁description	-6795
▁Mess	-6796
hent	-6797
orders	-6798
▁offices	-6799
3)	-6800
▁wheel	-6801
▁Send	-6802
▁Republicans	-6803
More	-6804
odge	-6805
roit	-6806
▁lucky	-6807
iability	-6808
▁regul	-6809
▁victims	-6810
,'	-6811
Com	-6812
erts	-6813
▁Financial	-6814
▁syn	-6815
▁AD	-6816
▁26,	-6817
▁moves	-6818
▁apartment	-6819
▁tut	-6820
▁SU	-6821
▁sheet	-6822
▁regularly	-6823
97	-6824
▁Hi	-6825
▁investors	-6826
▁seed	-6827
ifer	-6828
▁disappoint	-6829
▁Lar	-6830
▁flash	-6831
▁tradem	-6832
▁logo	-6833
▁Dave	-6834
press	-6835
▁fixed	-6836
▁Editor	-6837
▁incredible	-6838
▁27,	-6839
▁28,	-6840
▁interface	-6841
▁tracks	-6842
reprene	-6843
ums	-6844
ounce	-6845
1)	-6846
▁surrounding	-6847
ca	-6848
onto	-6849
ially	-6850
ingly	-6851
born	-6852
abetes	-6853
▁Cra	-6854
▁Case	-6855
▁drawing	-6856
▁passing	-6857
▁painting	-6858
▁Josh	-6859
▁dining	-6860
ureau	-6861
▁Pit	-6862
anger	-6863
▁bags	-6864
▁Bru	-6865
▁suggested	-6866
lock	-6867
36	-6868
ented	-6869
alo	-6870
▁injured	-6871
An	-6872
▁Sav	-6873
cious	-6874
▁moments	-6875
▁valuable	-6876
▁Wisconsin	-6877
ta	-6878
▁festival	-6879
▁anyway	-6880
▁ongoing	-6881
lo	-6882
▁recording	-6883
▁Line	-6884
▁channel	-6885
▁assistant	-6886
▁Cut	-6887
▁rose	-6888
▁alcohol	-6889
▁walked	-6890
class	-6891
▁spoke	-6892
ossible	-6893
▁Building	-6894
anny	-6895
▁Fall	-6896
▁sessions	-6897
▁pin	-6898
▁Marc	-6899
▁solar	-6900
▁powder	-6901
▁soul	-6902
▁murder	-6903
▁Gallery	-6904
▁stir	-6905
▁titles	-6906
▁Looking	-6907
hot	-6908
▁processes	-6909
▁Non	-6910
uster	-6911
▁sudden	-6912
▁aspects	-6913
▁06	-6914
▁historical	-6915
▁scientific	-6916
▁tablesp	-6917
page	-6918
▁gay	-6919
inals	-6920
rives	-6921
rition	-6922
equ	-6923
!”	-6924
▁causes	-6925
▁Tax	-6926
▁tip	-6927
mary	-6928
▁affordable	-6929
▁(6	-6930
▁eggs	-6931
▁bench	-6932
ception	-6933
▁Cru	-6934
▁Kar	-6935
▁Ltd	-6936
▁doors	-6937
▁happening	-6938
▁functions	-6939
▁Tool	-6940
cluded	-6941
▁output	-6942
▁Jord	-6943
▁Software	-6944
▁mixed	-6945
▁seriously	-6946
▁Mov	-6947
adow	-6948
▁Source	-6949
▁upload	-6950
▁Northern	-6951
▁availability	-6952
▁clothes	-6953
▁symptoms	-6954
▁warn	-6955
▁Reserved	-6956
▁practical	-6957
▁reader	-6958
▁speaking	-6959
▁Cab	-6960
▁Royal	-6961
▁Hur	-6962
eller	-6963
▁reput	-6964
▁bottle	-6965
missions	-6966
▁taught	-6967
▁institutions	-6968
▁38	-6969
anes	-6970
▁nearby	-6971
▁industrial	-6972
owned	-6973
VER	-6974
ogue	-6975
▁script	-6976
▁directed	-6977
▁Kh	-6978
▁rum	-6979
▁equal	-6980
▁junior	-6981
ahoo	-6982
▁awarded	-6983
▁Bry	-6984
▁awareness	-6985
▁perspective	-6986
UL	-6987
▁gall	-6988
▁banks	-6989
▁Marketing	-6990
▁employment	-6991
Tube	-6992
▁Think	-6993
ylvania	-6994
idi	-6995
olis	-6996
▁Barb	-6997
▁newspaper	-6998
▁east	-6999
▁Anth	-7000
37	-7001
Ad	-7002
▁estimated	-7003
razil	-7004
▁savings	-7005
amber	-7006
▁Unfortunately	-7007
hetic	-7008
power	-7009
▁fort	-7010
▁belong	-7011
▁Maryland	-7012
using	-7013
▁votes	-7014
▁forest	-7015
reland	-7016
essed	-7017
▁advis	-7018
fs	-7019
▁hell	-7020
ih	-7021
▁vend	-7022
▁Studies	-7023
26	-7024
xy	-7025
▁ast	-7026
▁circum	-7027
osite	-7028
▁Kelly	-7029
▁Subsc	-7030
▁Baltimore	-7031
oil	-7032
▁carbon	-7033
▁colour	-7034
▁factor	-7035
case	-7036
▁construct	-7037
cons	-7038
flow	-7039
▁Safety	-7040
▁defend	-7041
▁Map	-7042
▁wireless	-7043
▁convenient	-7044
▁Ent	-7045
▁politics	-7046
▁Las	-7047
▁carried	-7048
ani	-7049
▁Major	-7050
ervations	-7051
▁Trib	-7052
▁everyday	-7053
zer	-7054
wear	-7055
▁Beaut	-7056
▁Force	-7057
da	-7058
▁[...]	-7059
▁expertise	-7060
▁manufacturing	-7061
uis	-7062
▁Ap	-7063
▁strike	-7064
▁networks	-7065
▁premium	-7066
▁tested	-7067
oore	-7068
oral	-7069
heast	-7070
bles	-7071
▁encouraged	-7072
bro	-7073
▁hosted	-7074
▁Ur	-7075
ilty	-7076
▁arms	-7077
▁moist	-7078
▁atmosphere	-7079
zes	-7080
▁goods	-7081
▁innings	-7082
▁entirely	-7083
▁furniture	-7084
▁Priv	-7085
▁susp	-7086
▁Vegas	-7087
▁younger	-7088
▁searching	-7089
▁hat	-7090
▁herself	-7091
All	-7092
▁execut	-7093
▁unable	-7094
▁volunteers	-7095
▁suggestions	-7096
▁Rh	-7097
▁Happy	-7098
▁Order	-7099
writ	-7100
CT	-7101
car	-7102
▁37	-7103
gypt	-7104
▁adm	-7105
respond	-7106
▁sole	-7107
▁Remember	-7108
▁9.	-7109
anges	-7110
▁cleaning	-7111
ographic	-7112
▁finds	-7113
utional	-7114
aze	-7115
▁Should	-7116
▁photography	-7117
▁Golden	-7118
▁conserv	-7119
▁Again	-7120
▁wet	-7121
▁Ha	-7122
▁Own	-7123
▁Ref	-7124
▁hitting	-7125
▁29,	-7126
▁Would	-7127
▁ourselves	-7128
Un	-7129
▁Sea	-7130
▁Event	-7131
▁Mrs	-7132
▁riv	-7133
▁phones	-7134
/200	-7135
▁Heart	-7136
▁weapons	-7137
▁touchdown	-7138
▁contemporary	-7139
▁clinical	-7140
Pl	-7141
▁Detroit	-7142
▁Resources	-7143
▁IM	-7144
pson	-7145
▁hosting	-7146
▁authors	-7147
▁justice	-7148
▁Airport	-7149
▁portion	-7150
▁depth	-7151
▁flood	-7152
▁Collection	-7153
▁Olympic	-7154
anned	-7155
▁juice	-7156
▁shr	-7157
ATION	-7158
achel	-7159
ilton	-7160
▁Arab	-7161
pected	-7162
▁Story	-7163
▁$100	-7164
▁wealth	-7165
▁blocks	-7166
▁Jam	-7167
▁membership	-7168
▁strategies	-7169
▁Henry	-7170
▁rental	-7171
▁village	-7172
▁lit	-7173
▁linked	-7174
raud	-7175
▁lapt	-7176
http	-7177
▁rail	-7178
person	-7179
▁joining	-7180
▁Pak	-7181
▁Come	-7182
va	-7183
rum	-7184
▁Kids	-7185
▁simpl	-7186
▁Ireland	-7187
▁Location	-7188
ORE	-7189
▁trips	-7190
▁desire	-7191
▁believed	-7192
▁eleg	-7193
enger	-7194
RS	-7195
ilit	-7196
▁Phys	-7197
cers	-7198
▁Mir	-7199
▁Allen	-7200
▁Member	-7201
▁Ros	-7202
▁Gro	-7203
ione	-7204
abeth	-7205
▁quant	-7206
▁exhibition	-7207
▁2001	-7208
▁Never	-7209
▁Dark	-7210
▁counsel	-7211
▁coup	-7212
▁singer	-7213
▁65	-7214
▁rear	-7215
▁river	-7216
iti	-7217
▁150	-7218
▁Season	-7219
▁matches	-7220
▁Arm	-7221
/10	-7222
▁bare	-7223
▁Annual	-7224
▁zone	-7225
unction	-7226
▁Credit	-7227
▁increases	-7228
▁Sometimes	-7229
▁scientists	-7230
▁Austin	-7231
ept	-7232
▁developers	-7233
▁relatively	-7234
▁tiny	-7235
▁medicine	-7236
▁Theatre	-7237
ras	-7238
uling	-7239
▁bunch	-7240
esy	-7241
▁Mill	-7242
▁Prom	-7243
▁tied	-7244
nam	-7245
▁ML	-7246
stone	-7247
resents	-7248
▁inspiration	-7249
94	-7250
▁Penns	-7251
▁anticip	-7252
▁proposal	-7253
▁providers	-7254
▁manner	-7255
amsung	-7256
▁Brazil	-7257
▁PH	-7258
▁complic	-7259
▁immediate	-7260
▁Ju	-7261
ingu	-7262
96	-7263
hentic	-7264
PC	-7265
▁oz	-7266
▁Iss	-7267
▁aside	-7268
▁elimin	-7269
rics	-7270
▁termin	-7271
▁Finally	-7272
▁Anderson	-7273
▁Democratic	-7274
▁lighting	-7275
▁announcement	-7276
iveness	-7277
▁Return	-7278
▁prompt	-7279
▁Patrick	-7280
▁(0	-7281
▁relief	-7282
aine	-7283
▁motion	-7284
▁matters	-7285
wich	-7286
▁Standard	-7287
.00	-7288
rovers	-7289
▁sending	-7290
▁continuing	-7291
front	-7292
alle	-7293
eding	-7294
▁Jewish	-7295
▁sky	-7296
▁hotels	-7297
▁examples	-7298
▁percentage	-7299
▁infrastructure	-7300
▁44	-7301
▁Zeal	-7302
▁trib	-7303
makers	-7304
▁Egypt	-7305
▁styl	-7306
▁Index	-7307
kee	-7308
▁Buff	-7309
intend	-7310
▁categories	-7311
▁foundation	-7312
▁Film	-7313
▁mile	-7314
▁enable	-7315
▁championship	-7316
bel	-7317
▁inch	-7318
▁transportation	-7319
▁fairly	-7320
▁collected	-7321
▁800	-7322
▁Ath	-7323
▁Corporation	-7324
made	-7325
▁III	-7326
▁talked	-7327
▁ceremony	-7328
amps	-7329
▁Eastern	-7330
cknow	-7331
▁theory	-7332
▁heads	-7333
itals	-7334
▁Forest	-7335
▁writes	-7336
▁YouTube	-7337
▁winners	-7338
abama	-7339
▁addresses	-7340
▁expressed	-7341
▁volunteer	-7342
essee	-7343
▁2009,	-7344
▁pray	-7345
PD	-7346
▁Meanwhile	-7347
▁Lewis	-7348
▁Isl	-7349
▁Jordan	-7350
▁household	-7351
▁URL	-7352
▁adventure	-7353
▁improvement	-7354
▁;	-7355
▁prepar	-7356
▁Bed	-7357
▁rein	-7358
▁crash	-7359
▁sorry	-7360
ificate	-7361
inder	-7362
▁struck	-7363
▁Ave	-7364
▁hall	-7365
▁nuclear	-7366
▁performances	-7367
oen	-7368
▁Est	-7369
▁interior	-7370
▁publication	-7371
dro	-7372
asks	-7373
▁Hay	-7374
▁packages	-7375
▁Sym	-7376
▁giant	-7377
▁san	-7378
▁assault	-7379
▁bab	-7380
worth	-7381
▁legs	-7382
▁Phill	-7383
▁Afghan	-7384
▁opinions	-7385
nic	-7386
▁spark	-7387
ista	-7388
▁communications	-7389
.....	-7390
▁Indiana	-7391
▁af	-7392
orgeous	-7393
▁analyst	-7394
▁grass	-7395
books	-7396
▁chose	-7397
▁reward	-7398
▁enforcement	-7399
stein	-7400
▁kinds	-7401
▁cock	-7402
stra	-7403
▁doctors	-7404
▁computers	-7405
▁integrated	-7406
▁efficiency	-7407
▁papers	-7408
rad	-7409
▁cooper	-7410
▁64	-7411
▁Eliz	-7412
▁Pennsylvania	-7413
yers	-7414
▁Motor	-7415
▁sew	-7416
▁represents	-7417
▁Square	-7418
▁voted	-7419
▁Oil	-7420
▁typical	-7421
sen	-7422
Le	-7423
▁Flash	-7424
▁significantly	-7425
▁Dam	-7426
▁coc	-7427
▁Prin	-7428
CD	-7429
▁butt	-7430
▁knowing	-7431
▁Sony	-7432
▁Irish	-7433
▁Creek	-7434
▁eligible	-7435
▁Pict	-7436
▁Express	-7437
▁Sound	-7438
▁graphics	-7439
iations	-7440
AV	-7441
mal	-7442
▁mut	-7443
▁Zealand	-7444
American	-7445
▁Sales	-7446
▁Stew	-7447
▁coin	-7448
▁empt	-7449
▁cookies	-7450
bell	-7451
▁diverse	-7452
▁mic	-7453
▁Dream	-7454
▁Camer	-7455
▁layer	-7456
▁filter	-7457
▁hole	-7458
▁Updated	-7459
folio	-7460
▁forth	-7461
bi	-7462
keep	-7463
▁ski	-7464
omy	-7465
▁Tro	-7466
▁Talk	-7467
▁organized	-7468
▁Bern	-7469
▁Agency	-7470
▁Toronto	-7471
oir	-7472
▁trick	-7473
▁spokesman	-7474
Book	-7475
▁carefully	-7476
▁Yet	-7477
▁height	-7478
▁virtual	-7479
▁Sarah	-7480
clusion	-7481
▁boot	-7482
▁Save	-7483
▁prove	-7484
ultural	-7485
▁Mail	-7486
fficient	-7487
▁contribut	-7488
etts	-7489
▁mountain	-7490
ether	-7491
▁Perhaps	-7492
▁infect	-7493
▁Bible	-7494
▁performing	-7495
▁Emer	-7496
▁contribute	-7497
iac	-7498
▁bear	-7499
▁mal	-7500
bal	-7501
▁Put	-7502
acher	-7503
▁franch	-7504
▁compete	-7505
▁realized	-7506
▁dim	-7507
▁Golf	-7508
▁Webs	-7509
▁sight	-7510
▁presents	-7511
▁replacement	-7512
▁Cy	-7513
▁Tags	-7514
▁newly	-7515
▁decre	-7516
▁Classic	-7517
iously	-7518
▁Hills	-7519
▁surprising	-7520
cludes	-7521
▁anniversary	-7522
AND	-7523
des	-7524
▁breaking	-7525
▁successfully	-7526
▁Bad	-7527
▁obviously	-7528
lee	-7529
isa	-7530
▁Alabama	-7531
▁Pur	-7532
▁somewhere	-7533
▁Originally	-7534
▁effectively	-7535
ouri	-7536
▁privacy	-7537
▁listening	-7538
▁Entertain	-7539
▁49	-7540
▁transition	-7541
▁suffered	-7542
▁improving	-7543
▁Station	-7544
▁Cas	-7545
▁garlic	-7546
▁claimed	-7547
▁calendar	-7548
▁Hold	-7549
acking	-7550
▁elected	-7551
▁promise	-7552
▁Pen	-7553
▁rice	-7554
▁Personal	-7555
sm	-7556
▁Bon	-7557
▁lets	-7558
▁Tal	-7559
▁wash	-7560
▁accused	-7561
▁Customer	-7562
▁Kentucky	-7563
uls	-7564
uties	-7565
▁Harry	-7566
▁prize	-7567
▁watched	-7568
▁31,	-7569
▁enem	-7570
▁roof	-7571
▁illegal	-7572
▁constantly	-7573
▁expectations	-7574
▁walls	-7575
▁acknow	-7576
▁procedures	-7577
▁quarterback	-7578
▁Samsung	-7579
▁fiscal	-7580
▁frequently	-7581
▁displ	-7582
▁BE	-7583
▁Intel	-7584
▁actor	-7585
▁CL	-7586
▁CO	-7587
▁Easy	-7588
▁luxury	-7589
umps	-7590
mates	-7591
▁Tennessee	-7592
▁Es	-7593
▁seats	-7594
▁planet	-7595
▁auto	-7596
▁Regional	-7597
▁founded	-7598
Be	-7599
izer	-7600
▁Band	-7601
▁Mother	-7602
▁enroll	-7603
▁programming	-7604
▁Guard	-7605
▁border	-7606
▁assum	-7607
▁saved	-7608
▁domain	-7609
▁identity	-7610
▁replaced	-7611
▁Has	-7612
▁Name	-7613
▁closely	-7614
▁boards	-7615
▁Engineering	-7616
▁instance	-7617
▁tank	-7618
▁ultimate	-7619
▁collaboration	-7620
▁Natural	-7621
▁clubs	-7622
that	-7623
ologist	-7624
▁requests	-7625
itable	-7626
▁cycle	-7627
▁narrow	-7628
▁kit	-7629
▁Deb	-7630
▁Point	-7631
▁context	-7632
▁destination	-7633
SC	-7634
eman	-7635
▁Dead	-7636
'.	-7637
Our	-7638
▁Smart	-7639
aza	-7640
▁2-	-7641
▁USB	-7642
▁discussed	-7643
▁ads	-7644
▁Conf	-7645
▁Russian	-7646
▁patterns	-7647
apped	-7648
▁Toy	-7649
▁blogs	-7650
FA	-7651
▁slic	-7652
▁capture	-7653
▁Jess	-7654
▁Among	-7655
▁appointment	-7656
▁Pakistan	-7657
▁guilty	-7658
nda	-7659
▁lad	-7660
▁orange	-7661
▁ET	-7662
▁Op	-7663
▁bridge	-7664
▁bedroom	-7665
▁$6	-7666
angers	-7667
▁DO	-7668
▁superv	-7669
▁thinks	-7670
osc	-7671
▁Cro	-7672
▁exposure	-7673
▁Total	-7674
▁describe	-7675
▁displayed	-7676
otted	-7677
▁Ly	-7678
▁agents	-7679
▁split	-7680
aste	-7681
▁pra	-7682
iants	-7683
▁explains	-7684
tw	-7685
▁McG	-7686
achus	-7687
▁Hawai	-7688
▁Reviews	-7689
stal	-7690
▁Ren	-7691
▁riding	-7692
29	-7693
▁occurred	-7694
▁Rub	-7695
▁boxes	-7696
▁headed	-7697
▁champion	-7698
inity	-7699
▁fitness	-7700
ership	-7701
Con	-7702
▁obl	-7703
▁Howard	-7704
▁destroy	-7705
pes	-7706
▁Moore	-7707
▁Justin	-7708
▁formed	-7709
▁therapy	-7710
▁FR	-7711
▁Spain	-7712
esides	-7713
▁dough	-7714
▁returning	-7715
bow	-7716
▁objects	-7717
▁Associated	-7718
▁Lyn	-7719
▁racing	-7720
▁CON	-7721
▁2008,	-7722
▁illness	-7723
▁drinking	-7724
quir	-7725
▁Size	-7726
ardens	-7727
▁Doc	-7728
▁weren	-7729
▁routine	-7730
▁visited	-7731
-20	-7732
stream	-7733
▁normally	-7734
ura	-7735
▁interactive	-7736
▁Hart	-7737
▁Having	-7738
QL	-7739
▁pace	-7740
▁holidays	-7741
heim	-7742
unes	-7743
▁mand	-7744
▁reliable	-7745
▁Asian	-7746
▁Britain	-7747
oln	-7748
▁urban	-7749
▁chopped	-7750
▁Professional	-7751
800	-7752
▁bow	-7753
level	-7754
▁Elizabeth	-7755
▁skill	-7756
▁arrive	-7757
▁nights	-7758
▁attached	-7759
▁Histor	-7760
▁Supreme	-7761
▁basically	-7762
31	-7763
▁Pract	-7764
▁Living	-7765
▁legend	-7766
venth	-7767
▁gotten	-7768
▁protein	-7769
▁upgrade	-7770
▁Champions	-7771
▁forever	-7772
▁assists	-7773
▁controvers	-7774
uters	-7775
▁Mach	-7776
▁2009.	-7777
▁reject	-7778
▁celebration	-7779
umer	-7780
▁scenes	-7781
achusetts	-7782
▁Gre	-7783
▁Corp	-7784
▁Bow	-7785
▁sixth	-7786
▁excess	-7787
Sc	-7788
▁Give	-7789
▁frag	-7790
▁hel	-7791
AB	-7792
sters	-7793
▁bars	-7794
▁Mayor	-7795
onymous	-7796
▁creates	-7797
▁Studio	-7798
▁capable	-7799
▁viewing	-7800
▁Utah	-7801
pir	-7802
etic	-7803
▁Norm	-7804
▁Tickets	-7805
▁spots	-7806
▁Ross	-7807
So	-7808
▁Sem	-7809
▁indeed	-7810
▁trends	-7811
▁Democrats	-7812
▁Change	-7813
▁string	-7814
▁Baby	-7815
▁extract	-7816
▁shell	-7817
asted	-7818
hire	-7819
▁possibility	-7820
/2013	-7821
oked	-7822
▁batt	-7823
▁Break	-7824
hour	-7825
▁contributions	-7826
▁Cancer	-7827
▁Ba	-7828
▁challenging	-7829
▁Clean	-7830
illiant	-7831
▁consistent	-7832
ounter	-7833
▁ending	-7834
▁classroom	-7835
▁diss	-7836
▁qualified	-7837
▁proceed	-7838
▁#1	-7839
▁Capital	-7840
▁Action	-7841
▁machines	-7842
▁recognize	-7843
How	-7844
▁(7	-7845
ighth	-7846
▁Six	-7847
▁suc	-7848
shire	-7849
▁regulations	-7850
giving	-7851
▁Challen	-7852
▁Products	-7853
▁instrument	-7854
▁Pa	-7855
▁chances	-7856
▁accessible	-7857
uration	-7858
▁vast	-7859
▁falling	-7860
▁emotional	-7861
▁vital	-7862
▁Anton	-7863
▁distinct	-7864
▁NCAA	-7865
39	-7866
▁42	-7867
▁Mom	-7868
▁Queen	-7869
▁scores	-7870
▁strategic	-7871
▁personally	-7872
▁Kir	-7873
▁proven	-7874
▁heav	-7875
▁adapt	-7876
▁chart	-7877
▁bathroom	-7878
▁presidential	-7879
▁Massachusetts	-7880
bridge	-7881
▁Description	-7882
UM	-7883
asant	-7884
ronics	-7885
▁informed	-7886
▁Entertainment	-7887
▁marks	-7888
▁merch	-7889
▁Server	-7890
▁Russia	-7891
▁centers	-7892
ulpt	-7893
style	-7894
▁HP	-7895
▁Ten	-7896
osophy	-7897
pton	-7898
winning	-7899
▁pod	-7900
▁stuck	-7901
▁Matthew	-7902
▁Cand	-7903
▁contained	-7904
▁Events	-7905
▁symbol	-7906
▁payments	-7907
▁compat	-7908
▁4-	-7909
▁lin	-7910
incoln	-7911
▁Missouri	-7912
▁slowly	-7913
▁jail	-7914
▁Nic	-7915
▁mere	-7916
▁unus	-7917
▁Trail	-7918
cut	-7919
▁Auto	-7920
oned	-7921
▁ham	-7922
▁heading	-7923
▁shouldn	-7924
▁Five	-7925
▁alive	-7926
▁suggests	-7927
orne	-7928
▁quote	-7929
▁trained	-7930
▁traveling	-7931
▁Marsh	-7932
▁amend	-7933
▁liquid	-7934
▁pocket	-7935
town	-7936
ocking	-7937
iro	-7938
Star	-7939
alse	-7940
aver	-7941
▁Championship	-7942
▁FL	-7943
▁thorough	-7944
▁correspond	-7945
▁smoke	-7946
ocation	-7947
▁Transport	-7948
blog	-7949
▁remark	-7950
▁Version	-7951
entle	-7952
▁somewhat	-7953
▁ranked	-7954
▁managing	-7955
▁officially	-7956
▁tape	-7957
▁killing	-7958
▁Books	-7959
▁shirt	-7960
▁ancient	-7961
olit	-7962
▁consequ	-7963
▁lifestyle	-7964
.’	-7965
▁marked	-7966
▁photographs	-7967
▁sustainable	-7968
▁reputation	-7969
acc	-7970
obody	-7971
▁closing	-7972
▁bid	-7973
▁Player	-7974
dale	-7975
▁circumst	-7976
▁terr	-7977
▁contrast	-7978
▁gorgeous	-7979
/11	-7980
▁Inv	-7981
▁meets	-7982
▁rebounds	-7983
▁innovation	-7984
ibl	-7985
▁admitted	-7986
▁authority	-7987
▁agric	-7988
▁Football	-7989
▁Shipping	-7990
▁comedy	-7991
▁cycl	-7992
eb	-7993
▁setup	-7994
▁Anthony	-7995
▁default	-7996
▁permanent	-7997
▁Harris	-7998
aga	-7999
/2012	-8000
▁wondering	-8001
▁coaches	-8002
▁jewelry	-8003
▁strange	-8004
▁boss	-8005
▁Polit	-8006
▁memories	-8007
▁talented	-8008
▁ABC	-8009
▁Meth	-8010
▁Register	-8011
▁Edition	-8012
▁Ra	-8013
▁union	-8014
▁listing	-8015
▁teaspoon	-8016
oty	-8017
▁participating	-8018
▁Brother	-8019
▁primarily	-8020
KE	-8021
▁enjoying	-8022
▁dad	-8023
▁procedure	-8024
▁smile	-8025
▁Short	-8026
▁discl	-8027
▁stations	-8028
friendly	-8029
▁constit	-8030
▁magn	-8031
ensity	-8032
▁opens	-8033
inating	-8034
▁aircraft	-8035
To	-8036
▁Coach	-8037
▁entries	-8038
▁Everyone	-8039
▁everybody	-8040
▁1-8	-8041
▁god	-8042
▁lect	-8043
▁dynamic	-8044
▁Dog	-8045
▁lie	-8046
acked	-8047
▁combine	-8048
▁vibr	-8049
▁Officer	-8050
pret	-8051
war	-8052
:15	-8053
▁assign	-8054
▁external	-8055
▁puts	-8056
CS	-8057
oured	-8058
▁Attorney	-8059
▁statements	-8060
▁Grant	-8061
▁stunning	-8062
▁bills	-8063
▁$7	-8064
▁dollar	-8065
Is	-8066
▁Stay	-8067
aud	-8068
▁Du	-8069
wered	-8070
▁Clark	-8071
▁passes	-8072
She	-8073
idance	-8074
▁meals	-8075
earing	-8076
▁initiative	-8077
mann	-8078
sole	-8079
▁fuck	-8080
▁drama	-8081
empts	-8082
▁blank	-8083
▁facts	-8084
▁acting	-8085
▁mailing	-8086
▁Sciences	-8087
phones	-8088
▁Stadium	-8089
▁recycl	-8090
edu	-8091
▁Resp	-8092
▁smell	-8093
▁clicking	-8094
▁handling	-8095
▁situations	-8096
onder	-8097
▁fing	-8098
▁producer	-8099
▁protected	-8100
▁anymore	-8101
▁monitoring	-8102
chers	-8103
▁Youth	-8104
▁shops	-8105
▁recognition	-8106
▁stim	-8107
▁Sorry	-8108
▁Spec	-8109
▁bass	-8110
▁Bat	-8111
▁assets	-8112
▁attending	-8113
igs	-8114
ador	-8115
▁Ocean	-8116
▁operate	-8117
▁vegetables	-8118
▁exec	-8119
▁$50	-8120
opher	-8121
▁Further	-8122
aug	-8123
▁enthusi	-8124
▁responded	-8125
/12	-8126
▁Gary	-8127
▁king	-8128
▁loans	-8129
▁aggress	-8130
▁Host	-8131
▁clar	-8132
oosing	-8133
icide	-8134
▁Environmental	-8135
▁Denver	-8136
▁10-	-8137
▁NBA	-8138
▁certified	-8139
86	-8140
annels	-8141
▁stone	-8142
inar	-8143
▁Swed	-8144
▁drag	-8145
▁Latin	-8146
▁Proper	-8147
▁Corn	-8148
▁solo	-8149
▁DJ	-8150
▁loose	-8151
▁sharp	-8152
▁ease	-8153
▁empty	-8154
▁chairman	-8155
lder	-8156
▁Account	-8157
izon	-8158
▁Bull	-8159
▁blend	-8160
▁interviews	-8161
▁travell	-8162
▁writers	-8163
▁$20	-8164
eling	-8165
▁Interest	-8166
▁retirement	-8167
from	-8168
▁Winter	-8169
▁substant	-8170
▁2.0	-8171
▁Learning	-8172
▁Kind	-8173
then	-8174
▁Yahoo	-8175
EG	-8176
▁Mix	-8177
▁swing	-8178
▁landscape	-8179
▁Image	-8180
ran	-8181
▁controls	-8182
rim	-8183
▁fasc	-8184
▁Cooper	-8185
▁extension	-8186
-11	-8187
▁soccer	-8188
▁Os	-8189
▁Tel	-8190
▁Table	-8191
teen	-8192
▁saving	-8193
▁impossible	-8194
▁dust	-8195
▁Style	-8196
▁Anyone	-8197
▁covering	-8198
▁cos	-8199
▁Pick	-8200
▁coal	-8201
▁everywhere	-8202
▁!	-8203
▁NO	-8204
▁Choose	-8205
,000.	-8206
atics	-8207
9)	-8208
▁entreprene	-8209
otte	-8210
▁cotton	-8211
BM	-8212
▁flag	-8213
▁releases	-8214
▁CP	-8215
▁birds	-8216
▁ultimately	-8217
▁theater	-8218
▁SS	-8219
▁raw	-8220
▁Beck	-8221
▁Tell	-8222
▁RSS	-8223
iform	-8224
▁causing	-8225
▁veteran	-8226
▁vul	-8227
▁accomplish	-8228
▁Solutions	-8229
▁highlights	-8230
▁Wine	-8231
▁Quick	-8232
ensus	-8233
▁Roll	-8234
▁acid	-8235
▁Pitts	-8236
▁Following	-8237
▁retired	-8238
ashes	-8239
▁recommendations	-8240
▁Ban	-8241
▁Andy	-8242
▁Civil	-8243
▁pharm	-8244
▁Michel	-8245
▁fundra	-8246
▁noise	-8247
▁firms	-8248
▁improvements	-8249
ighters	-8250
▁Barack	-8251
icate	-8252
▁Adobe	-8253
▁bands	-8254
▁acts	-8255
including	-8256
▁habit	-8257
▁involving	-8258
mers	-8259
rete	-8260
▁beef	-8261
▁chips	-8262
▁Friends	-8263
▁yield	-8264
▁loving	-8265
▁dealing	-8266
umni	-8267
▁Cow	-8268
▁fest	-8269
▁cameras	-8270
▁yard	-8271
▁Questions	-8272
▁designers	-8273
▁expansion	-8274
55	-8275
▁Eth	-8276
▁Vice	-8277
leep	-8278
ifies	-8279
▁Psych	-8280
▁Study	-8281
▁proof	-8282
▁compens	-8283
▁favourite	-8284
▁Chap	-8285
▁rug	-8286
ounded	-8287
RC	-8288
▁recru	-8289
▁tech	-8290
▁personnel	-8291
',	-8292
▁breath	-8293
▁fits	-8294
▁Additional	-8295
▁assessment	-8296
fall	-8297
▁squad	-8298
▁speaker	-8299
▁recre	-8300
▁Celebr	-8301
▁Orange	-8302
eler	-8303
▁risks	-8304
▁voting	-8305
▁lessons	-8306
▁je	-8307
leans	-8308
print	-8309
▁implementation	-8310
▁capabilities	-8311
▁Produ	-8312
▁catalog	-8313
▁reasonable	-8314
▁carrying	-8315
▁representative	-8316
▁hip	-8317
▁Fact	-8318
▁Channel	-8319
▁tablet	-8320
▁Schools	-8321
urb	-8322
▁healthcare	-8323
TE	-8324
▁Pin	-8325
▁flo	-8326
▁Barn	-8327
aturally	-8328
▁priority	-8329
▁vit	-8330
▁experiment	-8331
▁authentic	-8332
▁Treat	-8333
▁phase	-8334
ALL	-8335
▁Advis	-8336
▁Trade	-8337
agan	-8338
▁signing	-8339
▁shoulder	-8340
▁guidelines	-8341
▁Yan	-8342
iking	-8343
▁Lincoln	-8344
inent	-8345
▁intent	-8346
▁portfolio	-8347
olen	-8348
▁Ven	-8349
▁packed	-8350
▁grad	-8351
▁Morgan	-8352
▁swimming	-8353
▁fraud	-8354
▁exception	-8355
yes	-8356
▁root	-8357
▁fired	-8358
elson	-8359
▁hidden	-8360
▁Explore	-8361
▁Insurance	-8362
▁subscribe	-8363
axy	-8364
ogether	-8365
▁warning	-8366
▁distributed	-8367
▁Heat	-8368
▁Sheriff	-8369
▁recover	-8370
▁Portland	-8371
▁Village	-8372
ko	-8373
:45	-8374
▁requested	-8375
▁Communications	-8376
▁fulf	-8377
▁array	-8378
TER	-8379
47	-8380
gov	-8381
aping	-8382
▁magic	-8383
▁iPod	-8384
oda	-8385
ellite	-8386
▁increasingly	-8387
▁vacc	-8388
-19	-8389
IGH	-8390
▁Restaur	-8391
▁differences	-8392
▁Past	-8393
▁Judge	-8394
tes	-8395
▁Ah	-8396
isp	-8397
lers	-8398
▁soil	-8399
▁Posts	-8400
▁flying	-8401
▁login	-8402
▁necessarily	-8403
▁tweet	-8404
▁raising	-8405
▁Sug	-8406
▁networking	-8407
ez	-8408
▁finance	-8409
▁Orleans	-8410
▁BM	-8411
week	-8412
▁trim	-8413
▁Korea	-8414
▁Update	-8415
▁spaces	-8416
▁attempts	-8417
▁scheme	-8418
▁Partners	-8419
▁bodies	-8420
apolis	-8421
veland	-8422
▁250	-8423
▁refund	-8424
TML	-8425
▁Website	-8426
▁predict	-8427
whel	-8428
▁Nut	-8429
▁Month	-8430
ication	-8431
▁tub	-8432
▁widely	-8433
▁Ever	-8434
anguages	-8435
▁pricing	-8436
mate	-8437
▁Must	-8438
oenix	-8439
▁inning	-8440
▁attractive	-8441
▁manufacturers	-8442
▁reply	-8443
▁finger	-8444
children	-8445
TON	-8446
olds	-8447
▁shower	-8448
och	-8449
▁auction	-8450
etch	-8451
attan	-8452
▁edited	-8453
▁visits	-8454
▁workshop	-8455
she	-8456
▁Fresh	-8457
▁colleagues	-8458
wan	-8459
▁Shel	-8460
aire	-8461
aret	-8462
eland	-8463
▁Bureau	-8464
▁sections	-8465
▁architecture	-8466
▁unem	-8467
▁BB	-8468
▁Bloom	-8469
▁Paper	-8470
oz	-8471
87	-8472
▁Sant	-8473
▁Tele	-8474
▁duty	-8475
▁era	-8476
▁programme	-8477
67	-8478
▁spray	-8479
ointing	-8480
tail	-8481
athy	-8482
▁Single	-8483
De	-8484
▁Core	-8485
▁defined	-8486
▁Atlantic	-8487
▁Records	-8488
▁vintage	-8489
▁entering	-8490
▁findings	-8491
▁franchise	-8492
▁DE	-8493
▁Bang	-8494
▁Cool	-8495
▁Jennifer	-8496
▁Gil	-8497
▁wake	-8498
▁entit	-8499
▁technique	-8500
▁Comb	-8501
▁stayed	-8502
▁desktop	-8503
▁copies	-8504
▁Exchange	-8505
osa	-8506
▁Front	-8507
▁formal	-8508
▁transp	-8509
▁remained	-8510
▁ocean	-8511
▁screens	-8512
ILL	-8513
▁Money	-8514
▁Clinton	-8515
▁farmers	-8516
▁obtained	-8517
hops	-8518
▁plain	-8519
▁trailer	-8520
▁Laur	-8521
amel	-8522
dney	-8523
▁SM	-8524
riers	-8525
▁laptop	-8526
▁resulting	-8527
▁gaming	-8528
?)	-8529
olph	-8530
yler	-8531
▁dishes	-8532
▁brilliant	-8533
▁Jean	-8534
upid	-8535
▁edit	-8536
▁Springs	-8537
Man	-8538
▁Highway	-8539
▁discussions	-8540
raid	-8541
▁prohib	-8542
▁Limited	-8543
▁Ark	-8544
▁coat	-8545
▁compare	-8546
amework	-8547
▁maps	-8548
▁Title	-8549
/8	-8550
aired	-8551
anged	-8552
▁Stewart	-8553
▁lemon	-8554
▁rising	-8555
▁hal	-8556
▁Snow	-8557
▁flexible	-8558
sex	-8559
▁drawn	-8560
issions	-8561
▁Dick	-8562
▁telephone	-8563
▁pip	-8564
month	-8565
▁filling	-8566
▁Sandy	-8567
▁00	-8568
▁lens	-8569
▁Photos	-8570
Cont	-8571
▁buck	-8572
▁generated	-8573
market	-8574
▁plane	-8575
rate	-8576
▁Things	-8577
▁signature	-8578
▁Tigers	-8579
▁COM	-8580
▁Compet	-8581
ressed	-8582
▁Steel	-8583
▁HIV	-8584
aters	-8585
▁elev	-8586
▁clock	-8587
▁hyp	-8588
▁checking	-8589
acular	-8590
▁shift	-8591
inth	-8592
▁Being	-8593
▁Roman	-8594
▁Create	-8595
▁decent	-8596
▁errors	-8597
▁trig	-8598
secutive	-8599
▁preparation	-8600
▁Ast	-8601
isted	-8602
ulum	-8603
▁stead	-8604
▁producing	-8605
▁instant	-8606
▁subscription	-8607
▁succeed	-8608
▁Cleveland	-8609
tery	-8610
▁neither	-8611
▁southern	-8612
▁association	-8613
▁chest	-8614
▁roads	-8615
.0	-8616
etary	-8617
words	-8618
▁casual	-8619
▁participation	-8620
▁speakers	-8621
▁Les	-8622
▁treatments	-8623
▁knee	-8624
▁2007,	-8625
▁EX	-8626
liam	-8627
▁driven	-8628
▁Article	-8629
▁reducing	-8630
▁attach	-8631
▁hung	-8632
ds	-8633
▁scan	-8634
▁founder	-8635
iere	-8636
▁Laure	-8637
aun	-8638
▁faced	-8639
▁drives	-8640
▁sponsored	-8641
etry	-8642
HS	-8643
oval	-8644
▁managers	-8645
▁Hu	-8646
▁Fab	-8647
plate	-8648
▁staying	-8649
▁tired	-8650
▁checked	-8651
date	-8652
orses	-8653
▁penalty	-8654
▁2008.	-8655
▁salad	-8656
▁circumstances	-8657
▁plot	-8658
graduate	-8659
awa	-8660
▁Athlet	-8661
orous	-8662
▁seeds	-8663
▁assume	-8664
▁Bridge	-8665
roke	-8666
mouth	-8667
ibraries	-8668
▁suitable	-8669
world	-8670
IST	-8671
▁roles	-8672
▁hopefully	-8673
▁Ide	-8674
making	-8675
▁Section	-8676
▁resort	-8677
greg	-8678
▁engaged	-8679
▁reviewed	-8680
ints	-8681
▁engage	-8682
Read	-8683
▁Common	-8684
ingham	-8685
▁Krist	-8686
ulating	-8687
▁behalf	-8688
▁Leon	-8689
▁bomb	-8690
▁mainly	-8691
▁reaction	-8692
▁pic	-8693
▁Conc	-8694
▁Appro	-8695
▁donations	-8696
▁1990	-8697
▁39	-8698
ussion	-8699
▁ALL	-8700
▁Burn	-8701
▁Gall	-8702
▁Pear	-8703
▁mood	-8704
▁EST	-8705
▁Ox	-8706
▁dont	-8707
ashing	-8708
▁solve	-8709
▁dreams	-8710
▁insight	-8711
▁powered	-8712
▁samples	-8713
▁Inde	-8714
▁athletes	-8715
▁Mississ	-8716
olar	-8717
▁evol	-8718
▁hosts	-8719
▁matching	-8720
▁collections	-8721
%.	-8722
▁Content	-8723
.;	-8724
uten	-8725
▁embr	-8726
▁Father	-8727
▁generate	-8728
▁component	-8729
▁Gene	-8730
▁divid	-8731
ospitals	-8732
ila	-8733
uer	-8734
▁Holy	-8735
▁signal	-8736
▁Release	-8737
▁argument	-8738
▁AB	-8739
▁sees	-8740
▁coaching	-8741
▁stronger	-8742
▁sear	-8743
▁puzz	-8744
▁Whit	-8745
iments	-8746
▁preparing	-8747
One	-8748
liament	-8749
IE	-8750
▁channels	-8751
▁Represent	-8752
char	-8753
▁Hey	-8754
▁Speed	-8755
▁Valent	-8756
▁shipped	-8757
▁rig	-8758
yrics	-8759
HA	-8760
▁Final	-8761
▁comic	-8762
▁pizza	-8763
cycle	-8764
▁Sure	-8765
▁acquis	-8766
pay	-8767
▁CR	-8768
▁Bol	-8769
▁drinks	-8770
▁Funeral	-8771
▁Reading	-8772
▁tor	-8773
▁constant	-8774
▁rural	-8775
▁unex	-8776
▁Based	-8777
▁gonna	-8778
athered	-8779
▁minister	-8780
ippi	-8781
▁Mah	-8782
▁Blu	-8783
▁Sport	-8784
▁dating	-8785
▁consists	-8786
▁McK	-8787
imize	-8788
▁bonus	-8789
UC	-8790
Rep	-8791
ricane	-8792
300	-8793
ceeds	-8794
▁Mater	-8795
html	-8796
lando	-8797
ortion	-8798
▁Former	-8799
▁CS	-8800
▁Nav	-8801
▁Prime	-8802
▁achieved	-8803
▁repeated	-8804
▁EN	-8805
ML	-8806
▁User	-8807
▁conflict	-8808
▁Quality	-8809
▁Lic	-8810
elled	-8811
▁cooked	-8812
holders	-8813
▁Cry	-8814
▁Kate	-8815
▁incorpor	-8816
▁Chapter	-8817
▁aver	-8818
▁Print	-8819
▁TR	-8820
minute	-8821
▁guidance	-8822
▁consecutive	-8823
Qu	-8824
bie	-8825
▁BBC	-8826
▁Computer	-8827
▁charity	-8828
▁factory	-8829
▁diabetes	-8830
▁pleasure	-8831
▁cul	-8832
▁facilit	-8833
▁controlled	-8834
IVE	-8835
▁Days	-8836
▁Walker	-8837
▁olive	-8838
▁appointed	-8839
pire	-8840
▁Level	-8841
▁intense	-8842
▁reduction	-8843
▁Iron	-8844
▁amounts	-8845
▁discounts	-8846
▁HERE	-8847
▁phen	-8848
▁Baseball	-8849
don	-8850
oken	-8851
▁invite	-8852
▁brothers	-8853
core	-8854
uther	-8855
▁religion	-8856
▁blind	-8857
▁Sydney	-8858
▁actress	-8859
itionally	-8860
▁suffering	-8861
▁Method	-8862
▁superior	-8863
▁EU	-8864
▁LED	-8865
▁donation	-8866
Ne	-8867
▁1999	-8868
▁Falls	-8869
▁1980	-8870
48	-8871
Col	-8872
▁Gov	-8873
faction	-8874
▁Osc	-8875
▁95	-8876
▁120	-8877
▁statistics	-8878
▁Prop	-8879
▁balls	-8880
▁utility	-8881
olec	-8882
▁Sir	-8883
▁Stone	-8884
▁weird	-8885
▁Spirit	-8886
▁governor	-8887
bits	-8888
▁Phoenix	-8889
▁Po	-8890
▁absor	-8891
▁Details	-8892
-15	-8893
▁instruction	-8894
▁Sox	-8895
-13	-8896
▁Protection	-8897
▁NBC	-8898
▁gym	-8899
▁lawyer	-8900
▁SO	-8901
▁Song	-8902
▁alongside	-8903
▁Model	-8904
▁Junior	-8905
▁limits	-8906
▁overwhel	-8907
▁connections	-8908
cr	-8909
sized	-8910
▁vulner	-8911
▁41	-8912
woman	-8913
mo	-8914
brid	-8915
▁weigh	-8916
▁Univers	-8917
▁opposition	-8918
▁46	-8919
▁buff	-8920
▁Currently	-8921
▁residential	-8922
icut	-8923
▁Collect	-8924
▁unknown	-8925
▁Governor	-8926
▁''	-8927
▁beans	-8928
▁developer	-8929
▁Dor	-8930
Press	-8931
▁pill	-8932
icket	-8933
▁harder	-8934
▁licensed	-8935
▁lifetime	-8936
▁Gun	-8937
▁clip	-8938
written	-8939
▁sponsors	-8940
▁hire	-8941
▁dozen	-8942
▁Wayne	-8943
▁tasks	-8944
▁newest	-8945
▁Links	-8946
▁largely	-8947
▁deadline	-8948
▁printing	-8949
vard	-8950
▁tum	-8951
▁Round	-8952
▁Marine	-8953
▁Perfect	-8954
ITY	-8955
enter	-8956
▁trem	-8957
▁temperatures	-8958
onic	-8959
▁rib	-8960
▁myst	-8961
ja	-8962
▁wave	-8963
limited	-8964
▁Maine	-8965
▁Prior	-8966
▁Assistant	-8967
▁Gift	-8968
▁unusual	-8969
▁47	-8970
▁compr	-8971
apping	-8972
unicip	-8973
▁lowest	-8974
▁finishing	-8975
▁reception	-8976
▁Cloud	-8977
▁pointed	-8978
Fi	-8979
▁Original	-8980
UST	-8981
anchester	-8982
▁criteria	-8983
▁guaranteed	-8984
▁85	-8985
▁combat	-8986
tha	-8987
▁tiss	-8988
▁persons	-8989
▁literally	-8990
▁Alp	-8991
enth	-8992
arring	-8993
▁childhood	-8994
▁principles	-8995
▁Ped	-8996
▁5-	-8997
▁Bron	-8998
▁Russell	-8999
fish	-9000
▁Ice	-9001
▁sentence	-9002
era	-9003
oween	-9004
▁Dean	-9005
▁Track	-9006
mat	-9007
▁venue	-9008
▁gentle	-9009
________	-9010
BO	-9011
▁ans	-9012
▁loud	-9013
▁preview	-9014
▁containing	-9015
icking	-9016
▁potentially	-9017
▁fewer	-9018
▁democr	-9019
▁fru	-9020
▁unw	-9021
asket	-9022
bors	-9023
▁sculpt	-9024
▁careful	-9025
Tr	-9026
sea	-9027
▁Text	-9028
▁borrow	-9029
▁Pittsburgh	-9030
▁contributed	-9031
▁Veter	-9032
▁protest	-9033
▁Jane	-9034
▁false	-9035
▁directory	-9036
via	-9037
bound	-9038
omore	-9039
▁Sweet	-9040
▁opposite	-9041
▁id	-9042
uine	-9043
▁territ	-9044
ais	-9045
▁Age	-9046
▁laid	-9047
quality	-9048
▁lesson	-9049
▁waters	-9050
▁bold	-9051
▁Features	-9052
▁Ow	-9053
▁Jobs	-9054
▁2)	-9055
▁Brew	-9056
▁Jer	-9057
▁Pier	-9058
▁overse	-9059
▁greatly	-9060
▁Afghanistan	-9061
▁Without	-9062
4)	-9063
▁Sab	-9064
▁tone	-9065
▁strict	-9066
▁directions	-9067
▁outs	-9068
▁afraid	-9069
▁expression	-9070
▁Mississippi	-9071
uits	-9072
▁Navy	-9073
▁1.5	-9074
▁feelings	-9075
▁Complete	-9076
▁Prince	-9077
▁lady	-9078
▁pitc	-9079
▁gained	-9080
▁disaster	-9081
viously	-9082
▁Orlando	-9083
▁northern	-9084
▁Subscribe	-9085
▁1)	-9086
▁evil	-9087
▁lift	-9088
▁math	-9089
▁honey	-9090
▁Brooklyn	-9091
▁represented	-9092
▁Users	-9093
▁singing	-9094
▁promotion	-9095
screen	-9096
▁Holiday	-9097
▁convert	-9098
overs	-9099
▁Weather	-9100
elle	-9101
outer	-9102
▁dual	-9103
▁lineup	-9104
▁graphic	-9105
iot	-9106
udd	-9107
▁warranty	-9108
▁Thanksgiving	-9109
▁consumption	-9110
▁Perry	-9111
▁golden	-9112
May	-9113
▁synt	-9114
▁Bird	-9115
▁Defense	-9116
▁revolution	-9117
▁gre	-9118
▁Gord	-9119
▁strongly	-9120
▁Fast	-9121
▁Cub	-9122
▁Images	-9123
quis	-9124
▁Der	-9125
▁Fri	-9126
▁Kingdom	-9127
▁desired	-9128
▁fabulous	-9129
▁soup	-9130
▁equival	-9131
▁granted	-9132
aly	-9133
▁Chairman	-9134
▁introduction	-9135
▁Affairs	-9136
▁Element	-9137
▁sensitive	-9138
▁Continue	-9139
▁favorites	-9140
▁Connecticut	-9141
ogy	-9142
▁54	-9143
▁Cole	-9144
▁Simon	-9145
▁enables	-9146
oa	-9147
rog	-9148
lies	-9149
▁accuracy	-9150
▁struggle	-9151
▁Nik	-9152
▁dramatic	-9153
▁Dak	-9154
▁shoe	-9155
ockets	-9156
▁Greek	-9157
▁referred	-9158
▁Performance	-9159
itis	-9160
▁Agr	-9161
emet	-9162
▁breaks	-9163
▁pushed	-9164
▁institution	-9165
▁prime	-9166
▁recall	-9167
step	-9168
▁(1)	-9169
▁narr	-9170
▁semi	-9171
▁Early	-9172
▁stable	-9173
At	-9174
▁phr	-9175
▁Andre	-9176
▁aspect	-9177
lessly	-9178
▁admin	-9179
ventional	-9180
gie	-9181
▁lip	-9182
▁visible	-9183
▁comparison	-9184
mod	-9185
▁ske	-9186
▁Clear	-9187
▁Manchester	-9188
-2013	-9189
▁Roberts	-9190
▁hanging	-9191
▁seventh	-9192
▁Eagles	-9193
▁worried	-9194
▁Wars	-9195
▁Overall	-9196
inding	-9197
clusive	-9198
▁humans	-9199
▁displays	-9200
▁SD	-9201
bled	-9202
▁lies	-9203
▁stood	-9204
olly	-9205
oust	-9206
▁tsp	-9207
▁Cart	-9208
▁explos	-9209
rated	-9210
▁Simply	-9211
▁Scotland	-9212
▁impressed	-9213
▁incredibly	-9214
Ed	-9215
▁toys	-9216
▁domin	-9217
▁elegant	-9218
▁flights	-9219
▁Everything	-9220
haust	-9221
▁Near	-9222
▁Olympics	-9223
▁holes	-9224
▁Flow	-9225
quarters	-9226
▁Creative	-9227
▁wrap	-9228
▁Hal	-9229
▁Birth	-9230
▁yours	-9231
▁Excell	-9232
ART	-9233
▁falls	-9234
▁patch	-9235
▁pride	-9236
riculum	-9237
▁Several	-9238
▁equipped	-9239
▁automatic	-9240
ami	-9241
▁introduce	-9242
▁Susan	-9243
▁threw	-9244
▁possession	-9245
OG	-9246
xxxx	-9247
▁anx	-9248
▁Cher	-9249
covery	-9250
▁races	-9251
⁄2	-9252
▁focuses	-9253
▁answered	-9254
Hz	-9255
▁candy	-9256
▁Var	-9257
iatric	-9258
▁Weight	-9259
▁Consult	-9260
▁reserve	-9261
▁purchasing	-9262
wing	-9263
athon	-9264
▁1,000	-9265
▁hunting	-9266
▁expenses	-9267
Te	-9268
ii	-9269
▁vill	-9270
▁usage	-9271
▁deploy	-9272
▁integration	-9273
▁CT	-9274
▁bug	-9275
▁mac	-9276
▁pilot	-9277
▁Jonathan	-9278
Up	-9279
▁Wire	-9280
▁stake	-9281
▁mistake	-9282
▁arrival	-9283
▁ESP	-9284
▁regions	-9285
▁struggling	-9286
▁torn	-9287
▁newsletter	-9288
▁Lane	-9289
▁recon	-9290
▁losses	-9291
▁gang	-9292
DAY	-9293
▁targeted	-9294
ovation	-9295
▁ranging	-9296
letin	-9297
▁reprodu	-9298
▁photographer	-9299
▁pants	-9300
aha	-9301
▁Trip	-9302
▁keyboard	-9303
▁producers	-9304
hol	-9305
▁Moon	-9306
ader	-9307
isms	-9308
▁600	-9309
▁independ	-9310
this	-9311
▁elections	-9312
erald	-9313
▁HTML	-9314
▁Nort	-9315
▁intel	-9316
▁tours	-9317
▁diseases	-9318
gree	-9319
▁mouse	-9320
▁admit	-9321
▁Victoria	-9322
aka	-9323
▁pregnancy	-9324
▁tap	-9325
ounge	-9326
▁Working	-9327
AG	-9328
▁vine	-9329
▁subsequ	-9330
▁representatives	-9331
▁definition	-9332
oker	-9333
▁temporary	-9334
▁reportedly	-9335
▁deck	-9336
▁Terms	-9337
▁mortgage	-9338
▁Viet	-9339
▁nose	-9340
ateful	-9341
cour	-9342
itty	-9343
▁Less	-9344
▁personality	-9345
▁literature	-9346
▁Beh	-9347
▁Nash	-9348
▁gene	-9349
igious	-9350
▁subjects	-9351
▁indicated	-9352
▁Effect	-9353
▁reporter	-9354
engers	-9355
vas	-9356
▁Rap	-9357
▁strip	-9358
rets	-9359
▁Fat	-9360
▁Opp	-9361
uminum	-9362
fire	-9363
uma	-9364
▁suspend	-9365
onda	-9366
▁Rout	-9367
▁frustr	-9368
▁indicate	-9369
ports	-9370
▁counts	-9371
▁fo	-9372
▁acquired	-9373
criptions	-9374
▁inner	-9375
▁exceed	-9376
cm	-9377
▁km	-9378
overty	-9379
▁Scient	-9380
▁Hotels	-9381
▁expanded	-9382
▁freshman	-9383
▁promoting	-9384
site	-9385
▁Sche	-9386
erving	-9387
▁param	-9388
rett	-9389
▁’	-9390
▁lake	-9391
49	-9392
MC	-9393
Wor	-9394
▁branch	-9395
▁credits	-9396
▁servers	-9397
▁electricity	-9398
▁Saint	-9399
▁Wee	-9400
acious	-9401
▁choosing	-9402
stract	-9403
▁Experience	-9404
▁till	-9405
▁Bruce	-9406
cop	-9407
emetery	-9408
▁Advent	-9409
▁Future	-9410
46	-9411
zing	-9412
▁sought	-9413
▁tackle	-9414
▁contribution	-9415
▁Results	-9416
)||	-9417
mart	-9418
▁cats	-9419
▁tact	-9420
eek	-9421
▁Record	-9422
▁flower	-9423
▁Mu	-9424
▁DNA	-9425
▁Grow	-9426
▁dess	-9427
▁emails	-9428
▁CBS	-9429
▁Conn	-9430
▁respective	-9431
▁pregnant	-9432
▁romantic	-9433
▁industries	-9434
ampa	-9435
post	-9436
▁CNN	-9437
▁Lib	-9438
ishop	-9439
▁Rain	-9440
papers	-9441
▁Tyler	-9442
400	-9443
▁compliment	-9444
▁fiber	-9445
▁checks	-9446
▁finest	-9447
▁Got	-9448
ricts	-9449
▁whenever	-9450
▁Halloween	-9451
▁Body	-9452
▁manual	-9453
▁stupid	-9454
orse	-9455
uana	-9456
▁reven	-9457
▁athletic	-9458
▁DI	-9459
▁explan	-9460
▁adopted	-9461
▁bull	-9462
▁Planning	-9463
▁Hop	-9464
irates	-9465
▁Antonio	-9466
▁regardless	-9467
▁buyers	-9468
bean	-9469
▁guns	-9470
ropical	-9471
▁Alaska	-9472
▁Adams	-9473
▁disappointed	-9474
▁Beat	-9475
▁jazz	-9476
▁Magic	-9477
▁Circ	-9478
▁reaching	-9479
pense	-9480
▁walks	-9481
▁western	-9482
▁Gab	-9483
▁Roc	-9484
▁Larry	-9485
irlines	-9486
▁shortly	-9487
▁involves	-9488
▁Nap	-9489
▁mad	-9490
▁stolen	-9491
▁wanting	-9492
▁supporters	-9493
8)	-9494
▁Sale	-9495
oli	-9496
▁Drug	-9497
?!	-9498
▁NHL	-9499
immer	-9500
▁Tru	-9501
▁Pant	-9502
▁CC	-9503
▁360	-9504
▁Impro	-9505
▁drove	-9506
%,	-9507
VP	-9508
▁Bag	-9509
▁delivers	-9510
▁conservative	-9511
rena	-9512
ridge	-9513
▁margin	-9514
ASE	-9515
▁43	-9516
▁mild	-9517
▁brush	-9518
FF	-9519
▁Ton	-9520
▁Albert	-9521
▁toss	-9522
▁stored	-9523
▁contracts	-9524
Net	-9525
iche	-9526
▁Charlie	-9527
▁THIS	-9528
▁Tribune	-9529
atile	-9530
▁deficit	-9531
▁Thompson	-9532
burn	-9533
prof	-9534
▁Fal	-9535
▁virus	-9536
▁Resort	-9537
▁1970	-9538
▁Poly	-9539
urities	-9540
▁Sent	-9541
▁withd	-9542
▁190	-9543
▁rolling	-9544
▁tennis	-9545
▁Morning	-9546
600	-9547
ima	-9548
▁Vin	-9549
▁Anne	-9550
▁screw	-9551
▁maintaining	-9552
▁Side	-9553
ielder	-9554
▁Autom	-9555
▁viewed	-9556
▁smartphone	-9557
▁belt	-9558
PL	-9559
una	-9560
▁Bab	-9561
▁Kings	-9562
▁maintained	-9563
:10	-9564
▁cher	-9565
▁Categ	-9566
▁orient	-9567
▁Process	-9568
▁Ont	-9569
▁Edward	-9570
▁carries	-9571
▁soldiers	-9572
▁WW	-9573
▁alt	-9574
▁Pers	-9575
▁Such	-9576
▁drum	-9577
▁teeth	-9578
▁decline	-9579
▁attitude	-9580
▁fur	-9581
▁spiritual	-9582
IDS	-9583
▁lawsuit	-9584
▁mob	-9585
iders	-9586
iating	-9587
▁consideration	-9588
hyth	-9589
▁muscle	-9590
▁6-	-9591
▁aband	-9592
▁twenty	-9593
▁languages	-9594
nce	-9595
▁respectively	-9596
urse	-9597
▁interpret	-9598
mans	-9599
looking	-9600
▁Latest	-9601
▁adj	-9602
▁onion	-9603
▁depends	-9604
▁uniform	-9605
▁Economic	-9606
▁Relations	-9607
iah	-9608
▁Region	-9609
▁Fashion	-9610
▁Mexican	-9611
▁forecast	-9612
▁NASA	-9613
▁enterprise	-9614
ASH	-9615
▁backup	-9616
▁damaged	-9617
ICE	-9618
▁bone	-9619
▁preferred	-9620
▁universities	-9621
esh	-9622
ieties	-9623
▁aimed	-9624
▁sophistic	-9625
▁Double	-9626
▁Modern	-9627
▁Hawaii	-9628
▁remem	-9629
▁Nations	-9630
▁Official	-9631
▁(10	-9632
▁Stories	-9633
▁honored	-9634
▁Feat	-9635
▁IL	-9636
▁Mission	-9637
▁captured	-9638
▁survived	-9639
▁Challenge	-9640
▁contents	-9641
▁Charlotte	-9642
▁CF	-9643
▁Eve	-9644
▁Salt	-9645
▁preced	-9646
▁interact	-9647
▁allegedly	-9648
andal	-9649
▁precise	-9650
inf	-9651
▁Prep	-9652
▁Better	-9653
▁intelligence	-9654
6)	-9655
sect	-9656
▁origin	-9657
▁principal	-9658
▁certificate	-9659
▁initiatives	-9660
▁Merc	-9661
ruption	-9662
▁Diamond	-9663
▁specialist	-9664
▁suddenly	-9665
▁workshops	-9666
.-	-9667
▁Lam	-9668
▁escape	-9669
▁`	-9670
▁tons	-9671
▁emerging	-9672
▁tracking	-9673
▁Nat	-9674
▁rival	-9675
KS	-9676
▁sweep	-9677
▁Lawrence	-9678
aa	-9679
▁Gulf	-9680
hr	-9681
yth	-9682
▁infection	-9683
▁intellect	-9684
PG	-9685
▁Job	-9686
ijuana	-9687
▁Restaurant	-9688
xic	-9689
With	-9690
▁hide	-9691
▁Favor	-9692
▁weapon	-9693
▁texture	-9694
▁Som	-9695
▁vess	-9696
▁defeat	-9697
▁initially	-9698
▁appreciated	-9699
▁focusing	-9700
▁Christopher	-9701
ols	-9702
▁Hamp	-9703
▁editing	-9704
▁complaint	-9705
▁communicate	-9706
oper	-9707
▁Hug	-9708
▁Options	-9709
▁pushing	-9710
▁conservation	-9711
▁bub	-9712
▁Cover	-9713
▁associate	-9714
▁engagement	-9715
NY	-9716
oto	-9717
▁Lat	-9718
▁(201	-9719
▁surve	-9720
▁exposed	-9721
▁entrance	-9722
▁bell	-9723
▁rend	-9724
▁Nothing	-9725
▁processor	-9726
▁Industry	-9727
▁describes	-9728
▁sne	-9729
▁cents	-9730
▁babies	-9731
▁stocks	-9732
▁convenience	-9733
otta	-9734
ilipp	-9735
▁Harvard	-9736
▁overnight	-9737
piece	-9738
▁Rome	-9739
df	-9740
▁prosecut	-9741
▁receiver	-9742
CO	-9743
▁Bring	-9744
▁Anyway	-9745
▁Doctor	-9746
▁panels	-9747
▁52	-9748
▁loy	-9749
▁SW	-9750
▁Metro	-9751
▁Related	-9752
owed	-9753
▁refrig	-9754
▁denied	-9755
▁smoking	-9756
▁Alliance	-9757
▁upset	-9758
▁garage	-9759
▁TX	-9760
▁shock	-9761
▁retailers	-9762
beat	-9763
▁Employ	-9764
▁purchases	-9765
▁Mit	-9766
▁Girls	-9767
▁Peace	-9768
▁sacr	-9769
▁painted	-9770
▁estimates	-9771
▁spectacular	-9772
▁Advanced	-9773
▁evolution	-9774
UD	-9775
proof	-9776
▁Fish	-9777
pending	-9778
▁haz	-9779
▁functionality	-9780
▁forums	-9781
who	-9782
▁ME	-9783
▁Lot	-9784
▁Agricult	-9785
▁Louisiana	-9786
▁reporters	-9787
▁Ga	-9788
▁picking	-9789
▁vanilla	-9790
▁nationwide	-9791
ira	-9792
oding	-9793
▁Nich	-9794
▁slee	-9795
▁Jerry	-9796
ended	-9797
▁BR	-9798
Post	-9799
ommy	-9800
▁Dim	-9801
▁RBI	-9802
store	-9803
▁Buck	-9804
amental	-9805
▁exceptional	-9806
▁Java	-9807
▁stab	-9808
ologists	-9809
▁buttons	-9810
▁BY	-9811
inkle	-9812
▁Death	-9813
▁opposed	-9814
die	-9815
▁Lu	-9816
amon	-9817
▁1-	-9818
▁resistance	-9819
▁supplement	-9820
INE	-9821
▁sexy	-9822
▁Barbara	-9823
▁Chem	-9824
▁courtesy	-9825
▁AV	-9826
▁gap	-9827
▁stylish	-9828
▁unexpected	-9829
ppers	-9830
▁residence	-9831
aux	-9832
phan	-9833
casts	-9834
▁survive	-9835
▁earnings	-9836
▁equivalent	-9837
▁acres	-9838
▁lobby	-9839
▁tremend	-9840
▁(19	-9841
▁bol	-9842
▁Archives	-9843
▁quotes	-9844
▁electrical	-9845
log	-9846
▁voc	-9847
▁Estate	-9848
▁crucial	-9849
▁Assembly	-9850
▁Additionally	-9851
ordinary	-9852
▁girlfriend	-9853
ige	-9854
▁rally	-9855
▁reveal	-9856
▁donated	-9857
▁Could	-9858
▁Course	-9859
▁equally	-9860
▁throwing	-9861
▁alert	-9862
▁rescue	-9863
/5	-9864
▁suck	-9865
▁gathered	-9866
▁oh	-9867
News	-9868
gets	-9869
▁acknowled	-9870
▁graduated	-9871
edge	-9872
▁Crit	-9873
▁ships	-9874
▁2007.	-9875
▁tries	-9876
▁grocer	-9877
▁engines	-9878
Fr	-9879
▁Tam	-9880
▁Private	-9881
OUN	-9882
▁SEC	-9883
door	-9884
▁Amy	-9885
▁frozen	-9886
▁nursing	-9887
▁naturally	-9888
▁pp	-9889
apore	-9890
▁1998	-9891
inking	-9892
▁sin	-9893
▁peak	-9894
▁ESPN	-9895
berries	-9896
▁evaluation	-9897
▁11.	-9898
▁Hig	-9899
▁rated	-9900
▁modified	-9901
▁representing	-9902
erk	-9903
▁letting	-9904
▁somehow	-9905
▁musicians	-9906
▁]	-9907
▁AF	-9908
through	-9909
▁venture	-9910
▁terrible	-9911
▁2.5	-9912
ounces	-9913
▁insert	-9914
lan	-9915
▁stem	-9916
▁hired	-9917
▁potatoes	-9918
▁publications	-9919
asty	-9920
▁Fan	-9921
▁aims	-9922
▁curren	-9923
oning	-9924
unate	-9925
▁chip	-9926
▁ther	-9927
▁Giants	-9928
▁hockey	-9929
▁Terry	-9930
▁Gordon	-9931
▁Kennedy	-9932
SL	-9933
Last	-9934
▁prizes	-9935
▁Tag	-9936
▁champions	-9937
▁completion	-9938
dep	-9939
▁Movie	-9940
▁vendors	-9941
▁annoy	-9942
▁Nelson	-9943
▁kil	-9944
▁uncom	-9945
itement	-9946
▁Occ	-9947
▁Buffalo	-9948
kia	-9949
▁iT	-9950
▁cow	-9951
angle	-9952
▁Sean	-9953
▁Craig	-9954
▁Wright	-9955
▁Senator	-9956
▁platforms	-9957
pack	-9958
▁worn	-9959
▁Dance	-9960
▁comprom	-9961
▁dancing	-9962
▁entitled	-9963
▁PL	-9964
▁bacter	-9965
▁surge	-9966
▁troops	-9967
▁Dub	-9968
clude	-9969
▁courts	-9970
▁Transportation	-9971
aware	-9972
▁1000	-9973
▁Manh	-9974
ounced	-9975
▁streak	-9976
▁heavily	-9977
▁diversity	-9978
▁Gas	-9979
▁flexibility	-9980
▁Prim	-9981
▁parks	-9982
▁scholarship	-9983
isan	-9984
oops	-9985
▁Hend	-9986
▁relative	-9987
grade	-9988
▁Lisa	-9989
itzer	-9990
itches	-9991
▁portra	-9992
▁admission	-9993
ifting	-9994
▁Stars	-9995
▁exhaust	-9996
rix	-9997
▁12.	-9998
▁spir	-9999
▁roots	-10000
▁recruit	-10001
▁correctly	-10002
nut	-10003
▁ink	-10004
▁Chamber	-10005
▁semester	-10006
▁studying	-10007
▁approaches	-10008
-18	-10009
▁chap	-10010
▁isol	-10011
▁snap	-10012
▁publishing	-10013
▁Display	-10014
▁Glass	-10015
▁tender	-10016
▁hospitals	-10017
▁virtually	-10018
▁Application	-10019
▁Kong	-10020
▁asks	-10021
▁Row	-10022
▁somebody	-10023
▁Ak	-10024
ova	-10025
▁$1.	-10026
▁Jessica	-10027
ito	-10028
storm	-10029
▁noon	-10030
sl	-10031
▁dies	-10032
▁secondary	-10033
▁fault	-10034
shirt	-10035
▁physician	-10036
vironments	-10037
▁Convention	-10038
▁celebrated	-10039
▁circle	-10040
▁GOP	-10041
▁Reader	-10042
▁Reserve	-10043
▁estimate	-10044
▁tablespoons	-10045
oof	-10046
mother	-10047
▁stops	-10048
▁Galaxy	-10049
▁Wy	-10050
▁accompan	-10051
▁functional	-10052
imm	-10053
▁Dakota	-10054
ICK	-10055
▁elsewhere	-10056
ders	-10057
▁Ess	-10058
▁File	-10059
▁Carter	-10060
rav	-10061
card	-10062
▁Alan	-10063
▁actors	-10064
▁BL	-10065
bourne	-10066
▁proved	-10067
▁Chel	-10068
▁tort	-10069
ishers	-10070
▁ladies	-10071
bus	-10072
onz	-10073
▁Aqu	-10074
found	-10075
▁Large	-10076
")	-10077
▁refe	-10078
▁roster	-10079
▁genuine	-10080
Web	-10081
▁employers	-10082
master	-10083
▁artwork	-10084
▁exhibit	-10085
▁governments	-10086
▁viewers	-10087
▁Manufact	-10088
▁wildlife	-10089
lend	-10090
▁Wol	-10091
semble	-10092
▁pul	-10093
▁browsing	-10094
▁veterans	-10095
web	-10096
▁zero	-10097
▁inject	-10098
▁loaded	-10099
wall	-10100
▁rubber	-10101
▁Move	-10102
▁stom	-10103
▁underst	-10104
▁NYC	-10105
ainless	-10106
▁outcome	-10107
▁disabled	-10108
gins	-10109
▁horses	-10110
OVE	-10111
▁Robinson	-10112
▁Ult	-10113
▁Madison	-10114
cor	-10115
ieve	-10116
▁Deal	-10117
▁Todd	-10118
▁rehab	-10119
▁formula	-10120
▁packaging	-10121
▁dismiss	-10122
▁philosophy	-10123
speed	-10124
▁minimal	-10125
▁Heritage	-10126
▁lately	-10127
▁obst	-10128
▁Alexander	-10129
▁Leave	-10130
▁declined	-10131
▁unlikely	-10132
▁compliance	-10133
▁listings	-10134
rer	-10135
▁Nature	-10136
▁desper	-10137
▁rarely	-10138
▁delivering	-10139
▁MB	-10140
▁Much	-10141
▁phenomen	-10142
eld	-10143
▁Joy	-10144
▁Too	-10145
▁Cell	-10146
▁Nurs	-10147
rat	-10148
▁Mars	-10149
▁deeply	-10150
▁poster	-10151
▁rapidly	-10152
isers	-10153
▁durable	-10154
▁unemployment	-10155
▁101	-10156
▁Nev	-10157
▁Patri	-10158
▁Suite	-10159
home	-10160
pany	-10161
zens	-10162
anted	-10163
igate	-10164
▁Lions	-10165
▁prints	-10166
▁fingers	-10167
▁thousand	-10168
-14	-10169
uct	-10170
▁unve	-10171
▁Registration	-10172
▁flaw	-10173
▁tags	-10174
▁ratings	-10175
▁Elementary	-10176
▁Bond	-10177
about	-10178
▁boots	-10179
▁Unt	-10180
utter	-10181
▁Integr	-10182
▁refused	-10183
▁$25	-10184
▁demands	-10185
’.	-10186
▁stages	-10187
strong	-10188
▁blame	-10189
po	-10190
inter	-10191
EA	-10192
▁ca	-10193
▁Dod	-10194
▁iOS	-10195
▁Duke	-10196
▁pound	-10197
isdom	-10198
▁rely	-10199
Donald	-10200
▁browse	-10201
▁hearts	-10202
▁ruling	-10203
▁Marshall	-10204
▁passengers	-10205
ogen	-10206
▁neut	-10207
erator	-10208
▁Tampa	-10209
▁cancel	-10210
airy	-10211
▁Finance	-10212
▁Commerce	-10213
ESS	-10214
▁mm	-10215
▁Dri	-10216
▁okay	-10217
▁roughly	-10218
7)	-10219
▁nutrition	-10220
▁demonstrate	-10221
ji	-10222
▁72	-10223
▁Yeah	-10224
▁assigned	-10225
▁satellite	-10226
▁keys	-10227
▁segment	-10228
▁resulted	-10229
▁pets	-10230
▁Ted	-10231
▁Pink	-10232
unicipal	-10233
▁Israeli	-10234
▁tomatoes	-10235
▁Years	-10236
▁Domin	-10237
Not	-10238
ango	-10239
▁scar	-10240
section	-10241
▁Brandon	-10242
▁Meeting	-10243
▁eighth	-10244
▁generations	-10245
▁51	-10246
▁deaths	-10247
▁fiction	-10248
MP	-10249
iler	-10250
▁lbs	-10251
▁(9	-10252
backs	-10253
maker	-10254
▁agenda	-10255
▁Authority	-10256
OST	-10257
bered	-10258
▁Mind	-10259
▁discip	-10260
aughters	-10261
▁Hus	-10262
▁Imp	-10263
▁latter	-10264
▁studied	-10265
▁57	-10266
ivities	-10267
▁Say	-10268
▁shit	-10269
▁Third	-10270
▁Ministry	-10271
▁Due	-10272
▁Sex	-10273
▁Info	-10274
▁judges	-10275
▁unp	-10276
Berry	-10277
▁bust	-10278
▁begun	-10279
▁Gib	-10280
▁Wolf	-10281
▁Kitchen	-10282
▁Singapore	-10283
ifted	-10284
▁resume	-10285
▁acquisition	-10286
▁prospect	-10287
uild	-10288
▁Item	-10289
▁attempted	-10290
▁sour	-10291
▁Nokia	-10292
▁1:	-10293
▁hadn	-10294
▁pupp	-10295
▁Hamilton	-10296
enna	-10297
▁Mini	-10298
▁gate	-10299
▁excitement	-10300
▁departments	-10301
▁Answ	-10302
▁codes	-10303
▁themes	-10304
jo	-10305
▁satisfied	-10306
▁structures	-10307
▁documentation	-10308
gener	-10309
▁tube	-10310
ustration	-10311
▁Hous	-10312
▁flavors	-10313
▁Rail	-10314
▁Vent	-10315
▁stamp	-10316
oser	-10317
▁Anna	-10318
▁hyper	-10319
▁shelter	-10320
▁neighbors	-10321
only	-10322
▁Making	-10323
▁cm	-10324
▁Ori	-10325
▁wise	-10326
▁maker	-10327
▁Campus	-10328
▁formats	-10329
li	-10330
▁56	-10331
▁bicy	-10332
▁disk	-10333
charge	-10334
▁commonly	-10335
▁20-	-10336
Now	-10337
▁Blood	-10338
▁jacket	-10339
▁Dyn	-10340
▁responses	-10341
▁compatible	-10342
issa	-10343
▁lean	-10344
▁seam	-10345
▁Cream	-10346
▁paste	-10347
▁winds	-10348
def	-10349
▁framework	-10350
▁sufficient	-10351
▁participated	-10352
▁Palest	-10353
▁Architect	-10354
▁Manhattan	-10355
▁expecting	-10356
▁reservations	-10357
angel	-10358
▁entertaining	-10359
opt	-10360
▁SA	-10361
best	-10362
▁Hong	-10363
▁cookie	-10364
▁VA	-10365
▁Fisher	-10366
▁rounds	-10367
cal	-10368
▁apple	-10369
ervice	-10370
▁divor	-10371
iffe	-10372
ouver	-10373
elve	-10374
azines	-10375
▁inventory	-10376
▁aer	-10377
▁uncertain	-10378
▁documentary	-10379
Pe	-10380
▁(2)	-10381
▁declared	-10382
▁grateful	-10383
▁trademark	-10384
▁Firef	-10385
▁grants	-10386
▁anybody	-10387
▁Unit	-10388
▁layout	-10389
▁privile	-10390
▁Broadway	-10391
▁Pad	-10392
▁booking	-10393
▁Franklin	-10394
▁crisp	-10395
▁divide	-10396
▁scratch	-10397
▁ru	-10398
rock	-10399
▁Mall	-10400
▁scrap	-10401
▁cust	-10402
▁addressed	-10403
▁stability	-10404
▁twist	-10405
▁salary	-10406
▁concerning	-10407
▁Tan	-10408
▁Enterprise	-10409
ilst	-10410
▁wing	-10411
▁barely	-10412
▁concrete	-10413
▁Hampshire	-10414
▁2:	-10415
oting	-10416
▁pursue	-10417
▁Doug	-10418
enities	-10419
▁powers	-10420
lined	-10421
▁Animal	-10422
▁districts	-10423
▁Muslim	-10424
▁Bapt	-10425
▁Rice	-10426
▁Oscar	-10427
▁discovery	-10428
▁bail	-10429
▁pics	-10430
▁funded	-10431
▁figured	-10432
▁environments	-10433
TP	-10434
pool	-10435
▁jury	-10436
▁repeat	-10437
▁nations	-10438
▁50%	-10439
▁alleg	-10440
lington	-10441
▁Legisl	-10442
▁WE	-10443
▁cig	-10444
▁leaf	-10445
▁logged	-10446
▁involvement	-10447
▁2006,	-10448
▁react	-10449
▁prevention	-10450
▁strengthen	-10451
▁â	-10452
gor	-10453
▁("	-10454
▁350	-10455
▁locally	-10456
41	-10457
rend	-10458
▁30-	-10459
▁Urban	-10460
▁teens	-10461
▁Hud	-10462
▁mph	-10463
western	-10464
▁restrictions	-10465
▁wines	-10466
▁Premier	-10467
▁creativity	-10468
▁administrative	-10469
▁3/4	-10470
▁instruments	-10471
▁Coc	-10472
▁spell	-10473
▁Below	-10474
▁Valentine	-10475
SW	-10476
kees	-10477
▁Philipp	-10478
▁captain	-10479
▁deserve	-10480
▁implemented	-10481
▁certification	-10482
ugs	-10483
▁distr	-10484
▁occurs	-10485
▁poverty	-10486
rah	-10487
▁outfit	-10488
▁Imm	-10489
▁Import	-10490
▁Address	-10491
▁harvest	-10492
▁exploring	-10493
Or	-10494
inst	-10495
ivals	-10496
LD	-10497
▁Kl	-10498
▁crimes	-10499
▁IC	-10500
▁bund	-10501
▁nail	-10502
▁deleg	-10503
▁toler	-10504
▁qualify	-10505
▁striking	-10506
▁curriculum	-10507
▁requirement	-10508
▁12-	-10509
▁Fle	-10510
▁army	-10511
▁singles	-10512
▁operated	-10513
stop	-10514
▁Aaron	-10515
▁hiring	-10516
even	-10517
onut	-10518
▁Fant	-10519
▁Hunter	-10520
▁banking	-10521
42	-10522
▁BC	-10523
▁Bart	-10524
▁compact	-10525
▁expanding	-10526
▁Rat	-10527
▁export	-10528
▁Install	-10529
MI	-10530
▁Tea	-10531
▁prev	-10532
▁wrest	-10533
▁conj	-10534
▁Baker	-10535
▁gathering	-10536
▁Cou	-10537
organ	-10538
▁Wales	-10539
▁ridic	-10540
▁gender	-10541
▁wheels	-10542
▁complement	-10543
▁Race	-10544
ipes	-10545
▁apolog	-10546
▁exclusively	-10547
▁Xbox	-10548
......	-10549
▁suite	-10550
▁fastest	-10551
urches	-10552
▁fantasy	-10553
▁promised	-10554
▁greet	-10555
▁barrel	-10556
▁applying	-10557
▁screening	-10558
▁importantly	-10559
92	-10560
▁alarm	-10561
▁humor	-10562
▁ministry	-10563
▁eliminate	-10564
▁gig	-10565
▁perm	-10566
▁spam	-10567
▁consequences	-10568
PI	-10569
udes	-10570
estone	-10571
▁Kit	-10572
▁exit	-10573
orneys	-10574
▁extent	-10575
▁wrapped	-10576
▁Electric	-10577
▁(199	-10578
▁scream	-10579
▁divided	-10580
▁Michelle	-10581
Every	-10582
▁Remove	-10583
▁colorful	-10584
▁enhanced	-10585
▁playoffs	-10586
▁ownership	-10587
MB	-10588
▁Dise	-10589
▁Ontario	-10590
="	-10591
▁Had	-10592
▁concepts	-10593
▁complicated	-10594
View	-10595
addy	-10596
plus	-10597
▁moon	-10598
▁Dutch	-10599
▁folder	-10600
▁piano	-10601
▁WordPress	-10602
▁publisher	-10603
▁kiss	-10604
chell	-10605
reach	-10606
▁True	-10607
▁permit	-10608
obb	-10609
ancouver	-10610
▁Programs	-10611
▁produces	-10612
aco	-10613
-2012	-10614
▁Laura	-10615
▁Arkansas	-10616
▁Cape	-10617
atherine	-10618
zed	-10619
▁Griff	-10620
▁incent	-10621
▁aggressive	-10622
▁Dougl	-10623
▁Parker	-10624
▁deeper	-10625
▁GMT	-10626
first	-10627
▁seniors	-10628
acco	-10629
▁carpet	-10630
▁myth	-10631
▁suffer	-10632
▁Legal	-10633
▁Theater	-10634
PT	-10635
eem	-10636
▁bottles	-10637
rot	-10638
▁mystery	-10639
▁Fine	-10640
▁minds	-10641
▁ratio	-10642
▁HE	-10643
▁Basket	-10644
vo	-10645
..."	-10646
▁Alb	-10647
▁straw	-10648
▁Battle	-10649
▁iTunes	-10650
▁Nig	-10651
▁Altern	-10652
▁Fer	-10653
inema	-10654
▁nobody	-10655
▁Language	-10656
▁counties	-10657
▁essentially	-10658
76	-10659
▁$8	-10660
cats	-10661
▁pockets	-10662
cat	-10663
▁Tips	-10664
olitan	-10665
▁shapes	-10666
▁Nice	-10667
roduct	-10668
▁starter	-10669
ELL	-10670
▁toy	-10671
▁consistently	-10672
▁occasionally	-10673
By	-10674
ripts	-10675
umble	-10676
father	-10677
▁Voice	-10678
▁Korean	-10679
▁Tournament	-10680
▁oldest	-10681
▁Lad	-10682
▁nuts	-10683
oppers	-10684
▁Notes	-10685
▁burning	-10686
cho	-10687
▁Si	-10688
▁Tree	-10689
▁calories	-10690
▁employer	-10691
▁campaigns	-10692
▁compensation	-10693
▁globe	-10694
▁slide	-10695
▁Audio	-10696
▁Hello	-10697
▁Gate	-10698
▁Liter	-10699
▁Browse	-10700
▁investments	-10701
==	-10702
▁gam	-10703
elect	-10704
▁Murray	-10705
▁cruise	-10706
▁Getting	-10707
▁grounds	-10708
▁personalized	-10709
▁GT	-10710
▁armed	-10711
itations	-10712
▁emissions	-10713
▁intention	-10714
▁complaints	-10715
ali	-10716
▁Self	-10717
▁Virt	-10718
▁engaging	-10719
▁thrown	-10720
▁Particip	-10721
▁Clay	-10722
▁7:30	-10723
▁Pain	-10724
▁Tools	-10725
▁albums	-10726
agen	-10727
▁hood	-10728
▁colleges	-10729
▁nonprofit	-10730
▁fundamental	-10731
oyd	-10732
▁uncle	-10733
▁attrib	-10734
▁redist	-10735
▁sheets	-10736
▁configuration	-10737
▁Bott	-10738
▁bless	-10739
▁coordinator	-10740
▁satisfaction	-10741
▁ft	-10742
▁Rent	-10743
braska	-10744
▁couples	-10745
icals	-10746
▁Feel	-10747
▁Artist	-10748
▁Graham	-10749
▁Weekly	-10750
wire	-10751
▁Bear	-10752
approp	-10753
▁mayor	-10754
▁container	-10755
imental	-10756
''	-10757
Oh	-10758
▁$15	-10759
rection	-10760
▁Unlike	-10761
▁abroad	-10762
▁diamond	-10763
▁accommodation	-10764
▁99	-10765
▁toll	-10766
▁restore	-10767
▁Medicare	-10768
▁celebrating	-10769
enz	-10770
gun	-10771
OUR	-10772
▁1960	-10773
▁Stop	-10774
▁Morris	-10775
▁excellence	-10776
Mar	-10777
▁Cable	-10778
▁Evans	-10779
▁Oakland	-10780
NE	-10781
▁calm	-10782
OB	-10783
▁cam	-10784
▁Volunte	-10785
▁mountains	-10786
bass	-10787
▁ensuring	-10788
▁fed	-10789
▁knife	-10790
Add	-10791
bage	-10792
▁Gree	-10793
▁explo	-10794
▁legacy	-10795
▁tissue	-10796
▁offerings	-10797
▁archive	-10798
▁Consumer	-10799
▁generous	-10800
▁sophomore	-10801
▁soy	-10802
▁Mitt	-10803
▁Roger	-10804
▁cancell	-10805
▁balanced	-10806
▁beds	-10807
▁honors	-10808
▁Cinc	-10809
▁Liberty	-10810
▁interaction	-10811
ARD	-10812
han	-10813
▁crafts	-10814
▁danger	-10815
▁vert	-10816
▁Easter	-10817
eled	-10818
▁Boe	-10819
▁dried	-10820
▁Reuters	-10821
▁sleeping	-10822
Do	-10823
▁gal	-10824
▁mistakes	-10825
▁extraordinary	-10826
-25	-10827
▁nerv	-10828
▁tune	-10829
▁belief	-10830
▁Yankees	-10831
▁marijuana	-10832
eters	-10833
▁distribut	-10834
▁waves	-10835
▁Active	-10836
▁undert	-10837
rus	-10838
▁expects	-10839
▁lawyers	-10840
asting	-10841
▁Added	-10842
700	-10843
▁Vista	-10844
▁adequ	-10845
▁layers	-10846
▁makeup	-10847
▁Foreign	-10848
oft	-10849
▁EC	-10850
▁resid	-10851
▁footage	-10852
▁aluminum	-10853
▁Guest	-10854
▁alike	-10855
▁ranks	-10856
▁frequent	-10857
disc	-10858
boards	-10859
elfare	-10860
▁immigr	-10861
▁inquir	-10862
▁premier	-10863
▁removal	-10864
▁Jazz	-10865
▁theatre	-10866
▁Vancouver	-10867
pow	-10868
▁Cos	-10869
▁congress	-10870
▁Mun	-10871
after	-10872
▁cous	-10873
▁Subject	-10874
▁employed	-10875
9.99	-10876
▁3.5	-10877
orted	-10878
ís	-10879
tains	-10880
▁cheer	-10881
▁lyrics	-10882
▁beating	-10883
▁boyfriend	-10884
▁periods	-10885
▁paintings	-10886
IO	-10887
▁66	-10888
▁Moh	-10889
▁exists	-10890
▁titled	-10891
Me	-10892
anked	-10893
▁crown	-10894
▁Rating	-10895
▁references	-10896
▁58	-10897
▁Therefore	-10898
ANT	-10899
rous	-10900
▁alter	-10901
▁edges	-10902
▁saves	-10903
▁handed	-10904
▁existence	-10905
terior	-10906
▁DR	-10907
innati	-10908
▁loop	-10909
▁Plant	-10910
boro	-10911
otion	-10912
▁ye	-10913
DC	-10914
▁fool	-10915
▁defect	-10916
▁Sout	-10917
▁Compl	-10918
▁hes	-10919
aukee	-10920
▁Luther	-10921
▁prayer	-10922
▁remarkable	-10923
▁sophisticated	-10924
,’	-10925
▁Pas	-10926
▁crop	-10927
▁span	-10928
▁glasses	-10929
▁protecting	-10930
▁transmission	-10931
▁pork	-10932
▁rush	-10933
istent	-10934
▁Touch	-10935
▁Campbell	-10936
quet	-10937
▁episodes	-10938
acon	-10939
ipper	-10940
DP	-10941
heat	-10942
▁Fig	-10943
▁assembly	-10944
▁passenger	-10945
▁vocal	-10946
▁towns	-10947
gi	-10948
▁presentations	-10949
hard	-10950
▁GPS	-10951
▁defeated	-10952
▁Jen	-10953
annon	-10954
iology	-10955
▁annually	-10956
▁Om	-10957
▁$30	-10958
▁Rangers	-10959
▁anch	-10960
▁tooth	-10961
▁jumped	-10962
▁Keith	-10963
▁Write	-10964
▁hydro	-10965
▁emphasis	-10966
ITH	-10967
roe	-10968
▁dipl	-10969
▁Prize	-10970
▁arrangements	-10971
▁Gay	-10972
▁Ground	-10973
▁tremendous	-10974
See	-10975
exp	-10976
▁dear	-10977
▁module	-10978
▁directors	-10979
▁**	-10980
▁rack	-10981
pection	-10982
▁Target	-10983
▁curious	-10984
▁Desk	-10985
▁pour	-10986
olid	-10987
▁Beth	-10988
▁Han	-10989
mons	-10990
they	-10991
▁elder	-10992
▁EV	-10993
▁Bou	-10994
▁fruits	-10995
▁rolled	-10996
▁competing	-10997
▁contacts	-10998
▁Half	-10999
encing	-11000
▁Screen	-11001
▁summary	-11002
▁encouraging	-11003
▁Wonder	-11004
shot	-11005
annah	-11006
▁Reds	-11007
▁caps	-11008
▁sits	-11009
▁picks	-11010
▁Machine	-11011
Date	-11012
▁Guy	-11013
uition	-11014
▁disag	-11015
▁heaven	-11016
▁Turkey	-11017
▁backed	-11018
▁Collins	-11019
▁handful	-11020
OX	-11021
NS	-11022
UE	-11023
Mon	-11024
netic	-11025
▁Warren	-11026
▁chronic	-11027
▁Technical	-11028
▁Pharm	-11029
▁mathem	-11030
▁targets	-11031
▁universe	-11032
was	-11033
▁10%	-11034
▁safely	-11035
▁endorse	-11036
▁lightweight	-11037
oria	-11038
▁disorder	-11039
▁embed	-11040
ishment	-11041
▁coupon	-11042
▁mirror	-11043
▁Storm	-11044
▁innoc	-11045
▁possibilities	-11046
vd	-11047
enny	-11048
▁Stra	-11049
▁bite	-11050
Pr	-11051
oks	-11052
arel	-11053
▁Bears	-11054
▁sisters	-11055
ictionary	-11056
iag	-11057
▁proposals	-11058
thur	-11059
▁cheaper	-11060
ifier	-11061
▁Along	-11062
▁designated	-11063
asses	-11064
tical	-11065
▁bout	-11066
▁indoor	-11067
▁Nebraska	-11068
pos	-11069
scale	-11070
▁BlackBerry	-11071
72	-11072
idth	-11073
▁ERA	-11074
▁Includes	-11075
lon	-11076
▁slip	-11077
▁Benef	-11078
▁Maria	-11079
▁myster	-11080
▁wooden	-11081
wick	-11082
check	-11083
prises	-11084
▁Rachel	-11085
▁circuit	-11086
▁handy	-11087
olas	-11088
▁180	-11089
▁Chocolate	-11090
▁encounter	-11091
▁devast	-11092
▁contacted	-11093
▁impression	-11094
bat	-11095
fly	-11096
▁IV	-11097
▁Kay	-11098
▁donate	-11099
▁onions	-11100
▁FAQ	-11101
▁diagnosis	-11102
▁magazines	-11103
▁din	-11104
▁instantly	-11105
▁opponents	-11106
▁secretary	-11107
▁waist	-11108
▁moisture	-11109
▁Construction	-11110
▁LE	-11111
▁Thu	-11112
▁Math	-11113
▁worker	-11114
▁batteries	-11115
/13	-11116
acter	-11117
▁enemy	-11118
▁Cameron	-11119
▁Cincinnati	-11120
%)	-11121
▁mg	-11122
uros	-11123
chestra	-11124
▁cabinet	-11125
▁downloaded	-11126
▁medication	-11127
TR	-11128
uh	-11129
▁Nob	-11130
▁Imag	-11131
▁Kyle	-11132
▁specialty	-11133
▁beautifully	-11134
▁bun	-11135
hythm	-11136
▁Mort	-11137
school	-11138
▁distingu	-11139
▁Cars	-11140
▁Carib	-11141
▁colon	-11142
▁operates	-11143
▁Beautiful	-11144
▁pad	-11145
▁difficulty	-11146
Gu	-11147
build	-11148
▁aged	-11149
▁owns	-11150
▁Advert	-11151
▁publicly	-11152
bird	-11153
▁roy	-11154
waukee	-11155
▁Castle	-11156
App	-11157
apse	-11158
▁Billy	-11159
▁Cass	-11160
called	-11161
closure	-11162
▁warned	-11163
▁Besides	-11164
▁settlement	-11165
▁immigration	-11166
-17	-11167
ORK	-11168
count	-11169
▁Oxford	-11170
▁Profile	-11171
▁giveaway	-11172
▁suspended	-11173
▁jur	-11174
▁Gill	-11175
▁Graph	-11176
▁labels	-11177
▁Ian	-11178
▁sons	-11179
ernand	-11180
▁grain	-11181
▁Thread	-11182
ormal	-11183
▁Born	-11184
▁duties	-11185
▁pasta	-11186
idal	-11187
lett	-11188
▁Fly	-11189
▁argue	-11190
▁legit	-11191
▁GR	-11192
▁meters	-11193
▁Recently	-11194
cend	-11195
innamon	-11196
▁refres	-11197
▁dialogue	-11198
▁Baptist	-11199
▁celebrity	-11200
▁accommodate	-11201
oard	-11202
▁dozens	-11203
▁violent	-11204
▁engineers	-11205
▁attendance	-11206
▁Gray	-11207
▁mold	-11208
asures	-11209
owners	-11210
▁Karen	-11211
▁cabin	-11212
▁define	-11213
▁makers	-11214
▁promises	-11215
▁editorial	-11216
.25	-11217
pled	-11218
▁Cash	-11219
▁Mand	-11220
▁toile	-11221
▁electronics	-11222
▁characteristics	-11223
ceived	-11224
itched	-11225
▁Islam	-11226
▁punch	-11227
▁conversion	-11228
kind	-11229
▁fallen	-11230
▁blogging	-11231
▁transaction	-11232
▁intellectual	-11233
▁Earlier	-11234
▁appearances	-11235
▁tale	-11236
arrass	-11237
▁ceiling	-11238
▁Question	-11239
ori	-11240
▁Lex	-11241
▁ele	-11242
▁overseas	-11243
break	-11244
▁careers	-11245
▁Jefferson	-11246
oven	-11247
▁1997	-11248
anches	-11249
▁Introdu	-11250
ela	-11251
▁Li	-11252
INGTON	-11253
sub	-11254
▁molec	-11255
▁hardly	-11256
61	-11257
lace	-11258
▁dealer	-11259
▁liberal	-11260
▁investigating	-11261
ummy	-11262
heart	-11263
auc	-11264
inge	-11265
will	-11266
▁Really	-11267
▁healing	-11268
▁sponsor	-11269
▁applicable	-11270
wa	-11271
iva	-11272
▁Rol	-11273
▁substantial	-11274
▁petition	-11275
▁Az	-11276
fers	-11277
ront	-11278
▁$500	-11279
▁drops	-11280
▁legendary	-11281
▁completing	-11282
▁RA	-11283
▁Thus	-11284
▁Corporate	-11285
▁workout	-11286
ACK	-11287
▁GA	-11288
otive	-11289
▁Always	-11290
▁Simple	-11291
odium	-11292
▁Poll	-11293
ulator	-11294
▁Jimmy	-11295
▁asset	-11296
aceut	-11297
▁Cold	-11298
▁gains	-11299
▁Analysis	-11300
43	-11301
agger	-11302
▁heritage	-11303
||$	-11304
▁SL	-11305
▁Fro	-11306
▁threats	-11307
▁abilities	-11308
aro	-11309
oooo	-11310
stick	-11311
▁hunt	-11312
▁Arena	-11313
▁Nevada	-11314
▁trucks	-11315
▁versus	-11316
▁settled	-11317
▁Property	-11318
▁memorable	-11319
Go	-11320
aki	-11321
▁Career	-11322
▁observed	-11323
▁adap	-11324
▁cord	-11325
▁fake	-11326
▁porn	-11327
▁sorts	-11328
▁nervous	-11329
▁Lev	-11330
▁2014	-11331
▁grace	-11332
▁artistic	-11333
▁conventional	-11334
▁24-	-11335
arest	-11336
▁convention	-11337
conf	-11338
▁carrier	-11339
▁indicates	-11340
▁MLB	-11341
emade	-11342
▁jeans	-11343
▁reads	-11344
▁Powered	-11345
table	-11346
▁Marg	-11347
▁Pent	-11348
▁dump	-11349
▁surrounded	-11350
dam	-11351
▁Nancy	-11352
▁investigate	-11353
Ph	-11354
▁Coffee	-11355
enh	-11356
agram	-11357
▁Issue	-11358
▁cited	-11359
▁ultra	-11360
▁Douglas	-11361
▁Tue	-11362
istol	-11363
▁Until	-11364
▁passionate	-11365
▁achievement	-11366
▁premiere	-11367
▁specified	-11368
▁SQL	-11369
▁chef	-11370
▁rook	-11371
Get	-11372
▁nick	-11373
orious	-11374
▁Knight	-11375
▁Da	-11376
▁buzz	-11377
▁Grace	-11378
▁actively	-11379
▁showcase	-11380
▁operator	-11381
ationally	-11382
hh	-11383
ideo	-11384
▁chairs	-11385
cca	-11386
throp	-11387
▁Wedding	-11388
▁Trad	-11389
andise	-11390
▁locked	-11391
--------	-11392
▁developments	-11393
▁grandchildren	-11394
tech	-11395
amics	-11396
▁1995	-11397
▁Yellow	-11398
▁heating	-11399
FS	-11400
▁Deep	-11401
▁Queens	-11402
▁dirt	-11403
▁Written	-11404
aya	-11405
▁thro	-11406
▁processed	-11407
agers	-11408
ested	-11409
▁stere	-11410
▁publish	-11411
▁vibrant	-11412
▁libraries	-11413
▁dup	-11414
▁Palm	-11415
▁2006.	-11416
▁Berlin	-11417
▁trademarks	-11418
▁objective	-11419
▁”	-11420
▁Jere	-11421
▁anytime	-11422
73	-11423
▁seal	-11424
▁eager	-11425
||0	-11426
▁overs	-11427
▁financing	-11428
▁accounting	-11429
▁conclusion	-11430
▁Luke	-11431
▁Compan	-11432
▁claiming	-11433
▁thrilled	-11434
▁destroyed	-11435
-16	-11436
itol	-11437
▁que	-11438
▁precious	-11439
▁controversial	-11440
awks	-11441
walk	-11442
▁Ta	-11443
▁adoption	-11444
▁opponent	-11445
CL	-11446
asion	-11447
aho	-11448
2013	-11449
arms	-11450
▁ordinary	-11451
▁fascinating	-11452
71	-11453
▁yeah	-11454
▁Raven	-11455
▁measured	-11456
anut	-11457
esty	-11458
held	-11459
abling	-11460
▁Corps	-11461
eness	-11462
▁Hours	-11463
▁priced	-11464
▁regulatory	-11465
ni	-11466
▁NJ	-11467
▁hub	-11468
ching	-11469
green	-11470
93	-11471
▁wore	-11472
▁Later	-11473
▁ruled	-11474
▁surely	-11475
▁console	-11476
▁dressed	-11477
UI	-11478
▁2005,	-11479
▁funeral	-11480
▁grocery	-11481
ilitation	-11482
▁Columbus	-11483
urrent	-11484
▁pulling	-11485
▁frequency	-11486
lie	-11487
▁Barry	-11488
▁rings	-11489
▁productivity	-11490
▁stroke	-11491
▁popularity	-11492
900	-11493
ORT	-11494
iox	-11495
▁applies	-11496
what	-11497
ilation	-11498
▁prospects	-11499
▁executives	-11500
▁reveals	-11501
good	-11502
▁Brun	-11503
▁sust	-11504
-30	-11505
▁Obs	-11506
▁maj	-11507
▁Ridge	-11508
▁guides	-11509
▁convicted	-11510
▁apartments	-11511
▁separately	-11512
:40	-11513
vol	-11514
▁booth	-11515
▁Faculty	-11516
▁overview	-11517
omic	-11518
▁LOVE	-11519
▁€	-11520
▁Championships	-11521
cos	-11522
urious	-11523
▁prest	-11524
▁inspire	-11525
▁conscious	-11526
▁drew	-11527
▁placing	-11528
▁regulation	-11529
▁explanation	-11530
▁Wik	-11531
▁Emergency	-11532
▁glow	-11533
▁overcome	-11534
▁Commercial	-11535
bul	-11536
track	-11537
▁Clar	-11538
▁drunk	-11539
▁Delivery	-11540
OME	-11541
▁ears	-11542
▁epic	-11543
▁ties	-11544
▁cooperation	-11545
▁Rab	-11546
▁zip	-11547
▁Speaking	-11548
▁operators	-11549
▁vegetable	-11550
▁Syria	-11551
.3	-11552
▁Begin	-11553
▁attractions	-11554
▁Route	-11555
▁wishes	-11556
▁dealers	-11557
▁stomach	-11558
▁Practice	-11559
▁prominent	-11560
▁brew	-11561
▁combines	-11562
▁Universal	-11563
▁CM	-11564
▁Feed	-11565
author	-11566
▁Citiz	-11567
▁Summit	-11568
▁Mitchell	-11569
▁thoroughly	-11570
aved	-11571
▁Scout	-11572
▁deposit	-11573
▁Wa	-11574
▁20%	-11575
▁Lock	-11576
▁treats	-11577
▁Commissioner	-11578
▁transactions	-11579
▁tent	-11580
ultane	-11581
▁pione	-11582
▁triple	-11583
▁OH	-11584
▁Dry	-11585
▁Ident	-11586
▁Leader	-11587
91	-11588
▁Tai	-11589
▁Budd	-11590
▁Safe	-11591
▁joke	-11592
▁firef	-11593
▁Century	-11594
▁Culture	-11595
▁Leadership	-11596
▁53	-11597
▁CV	-11598
▁Jacob	-11599
▁relating	-11600
▁threatened	-11601
▁Pil	-11602
▁Fame	-11603
▁stopping	-11604
▁Independent	-11605
62	-11606
▁Doll	-11607
▁Woods	-11608
▁Hans	-11609
▁Survey	-11610
▁filing	-11611
▁3)	-11612
▁EDT	-11613
▁Inside	-11614
▁stadium	-11615
Us	-11616
ername	-11617
▁daughters	-11618
▁Ky	-11619
omin	-11620
▁192	-11621
▁lol	-11622
▁shed	-11623
▁scope	-11624
▁accomplished	-11625
azed	-11626
icked	-11627
▁elim	-11628
assion	-11629
▁computing	-11630
▁collecting	-11631
▁1-800	-11632
▁Located	-11633
▁Favorite	-11634
▁Scholars	-11635
uz	-11636
▁delighted	-11637
:20	-11638
uan	-11639
▁preserve	-11640
wind	-11641
▁cub	-11642
▁dresses	-11643
erver	-11644
stock	-11645
▁Hear	-11646
▁Pros	-11647
▁laser	-11648
▁Indones	-11649
▁Milwaukee	-11650
▁diagnosed	-11651
NC	-11652
▁angry	-11653
▁commentary	-11654
▁Linda	-11655
▁Spons	-11656
▁angle	-11657
▁Murphy	-11658
▁Luck	-11659
▁Purch	-11660
▁polls	-11661
▁horror	-11662
▁Hurricane	-11663
appropriate	-11664
▁headquarters	-11665
-01	-11666
▁sed	-11667
▁theft	-11668
▁Turner	-11669
▁suspension	-11670
GS	-11671
5.00	-11672
▁synd	-11673
perform	-11674
▁timing	-11675
▁Organization	-11676
dem	-11677
oline	-11678
▁Vietnam	-11679
▁devoted	-11680
ho	-11681
▁Bath	-11682
▁outf	-11683
▁enorm	-11684
▁understood	-11685
phis	-11686
▁Sad	-11687
▁ware	-11688
▁Francis	-11689
▁consulting	-11690
▁Adult	-11691
▁Rated	-11692
▁68	-11693
ucker	-11694
▁Archive	-11695
▁continu	-11696
||1	-11697
gical	-11698
▁steady	-11699
▁bits	-11700
▁tatt	-11701
▁entrepreneurs	-11702
ardo	-11703
▁Boo	-11704
▁Kel	-11705
▁Retail	-11706
▁Vit	-11707
These	-11708
▁corpor	-11709
▁frames	-11710
▁colored	-11711
▁portable	-11712
BL	-11713
▁Anim	-11714
▁Trial	-11715
▁Beauty	-11716
▁profits	-11717
▁tablets	-11718
5)	-11719
union	-11720
▁Writing	-11721
mind	-11722
oots	-11723
▁wisdom	-11724
▁handled	-11725
iper	-11726
▁Hat	-11727
▁drain	-11728
▁Budget	-11729
breaking	-11730
▁Reports	-11731
▁Cardinals	-11732
iar	-11733
▁receip	-11734
▁Chelsea	-11735
▁optional	-11736
NET	-11737
around	-11738
▁trials	-11739
bin	-11740
▁Parks	-11741
▁wider	-11742
▁Similar	-11743
▁overwhelming	-11744
▁Fla	-11745
km	-11746
undry	-11747
▁Bright	-11748
▁runners	-11749
▁revenues	-11750
▁converted	-11751
▁substance	-11752
Res	-11753
IGHT	-11754
gate	-11755
▁dent	-11756
▁Chuck	-11757
▁apparent	-11758
▁yoga	-11759
▁Train	-11760
▁spectrum	-11761
ctic	-11762
rape	-11763
▁pig	-11764
▁fert	-11765
▁Focus	-11766
▁spare	-11767
iameter	-11768
▁surviv	-11769
▁inspect	-11770
▁suicide	-11771
▁undergraduate	-11772
fam	-11773
▁Fel	-11774
▁Ward	-11775
▁tasty	-11776
].	-11777
▁MC	-11778
▁IBM	-11779
▁Mason	-11780
▁Donald	-11781
▁merely	-11782
▁outdoors	-11783
▁conversations	-11784
▁bulk	-11785
▁Choice	-11786
▁MI	-11787
▁***	-11788
▁Wes	-11789
▁Horn	-11790
▁Wash	-11791
▁demonstrated	-11792
▁aqu	-11793
▁fel	-11794
▁Hudson	-11795
▁accord	-11796
▁plates	-11797
▁Something	-11798
▁lasting	-11799
Ind	-11800
▁arc	-11801
▁kills	-11802
▁Campaign	-11803
▁Democrat	-11804
▁audiences	-11805
pose	-11806
▁testim	-11807
▁beloved	-11808
▁amenities	-11809
gorith	-11810
▁fluid	-11811
▁speeds	-11812
▁subtle	-11813
▁consultant	-11814
▁competitors	-11815
ean	-11816
▁Esc	-11817
iances	-11818
▁purple	-11819
▁investigators	-11820
/7	-11821
▁Discover	-11822
▁recipient	-11823
▁ax	-11824
▁Vac	-11825
▁integrity	-11826
allel	-11827
▁intrig	-11828
▁politicians	-11829
▁experiencing	-11830
0,	-11831
uisine	-11832
▁Northwest	-11833
▁graduation	-11834
▁Racing	-11835
ugg	-11836
▁thumb	-11837
▁chemicals	-11838
news	-11839
itate	-11840
▁slot	-11841
▁Popular	-11842
▁Designed	-11843
▁Kirk	-11844
▁Articles	-11845
▁forgotten	-11846
▁Conditions	-11847
▁collective	-11848
′′	-11849
Car	-11850
▁ninth	-11851
▁wheat	-11852
▁Caribbean	-11853
WS	-11854
▁Rd	-11855
▁WA	-11856
Phot	-11857
▁embarrass	-11858
▁journalists	-11859
Im	-11860
bery	-11861
link	-11862
▁rocks	-11863
ython	-11864
▁Boys	-11865
effect	-11866
▁Monte	-11867
▁seeks	-11868
▁Temple	-11869
▁Solar	-11870
▁landing	-11871
▁substitute	-11872
▁Ca	-11873
▁193	-11874
▁spa	-11875
▁medal	-11876
▁Eye	-11877
▁genre	-11878
▁Freedom	-11879
▁Kid	-11880
Free	-11881
▁fought	-11882
▁Academic	-11883
▁recruiting	-11884
▁tear	-11885
▁gross	-11886
▁inaug	-11887
63	-11888
EP	-11889
quer	-11890
▁convin	-11891
▁exch	-11892
▁Emily	-11893
▁Given	-11894
ository	-11895
▁Jeremy	-11896
▁poetry	-11897
▁Brothers	-11898
▁Melbourne	-11899
▁prescription	-11900
▁Argent	-11901
▁genetic	-11902
▁moral	-11903
▁emotion	-11904
▁highway	-11905
▁Rs	-11906
▁bot	-11907
▁cloth	-11908
▁Palestin	-11909
▁lawmakers	-11910
-05	-11911
▁78	-11912
▁adopt	-11913
▁flags	-11914
▁Toyota	-11915
▁throws	-11916
▁Success	-11917
▁amongst	-11918
▁Associate	-11919
▁Ali	-11920
▁lung	-11921
▁patent	-11922
▁tribute	-11923
▁jam	-11924
▁Soccer	-11925
▁speaks	-11926
▁contend	-11927
EX	-11928
’,	-11929
:05	-11930
▁Aw	-11931
ivan	-11932
bian	-11933
▁bin	-11934
acles	-11935
▁Pret	-11936
▁earning	-11937
▁midnight	-11938
▁Lem	-11939
adows	-11940
anton	-11941
▁quit	-11942
▁Dennis	-11943
▁Within	-11944
▁pitcher	-11945
▁removing	-11946
▁criticism	-11947
atar	-11948
rying	-11949
▁dirty	-11950
apy	-11951
rek	-11952
uted	-11953
marks	-11954
▁Starting	-11955
ateur	-11956
▁steam	-11957
▁solely	-11958
▁Jamie	-11959
▁antib	-11960
▁evaluate	-11961
.4	-11962
ieces	-11963
selling	-11964
▁XP	-11965
hester	-11966
▁Canon	-11967
gon	-11968
▁Sau	-11969
▁trails	-11970
▁Previous	-11971
▁Capt	-11972
azy	-11973
kle	-11974
▁stays	-11975
▁equity	-11976
▁spotted	-11977
comed	-11978
▁Delhi	-11979
▁Rogers	-11980
▁sentenced	-11981
ylon	-11982
▁Lif	-11983
▁1996	-11984
▁showc	-11985
▁Players	-11986
▁pix	-11987
▁por	-11988
▁appet	-11989
▁Message	-11990
▁territory	-11991
half	-11992
▁Tol	-11993
▁Wow	-11994
▁tire	-11995
▁beta	-11996
▁Initi	-11997
▁Robin	-11998
▁nationally	-11999
terest	-12000
▁rust	-12001
▁clinic	-12002
▁dessert	-12003
▁pond	-12004
▁survival	-12005
izations	-12006
▁Captain	-12007
▁Hopefully	-12008
▁Photography	-12009
:50	-12010
ONE	-12011
spec	-12012
▁settle	-12013
▁gardens	-12014
▁administrator	-12015
▁Upon	-12016
imedia	-12017
agic	-12018
▁Recipe	-12019
Bul	-12020
illo	-12021
▁Pap	-12022
▁Points	-12023
▁closure	-12024
En	-12025
eta	-12026
ounding	-12027
▁tutorial	-12028
▁downloads	-12029
olk	-12030
ushes	-12031
........	-12032
▁Category	-12033
▁McDonald	-12034
yt	-12035
ski	-12036
linary	-12037
▁ranking	-12038
▁connecting	-12039
▁medications	-12040
▁superb	-12041
▁Conserv	-12042
▁reverse	-12043
▁withdraw	-12044
▁attorneys	-12045
ivic	-12046
▁foam	-12047
▁burst	-12048
▁Stanley	-12049
▁examine	-12050
▁ordering	-12051
▁navigation	-12052
▁constructed	-12053
iour	-12054
▁Raj	-12055
▁Spa	-12056
▁ward	-12057
▁cliff	-12058
▁homeless	-12059
▁Bio	-12060
▁Warri	-12061
▁eastern	-12062
▁Rivers	-12063
▁runner	-12064
liminary	-12065
▁Dell	-12066
▁rab	-12067
▁Dress	-12068
▁Treas	-12069
atching	-12070
▁occasions	-12071
FT	-12072
▁Soph	-12073
▁Used	-12074
▁Resource	-12075
DR	-12076
owship	-12077
lr	-12078
▁1950	-12079
▁demo	-12080
▁folk	-12081
▁Bulld	-12082
▁dental	-12083
▁Weekend	-12084
▁Whatever	-12085
!).	-12086
▁Ale	-12087
▁2004,	-12088
▁Honda	-12089
isations	-12090
▁blocked	-12091
▁versatile	-12092
▁costume	-12093
▁15-	-12094
ouses	-12095
▁Tiger	-12096
▁protocol	-12097
BR	-12098
▁cush	-12099
▁Graduate	-12100
▁promotional	-12101
:01	-12102
▁AG	-12103
▁Hit	-12104
▁Insp	-12105
▁Edwards	-12106
▁graduates	-12107
▁Dest	-12108
▁lawn	-12109
▁consultation	-12110
Can	-12111
igen	-12112
▁Opera	-12113
▁affairs	-12114
▁grid	-12115
▁Danny	-12116
▁abund	-12117
leading	-12118
mediate	-12119
▁marine	-12120
▁engineer	-12121
▁confirmation	-12122
BN	-12123
▁Fif	-12124
▁Left	-12125
▁editors	-12126
ulus	-12127
▁crust	-12128
▁10,000	-12129
pur	-12130
isure	-12131
▁mask	-12132
▁dressing	-12133
▁objectives	-12134
▁Kal	-12135
acent	-12136
click	-12137
shine	-12138
▁Homes	-12139
▁hybrid	-12140
▁Cemetery	-12141
pot	-12142
hill	-12143
usal	-12144
Point	-12145
▁simultane	-12146
▁physically	-12147
ingo	-12148
▁barg	-12149
▁Videos	-12150
▁Warner	-12151
▁pleasant	-12152
▁receives	-12153
ORD	-12154
▁Carm	-12155
▁pending	-12156
▁decrease	-12157
▁dropping	-12158
▁traveled	-12159
▁sid	-12160
▁resolve	-12161
▁stepped	-12162
▁Liver	-12163
▁$1,	-12164
▁alumni	-12165
▁mixing	-12166
▁Glen	-12167
rimination	-12168
???	-12169
▁TD	-12170
size	-12171
▁Him	-12172
▁lap	-12173
▁caring	-12174
▁meaningful	-12175
inel	-12176
acker	-12177
▁ballot	-12178
▁Thunder	-12179
▁Breakfast	-12180
▁streaming	-12181
▁negotiations	-12182
],	-12183
▁sail	-12184
▁climb	-12185
▁knock	-12186
▁Military	-12187
▁churches	-12188
▁Revolution	-12189
dig	-12190
▁zoom	-12191
idding	-12192
▁subsidi	-12193
▁Birthday	-12194
▁rewritten	-12195
abs	-12196
lla	-12197
▁Saints	-12198
▁sequence	-12199
▁concluded	-12200
elli	-12201
quest	-12202
▁Pra	-12203
▁shade	-12204
▁tears	-12205
▁Watson	-12206
▁bother	-12207
▁nicely	-12208
▁retain	-12209
▁motorcycle	-12210
arts	-12211
▁FDA	-12212
Click	-12213
▁yarn	-12214
▁Johnny	-12215
▁Memphis	-12216
▁UPD	-12217
▁steep	-12218
▁confront	-12219
▁Bh	-12220
▁blogger	-12221
▁HR	-12222
cker	-12223
▁syr	-12224
▁routes	-12225
▁operational	-12226
▁identification	-12227
ACT	-12228
50,000	-12229
▁killer	-12230
▁followers	-12231
▁cant	-12232
ications	-12233
▁Individ	-12234
▁rentals	-12235
▁requiring	-12236
▁Hell	-12237
▁whilst	-12238
▁citizen	-12239
▁Wireless	-12240
▁lightly	-12241
▁supplier	-12242
▁Kath	-12243
▁desert	-12244
▁absence	-12245
ropolitan	-12246
▁elementary	-12247
lar	-12248
vet	-12249
encer	-12250
▁discussing	-12251
▁newspapers	-12252
▁Technologies	-12253
▁redistributed	-12254
.:	-12255
▁Cards	-12256
itarian	-12257
▁confused	-12258
▁renowned	-12259
ped	-12260
▁tablespoon	-12261
▁imagination	-12262
vity	-12263
achers	-12264
▁Butter	-12265
▁delete	-12266
▁Certified	-12267
kyo	-12268
▁lun	-12269
▁traged	-12270
▁inspiring	-12271
▁depression	-12272
dri	-12273
▁Chicken	-12274
▁Strateg	-12275
▁liability	-12276
xts	-12277
▁62	-12278
▁Tob	-12279
▁spoken	-12280
▁floors	-12281
▁accompanied	-12282
Cal	-12283
cure	-12284
▁gray	-12285
▁gently	-12286
82	-12287
rons	-12288
plant	-12289
▁Fans	-12290
▁fancy	-12291
▁muscles	-12292
▁Richmond	-12293
▁anticipated	-12294
▁Ka	-12295
elta	-12296
▁Gonz	-12297
cribed	-12298
▁nurse	-12299
▁boring	-12300
▁Hair	-12301
ipedia	-12302
▁phrase	-12303
▁worship	-12304
▁momentum	-12305
HD	-12306
uv	-12307
being	-12308
▁reflects	-12309
▁manip	-12310
▁Sweden	-12311
▁analysts	-12312
▁bacteria	-12313
▁currency	-12314
▁realistic	-12315
:35	-12316
▁MORE	-12317
▁Shore	-12318
▁blast	-12319
▁imper	-12320
▁warming	-12321
udi	-12322
othy	-12323
plates	-12324
writer	-12325
▁Pictures	-12326
▁Township	-12327
▁Sel	-12328
ernel	-12329
▁allerg	-12330
▁tomato	-12331
-)	-12332
ici	-12333
lay	-12334
▁ACC	-12335
▁Dad	-12336
▁nomine	-12337
▁lighter	-12338
▁convinced	-12339
umm	-12340
umper	-12341
▁6:30	-12342
▁None	-12343
▁YOUR	-12344
▁hill	-12345
▁expense	-12346
▁tropical	-12347
▁vulnerable	-12348
PP	-12349
][	-12350
▁(20	-12351
▁BMW	-12352
▁Cav	-12353
▁Dra	-12354
afood	-12355
▁Fell	-12356
▁beaches	-12357
▁closest	-12358
▁productive	-12359
pa	-12360
▁#2	-12361
▁Stir	-12362
payers	-12363
▁trash	-12364
▁feeding	-12365
▁customized	-12366
SI	-12367
bra	-12368
oded	-12369
▁USD	-12370
▁Chef	-12371
▁boil	-12372
▁brace	-12373
▁coord	-12374
▁robust	-12375
▁template	-12376
▁3.0	-12377
▁bes	-12378
▁charm	-12379
▁relaxing	-12380
▁Armstrong	-12381
▁Cambridge	-12382
sis	-12383
uman	-12384
▁Pric	-12385
▁enabled	-12386
▁endless	-12387
▁Aid	-12388
▁lined	-12389
▁voices	-12390
▁abortion	-12391
▁Belg	-12392
▁bacon	-12393
:59	-12394
▁Diet	-12395
▁cater	-12396
ificial	-12397
▁sensor	-12398
ribution	-12399
WA	-12400
▁fut	-12401
▁jet	-12402
▁pron	-12403
ending	-12404
▁lease	-12405
▁suppliers	-12406
▁8:00	-12407
▁Draw	-12408
▁Terr	-12409
▁bikes	-12410
▁$200	-12411
▁possess	-12412
▁romance	-12413
URE	-12414
intendo	-12415
74	-12416
▁Value	-12417
▁baked	-12418
▁1⁄2	-12419
▁Lux	-12420
▁Islands	-12421
▁formation	-12422
▁authorized	-12423
▁laboratory	-12424
▁oblig	-12425
69	-12426
▁Seven	-12427
▁Dragon	-12428
▁attempting	-12429
▁conferences	-12430
▁bases	-12431
▁serial	-12432
▁Monitor	-12433
▁Electronic	-12434
▁TA	-12435
From	-12436
stage	-12437
▁sher	-12438
▁booked	-12439
▁shirts	-12440
▁traded	-12441
▁Bradley	-12442
▁1-2	-12443
▁Benn	-12444
▁charts	-12445
▁Parents	-12446
xygen	-12447
▁twitter	-12448
▁bio	-12449
▁Bake	-12450
▁violation	-12451
▁Constitution	-12452
party	-12453
esters	-12454
whe	-12455
▁Lower	-12456
▁insect	-12457
▁Guarant	-12458
▁travelers	-12459
SM	-12460
:25	-12461
▁Around	-12462
▁foster	-12463
▁accompany	-12464
Des	-12465
▁Ple	-12466
▁profiles	-12467
▁specifications	-12468
fa	-12469
eton	-12470
▁quoted	-12471
▁Housing	-12472
▁Wildlife	-12473
▁representation	-12474
▁grill	-12475
▁hoped	-12476
▁resem	-12477
Am	-12478
▁700	-12479
▁Gran	-12480
▁Idaho	-12481
▁Vermont	-12482
▁Alt	-12483
▁Exam	-12484
▁Writer	-12485
▁shadow	-12486
▁fundraising	-12487
▁Oracle	-12488
▁Christians	-12489
▁Coal	-12490
▁ramp	-12491
▁Portug	-12492
▁fitting	-12493
▁Basketball	-12494
▁Sleep	-12495
▁fleet	-12496
▁lovers	-12497
▁Disease	-12498
▁sporting	-12499
▁legislative	-12500
▁pant	-12501
▁welcomed	-12502
▁anonymous	-12503
▁Apparently	-12504
▁FM	-12505
▁Dear	-12506
▁helic	-12507
▁kicked	-12508
▁Joh	-12509
▁colours	-12510
▁bay	-12511
▁boom	-12512
ignment	-12513
▁Greece	-12514
▁locate	-12515
▁opener	-12516
chair	-12517
▁Visual	-12518
▁enjoys	-12519
▁rejected	-12520
ITE	-12521
bsp	-12522
alties	-12523
▁doubles	-12524
▁stainless	-12525
isode	-12526
▁Reed	-12527
▁dash	-12528
▁12:00	-12529
▁Stream	-12530
▁Volume	-12531
▁disorders	-12532
boys	-12533
▁ber	-12534
▁cere	-12535
heimer	-12536
▁rolls	-12537
▁tourism	-12538
▁ug	-12539
engu	-12540
▁Pic	-12541
▁Lanc	-12542
▁habits	-12543
▁rookie	-12544
▁pitching	-12545
▁FC	-12546
▁practition	-12547
-24	-12548
iov	-12549
iches	-12550
▁Sens	-12551
▁tires	-12552
▁Harbor	-12553
▁appearing	-12554
arth	-12555
▁massage	-12556
▁Investig	-12557
▁instructor	-12558
Bay	-12559
▁aging	-12560
▁Empire	-12561
▁sacrif	-12562
▁shaped	-12563
▁Phillips	-12564
▁ic	-12565
▁Reid	-12566
▁Patch	-12567
▁deputy	-12568
▁landed	-12569
▁sliced	-12570
▁unfortunately	-12571
▁internationally	-12572
▁92	-12573
ospel	-12574
▁Bobby	-12575
ambling	-12576
▁touchdowns	-12577
▁agriculture	-12578
ques	-12579
▁assured	-12580
▁recommendation	-12581
▁capability	-12582
hou	-12583
acre	-12584
▁Drew	-12585
▁failing	-12586
84	-12587
▁7-	-12588
▁Lang	-12589
▁Pope	-12590
▁tops	-12591
▁Islamic	-12592
++	-12593
▁Tow	-12594
▁Anti	-12595
▁amid	-12596
▁fare	-12597
ourmet	-12598
▁shine	-12599
▁parade	-12600
▁adorable	-12601
▁moderate	-12602
▁reminded	-12603
▁provision	-12604
▁subscribers	-12605
irmingham	-12606
▁Athletic	-12607
▁contributing	-12608
anne	-12609
▁Ranch	-12610
▁Opport	-12611
▁Between	-12612
some	-12613
▁pine	-12614
▁Ashley	-12615
▁organize	-12616
▁tuned	-12617
▁consent	-12618
▁proport	-12619
TY	-12620
:12	-12621
▁Kr	-12622
▁tong	-12623
▁Incre	-12624
▁courage	-12625
▁climbing	-12626
▁allegations	-12627
may	-12628
php	-12629
▁Fax	-12630
▁Rio	-12631
pling	-12632
▁helicop	-12633
▁weekends	-12634
wy	-12635
ika	-12636
▁mining	-12637
▁FBI	-12638
▁width	-12639
▁Malays	-12640
▁timely	-12641
▁cultures	-12642
▁physicians	-12643
▁submission	-12644
pres	-12645
▁deer	-12646
▁odds	-12647
▁ster	-12648
▁Peters	-12649
▁bankrupt	-12650
▁67	-12651
▁Ec	-12652
▁Vill	-12653
▁clever	-12654
▁riders	-12655
▁Crystal	-12656
▁movements	-12657
iy	-12658
eston	-12659
▁slides	-12660
▁Publisher	-12661
say	-12662
alia	-12663
▁Rot	-12664
addle	-12665
▁Rules	-12666
▁drawings	-12667
▁mainstream	-12668
▁Agriculture	-12669
SD	-12670
EAR	-12671
▁algorith	-12672
▁nominated	-12673
▁Fix	-12674
▁Len	-12675
▁bake	-12676
▁cooling	-12677
▁Yesterday	-12678
▁Industrial	-12679
▁8-	-12680
laim	-12681
▁Kindle	-12682
▁Native	-12683
isons	-12684
▁sink	-12685
▁outer	-12686
▁sells	-12687
▁wings	-12688
▁scenario	-12689
▁chemistry	-12690
▁enjoyable	-12691
CR	-12692
Tw	-12693
▁CAN	-12694
▁dil	-12695
▁Blues	-12696
▁Potter	-12697
▁branches	-12698
▁departure	-12699
USA	-12700
Just	-12701
arium	-12702
▁pipe	-12703
itative	-12704
83	-12705
ele	-12706
kers	-12707
email	-12708
▁nutri	-12709
▁advised	-12710
▁Together	-12711
▁compelling	-12712
▁continuous	-12713
ggies	-12714
▁lone	-12715
orials	-12716
▁Katie	-12717
▁magical	-12718
▁seemingly	-12719
iev	-12720
▁Dame	-12721
▁inev	-12722
▁Others	-12723
▁corporations	-12724
reck	-12725
▁exercises	-12726
▁disabilities	-12727
inciple	-12728
▁camping	-12729
▁recession	-12730
bling	-12731
depth	-12732
umblr	-12733
▁Brooks	-12734
▁Recomm	-12735
▁dispos	-12736
▁Virtual	-12737
▁trigger	-12738
▁Customers	-12739
Yes	-12740
▁les	-12741
▁keen	-12742
▁shore	-12743
▁puzzle	-12744
▁turkey	-12745
▁designing	-12746
▁struggled	-12747
ante	-12748
▁Jake	-12749
▁arom	-12750
▁neat	-12751
▁appreciation	-12752
▁Aub	-12753
▁Skin	-12754
mad	-12755
ierra	-12756
▁Colon	-12757
▁Progress	-12758
▁proceeds	-12759
▁Southwest	-12760
▁API	-12761
▁cupc	-12762
▁PhD	-12763
nered	-12764
▁renov	-12765
▁argued	-12766
▁immune	-12767
▁translation	-12768
Sub	-12769
▁SEO	-12770
▁Wii	-12771
stown	-12772
▁Coun	-12773
inance	-12774
▁astron	-12775
▁Indians	-12776
▁unlimited	-12777
▁bump	-12778
▁2005.	-12779
▁Prices	-12780
▁iconic	-12781
▁custody	-12782
IES	-12783
aton	-12784
▁Ott	-12785
phony	-12786
▁nest	-12787
ottest	-12788
▁Tower	-12789
▁affects	-12790
▁Explorer	-12791
rien	-12792
▁province	-12793
▁kits	-12794
▁Randy	-12795
▁overtime	-12796
▁Amend	-12797
▁shame	-12798
▁emotions	-12799
▁insights	-12800
girl	-12801
liest	-12802
▁joins	-12803
▁canvas	-12804
▁highlighted	-12805
▁EPA	-12806
▁Eagle	-12807
▁accred	-12808
▁Speaker	-12809
▁seating	-12810
intendent	-12811
▁subsequent	-12812
▁9:00	-12813
▁euro	-12814
▁Capitol	-12815
▁sectors	-12816
▁examination	-12817
▁agricultural	-12818
▁WITH	-12819
▁robot	-12820
▁steal	-12821
▁seasonal	-12822
▁MY	-12823
▁Bor	-12824
▁Celt	-12825
▁Block	-12826
▁UV	-12827
▁Dale	-12828
▁Neil	-12829
▁Rate	-12830
▁twin	-12831
▁portray	-12832
▁tourist	-12833
▁merchandise	-12834
▁Syn	-12835
bably	-12836
▁Tokyo	-12837
▁elite	-12838
▁athlete	-12839
▁ensures	-12840
▁suppose	-12841
▁SF	-12842
▁Coordin	-12843
▁exploration	-12844
▁Applications	-12845
▁GP	-12846
▁Bah	-12847
inars	-12848
▁Chase	-12849
▁loads	-12850
atabases	-12851
▁secured	-12852
▁Nashville	-12853
range	-12854
ocated	-12855
uez	-12856
▁dose	-12857
▁2,000	-12858
▁dying	-12859
▁Deputy	-12860
▁Present	-12861
▁suspected	-12862
empl	-12863
▁Mas	-12864
▁flip	-12865
▁oral	-12866
▁Exhib	-12867
▁buyer	-12868
▁skirt	-12869
▁Princip	-12870
▁Shopping	-12871
▁AA	-12872
agne	-12873
▁abstract	-12874
▁slices	-12875
▁welfare	-12876
▁Pul	-12877
▁Running	-12878
▁ow	-12879
▁teaches	-12880
▁trusted	-12881
▁Actually	-12882
▁facebook	-12883
▁13.	-12884
▁vel	-12885
▁grades	-12886
▁ignore	-12887
▁Nintendo	-12888
▁provisions	-12889
Day	-12890
LEASE	-12891
▁Surv	-12892
resist	-12893
due	-12894
▁damn	-12895
Int	-12896
▁Tip	-12897
▁Beyond	-12898
▁banned	-12899
▁Bloomberg	-12900
▁workplace	-12901
▁awa	-12902
ascular	-12903
attered	-12904
▁Organic	-12905
▁divorce	-12906
▁talents	-12907
▁investing	-12908
uy	-12909
Jan	-12910
▁grip	-12911
▁Serve	-12912
▁judgment	-12913
▁promising	-12914
cs	-12915
eway	-12916
guard	-12917
▁shelf	-12918
▁10:00	-12919
olester	-12920
▁neutral	-12921
▁Competition	-12922
esis	-12923
▁110	-12924
▁mush	-12925
▁longest	-12926
▁Advisory	-12927
▁Stanford	-12928
▁dele	-12929
▁rides	-12930
▁tempt	-12931
▁topped	-12932
▁dedication	-12933
sk	-12934
there	-12935
▁venues	-12936
▁Ot	-12937
▁scary	-12938
▁hungry	-12939
▁Fitness	-12940
▁Studios	-12941
offs	-12942
▁15.	-12943
▁Crown	-12944
▁Letter	-12945
▁Ticket	-12946
▁Consider	-12947
▁Mes	-12948
▁Soul	-12949
▁printer	-12950
▁searches	-12951
HP	-12952
hist	-12953
/2011	-12954
owski	-12955
▁Spot	-12956
▁Picture	-12957
▁supplied	-12958
pg	-12959
▁8:30	-12960
▁Multi	-12961
▁suits	-12962
▁outcomes	-12963
▁1.0	-12964
▁Sit	-12965
▁Alice	-12966
▁Wells	-12967
89	-12968
▁Gh	-12969
alph	-12970
inted	-12971
fortable	-12972
▁homemade	-12973
▁ate	-12974
▁merc	-12975
▁femin	-12976
▁Herald	-12977
heastern	-12978
▁Document	-12979
cap	-12980
▁EP	-12981
▁cure	-12982
▁indu	-12983
▁memorial	-12984
▁launching	-12985
Time	-12986
▁Wake	-12987
▁sized	-12988
▁tastes	-12989
▁NOW	-12990
▁Path	-12991
bey	-12992
comp	-12993
▁Prot	-12994
▁Grove	-12995
▁enormous	-12996
▁replacing	-12997
▁inspection	-12998
▁prestigious	-12999
▁Conservation	-13000
▁heels	-13001
▁verify	-13002
▁mechanical	-13003
▁59	-13004
▁soda	-13005
▁notified	-13006
▁peaceful	-13007
▁grandmother	-13008
▁Carlos	-13009
▁Gardens	-13010
▁animation	-13011
udge	-13012
▁Hind	-13013
▁Lakes	-13014
▁Ultra	-13015
▁Scottish	-13016
▁installing	-13017
amas	-13018
▁draws	-13019
▁lying	-13020
▁Listen	-13021
▁Fu	-13022
▁lend	-13023
▁elderly	-13024
▁reminder	-13025
▁63	-13026
hesis	-13027
▁Nathan	-13028
▁resign	-13029
Pal	-13030
▁Shar	-13031
▁Viol	-13032
▁Pages	-13033
▁boats	-13034
▁assemb	-13035
▁finishes	-13036
inos	-13037
lean	-13038
▁Dow	-13039
▁fib	-13040
▁Okay	-13041
▁aest	-13042
▁beaten	-13043
▁selecting	-13044
▁refuge	-13045
▁honestly	-13046
▁Associates	-13047
rage	-13048
▁900	-13049
▁hem	-13050
▁Gear	-13051
herent	-13052
▁Birmingham	-13053
▁Na	-13054
esity	-13055
▁Nether	-13056
▁ginger	-13057
▁recept	-13058
OOD	-13059
otype	-13060
▁squee	-13061
▁toxic	-13062
▁complimentary	-13063
COM	-13064
▁mounted	-13065
▁..	-13066
isor	-13067
erals	-13068
shore	-13069
▁Juan	-13070
▁Bryan	-13071
▁Historical	-13072
▁GB	-13073
▁Sr	-13074
▁IRS	-13075
izard	-13076
▁tower	-13077
▁happiness	-13078
▁RT	-13079
Well	-13080
umph	-13081
ummer	-13082
izable	-13083
▁fears	-13084
▁suspects	-13085
nan	-13086
World	-13087
▁bron	-13088
▁pear	-13089
▁diplom	-13090
▁forgot	-13091
▁License	-13092
▁rankings	-13093
▁remembered	-13094
eded	-13095
▁Mob	-13096
▁Chen	-13097
▁Amanda	-13098
▁Instruct	-13099
▁sometime	-13100
▁comed	-13101
▁relie	-13102
▁Assess	-13103
▁handles	-13104
▁Proble	-13105
▁worthy	-13106
▁referring	-13107
▁61	-13108
produ	-13109
ippers	-13110
▁Fight	-13111
▁snack	-13112
▁silent	-13113
▁relaxed	-13114
▁exterior	-13115
▁username	-13116
▁classical	-13117
▁defending	-13118
▁demanding	-13119
pic	-13120
▁Hem	-13121
▁silly	-13122
Ste	-13123
turn	-13124
▁vig	-13125
▁gran	-13126
▁Occup	-13127
▁Sugar	-13128
▁Television	-13129
▁Ll	-13130
▁Drop	-13131
▁coconut	-13132
▁organisation	-13133
Se	-13134
▁grey	-13135
▁accum	-13136
▁Firefox	-13137
▁breathing	-13138
▁disability	-13139
▁Rank	-13140
▁Defin	-13141
▁Draft	-13142
▁deserves	-13143
▁RS	-13144
ijing	-13145
▁Costa	-13146
▁mature	-13147
auge	-13148
▁Curt	-13149
▁Bachel	-13150
▁burden	-13151
ublished	-13152
▁Masters	-13153
▁acclaim	-13154
:16	-13155
▁Metal	-13156
▁sticks	-13157
▁critics	-13158
▁NOTE	-13159
▁Rece	-13160
▁intimate	-13161
▁placement	-13162
▁conjunction	-13163
79	-13164
▁Ry	-13165
mile	-13166
unct	-13167
▁$3.	-13168
▁Request	-13169
▁Verizon	-13170
▁fulfill	-13171
▁Harrison	-13172
▁adventures	-13173
▁Vene	-13174
▁Mills	-13175
▁gloss	-13176
powered	-13177
▁Lauren	-13178
▁physics	-13179
▁workforce	-13180
▁transferred	-13181
ailed	-13182
▁duplic	-13183
▁Premium	-13184
▁bloggers	-13185
▁arguments	-13186
▁USC	-13187
olesterol	-13188
▁destinations	-13189
▁76	-13190
▁Honey	-13191
▁breed	-13192
▁affair	-13193
▁ethnic	-13194
▁attacked	-13195
▁universal	-13196
▁thy	-13197
▁Pool	-13198
▁Apart	-13199
▁Julie	-13200
▁Marie	-13201
▁Montana	-13202
▁anxiety	-13203
▁grabbed	-13204
▁radiation	-13205
cha	-13206
▁penc	-13207
▁slice	-13208
▁wides	-13209
▁regime	-13210
▁delayed	-13211
▁envelop	-13212
▁Transfer	-13213
▁acceptable	-13214
▁encourages	-13215
▁→	-13216
▁PD	-13217
▁Sacr	-13218
▁WASH	-13219
▁Looks	-13220
▁backing	-13221
▁cycling	-13222
▁rebuild	-13223
▁facilitate	-13224
ping	-13225
▁migr	-13226
▁Foods	-13227
▁teammates	-13228
▁specialized	-13229
▁Blake	-13230
▁airline	-13231
▁earthqu	-13232
▁Alf	-13233
inery	-13234
▁stats	-13235
▁deadly	-13236
▁Stephan	-13237
▁1.1	-13238
▁Dal	-13239
pound	-13240
▁Turk	-13241
aments	-13242
▁potato	-13243
▁Heights	-13244
▁Nursing	-13245
▁enabling	-13246
▁98	-13247
▁bene	-13248
▁Items	-13249
▁Centers	-13250
▁shorter	-13251
▁controller	-13252
ilight	-13253
Station	-13254
reation	-13255
▁Arthur	-13256
▁strive	-13257
▁concerts	-13258
▁prohibited	-13259
got	-13260
fund	-13261
▁Operations	-13262
▁occasional	-13263
▁intelligent	-13264
▁MO	-13265
such	-13266
▁Faith	-13267
▁presenting	-13268
▁decorated	-13269
▁Lan	-13270
▁Mets	-13271
▁Sold	-13272
▁lips	-13273
health	-13274
claimer	-13275
Bulletin	-13276
▁situated	-13277
Why	-13278
▁BA	-13279
▁Ho	-13280
▁Aer	-13281
di	-13282
ixon	-13283
necess	-13284
ometer	-13285
▁Circuit	-13286
▁skilled	-13287
▁abandoned	-13288
▁toug	-13289
istical	-13290
▁specialists	-13291
▁tang	-13292
▁sweat	-13293
▁enemies	-13294
▁accepting	-13295
▁sustainability	-13296
open	-13297
▁(3)	-13298
▁Arc	-13299
▁McD	-13300
▁shake	-13301
▁propri	-13302
▁relatives	-13303
▁Statistics	-13304
▁organisations	-13305
▁cuisine	-13306
▁modules	-13307
▁variable	-13308
type	-13309
▁2-1	-13310
▁Fem	-13311
▁Tar	-13312
▁Nike	-13313
▁Woman	-13314
▁repairs	-13315
▁effectiveness	-13316
chi	-13317
▁Arn	-13318
▁grat	-13319
▁Swiss	-13320
▁recovered	-13321
▁Federation	-13322
rik	-13323
vement	-13324
▁Delta	-13325
▁acquire	-13326
▁painful	-13327
▁touched	-13328
/20	-13329
▁damages	-13330
▁Publishing	-13331
▁muff	-13332
▁Veterans	-13333
▁rotation	-13334
▁Horse	-13335
▁vendor	-13336
▁signals	-13337
UG	-13338
▁14.	-13339
white	-13340
▁Late	-13341
▁Soon	-13342
vation	-13343
▁attendees	-13344
OOK	-13345
ifle	-13346
spot	-13347
▁toilet	-13348
▁cinnamon	-13349
ographical	-13350
▁recycling	-13351
▁Innovation	-13352
▁approached	-13353
▁differently	-13354
ilia	-13355
▁Lay	-13356
▁Pod	-13357
rolled	-13358
▁Basic	-13359
▁harsh	-13360
▁Walter	-13361
▁mothers	-13362
▁Cany	-13363
▁Grey	-13364
▁Pete	-13365
▁bugs	-13366
▁2003,	-13367
▁hills	-13368
50.	-13369
azi	-13370
oni	-13371
izers	-13372
▁camps	-13373
▁sunny	-13374
▁Rather	-13375
▁Therap	-13376
▁apples	-13377
▁Intellig	-13378
▁underground	-13379
fil	-13380
pher	-13381
▁Garc	-13382
▁retrie	-13383
▁weakness	-13384
,''	-13385
▁97	-13386
▁2-3	-13387
▁Chapel	-13388
▁Either	-13389
Back	-13390
robe	-13391
▁Abs	-13392
▁Syr	-13393
▁Imagine	-13394
▁Airlines	-13395
▁Parliament	-13396
▁%	-13397
▁hilar	-13398
▁Someone	-13399
▁emerged	-13400
▁motivated	-13401
▁applicants	-13402
▁implementing	-13403
acted	-13404
ogurt	-13405
▁Bass	-13406
▁pose	-13407
▁Prevention	-13408
▁160	-13409
▁GRE	-13410
▁Swe	-13411
▁duo	-13412
▁Jets	-13413
ailand	-13414
▁Quarter	-13415
▁execution	-13416
▁brut	-13417
▁awful	-13418
ournals	-13419
gence	-13420
roller	-13421
mitting	-13422
ventions	-13423
ECT	-13424
mus	-13425
▁Sect	-13426
▁glue	-13427
orship	-13428
▁Owner	-13429
▁fails	-13430
▁manufactured	-13431
fare	-13432
your	-13433
▁soap	-13434
▁fatal	-13435
▁tract	-13436
▁educate	-13437
▁liver	-13438
▁cleared	-13439
▁detection	-13440
▁ridiculous	-13441
▁Interactive	-13442
▁preliminary	-13443
Co	-13444
▁Sin	-13445
▁exempt	-13446
▁Protect	-13447
▁strikes	-13448
▁affiliated	-13449
ulu	-13450
▁TC	-13451
▁Cit	-13452
▁subur	-13453
▁rhythm	-13454
▁retreat	-13455
▁suggestion	-13456
▁spokeswoman	-13457
onia	-13458
▁diameter	-13459
▁Companies	-13460
▁Economics	-13461
▁identifying	-13462
VC	-13463
▁77	-13464
▁env	-13465
▁rape	-13466
pread	-13467
▁horm	-13468
gments	-13469
umbled	-13470
ometown	-13471
▁municipal	-13472
eda	-13473
uum	-13474
poin	-13475
▁RAM	-13476
dered	-13477
jamin	-13478
▁Hunt	-13479
oulder	-13480
▁quilt	-13481
▁ribbon	-13482
▁advertis	-13483
▁compiled	-13484
▁horrible	-13485
▁difficulties	-13486
mel	-13487
▁Tab	-13488
▁Views	-13489
▁clips	-13490
▁ARE	-13491
▁foul	-13492
▁sooner	-13493
ographer	-13494
▁Against	-13495
▁corners	-13496
mic	-13497
▁Craft	-13498
▁creep	-13499
entials	-13500
▁Hockey	-13501
▁Planet	-13502
▁tempor	-13503
▁reminds	-13504
▁Workshop	-13505
▁catching	-13506
99.	-13507
▁Mt	-13508
▁ya	-13509
grand	-13510
▁wool	-13511
▁embrace	-13512
▁incorporate	-13513
dings	-13514
second	-13515
▁salmon	-13516
▁blessed	-13517
▁knocked	-13518
▁outlets	-13519
▁dramatically	-13520
CAR	-13521
bet	-13522
ostic	-13523
▁Ring	-13524
▁rh	-13525
cycl	-13526
icts	-13527
People	-13528
agraph	-13529
▁ancest	-13530
▁pretend	-13531
▁vinegar	-13532
▁wherever	-13533
▁beneficial	-13534
bes	-13535
▁Lion	-13536
▁Spect	-13537
▁tricks	-13538
▁Holland	-13539
▁mechanism	-13540
▁measurements	-13541
▁surprisingly	-13542
▁Foster	-13543
▁taxpayers	-13544
▁fer	-13545
▁7:00	-13546
▁Hood	-13547
orient	-13548
▁urged	-13549
▁Directors	-13550
gom	-13551
etta	-13552
▁Isa	-13553
▁Honor	-13554
▁lenses	-13555
▁ounces	-13556
▁Greater	-13557
▁charging	-13558
▁journalist	-13559
▁Brid	-13560
▁visitor	-13561
▁Political	-13562
▁establishment	-13563
third	-13564
▁Mario	-13565
▁Regard	-13566
▁addressing	-13567
▁friendship	-13568
▁Haz	-13569
kward	-13570
▁Dian	-13571
▁fond	-13572
▁grows	-13573
▁kinda	-13574
leyball	-13575
:55	-13576
▁CB	-13577
▁silk	-13578
▁Usually	-13579
itzerland	-13580
▁reserves	-13581
bec	-13582
▁Flight	-13583
ificates	-13584
▁posters	-13585
▁cocktail	-13586
▁Interview	-13587
AVE	-13588
dis	-13589
▁Lost	-13590
degree	-13591
▁heated	-13592
▁repeatedly	-13593
adise	-13594
▁badly	-13595
▁batch	-13596
▁depos	-13597
ceptions	-13598
▁arrange	-13599
▁advocate	-13600
▁surfaces	-13601
fi	-13602
yon	-13603
brew	-13604
▁18.	-13605
▁Bun	-13606
▁lib	-13607
▁guided	-13608
▁refresh	-13609
▁arranged	-13610
▁commented	-13611
()	-13612
▁UT	-13613
ammed	-13614
▁Stage	-13615
manship	-13616
▁crystal	-13617
▁dispute	-13618
▁remarks	-13619
:14	-13620
▁Rams	-13621
▁Ready	-13622
▁headlines	-13623
▁adjustable	-13624
drop	-13625
▁Zoo	-13626
▁shar	-13627
Posted	-13628
▁Minor	-13629
▁Philip	-13630
▁Beijing	-13631
▁charming	-13632
▁creatures	-13633
:19	-13634
▁Cafe	-13635
▁arena	-13636
▁syrup	-13637
▁Initiative	-13638
usc	-13639
▁Ful	-13640
▁Hub	-13641
▁Branch	-13642
▁Vision	-13643
▁behaviour	-13644
▁Unless	-13645
▁praise	-13646
▁Montreal	-13647
▁vBulletin	-13648
▁composition	-13649
IRE	-13650
▁Close	-13651
▁Crime	-13652
▁Dinner	-13653
▁marketplace	-13654
▁ankle	-13655
▁Contest	-13656
▁Healthy	-13657
▁underlying	-13658
icity	-13659
▁Lodge	-13660
▁Bailey	-13661
▁democracy	-13662
▁VP	-13663
▁irrit	-13664
▁unders	-13665
▁Summary	-13666
▁retailer	-13667
▁discusses	-13668
:18	-13669
▁$40	-13670
▁chick	-13671
▁adequate	-13672
▁bonds	-13673
▁Angels	-13674
▁Alexand	-13675
▁shelves	-13676
▁WR	-13677
unks	-13678
▁cha	-13679
▁shred	-13680
▁Strong	-13681
▁impacts	-13682
ATED	-13683
aders	-13684
▁Fill	-13685
itivity	-13686
▁boasts	-13687
▁volunt	-13688
▁destruction	-13689
PDF	-13690
cope	-13691
▁Ches	-13692
rowave	-13693
▁Makes	-13694
▁coinc	-13695
▁march	-13696
▁lining	-13697
▁Teacher	-13698
▁cartoon	-13699
▁Clinical	-13700
▁vertical	-13701
▁permitted	-13702
▁Apply	-13703
▁seller	-13704
▁tragedy	-13705
▁composed	-13706
▁Netherlands	-13707
Sm	-13708
ANS	-13709
▁TN	-13710
▁MAR	-13711
illet	-13712
ottage	-13713
▁retro	-13714
▁scared	-13715
▁subsid	-13716
▁deliber	-13717
TO	-13718
▁EM	-13719
▁Ze	-13720
▁DIY	-13721
▁encry	-13722
▁query	-13723
illance	-13724
▁Taking	-13725
▁imaging	-13726
▁Ultimate	-13727
▁activists	-13728
▁countless	-13729
▁efficiently	-13730
rors	-13731
ancers	-13732
▁incom	-13733
▁comics	-13734
▁shorts	-13735
▁Chev	-13736
▁deem	-13737
▁2004.	-13738
▁bones	-13739
writing	-13740
▁Reference	-13741
▁Standards	-13742
kg	-13743
two	-13744
▁pars	-13745
▁manif	-13746
▁buried	-13747
▁poison	-13748
▁Nationals	-13749
▁contractor	-13750
ACE	-13751
▁NA	-13752
Some	-13753
▁tel	-13754
▁advise	-13755
▁strips	-13756
▁crossed	-13757
▁databases	-13758
▁bom	-13759
pract	-13760
closed	-13761
oustic	-13762
reement	-13763
▁academ	-13764
▁podcast	-13765
▁celebrities	-13766
▁photographers	-13767
▁fence	-13768
▁gaining	-13769
▁Ub	-13770
▁Egg	-13771
▁PHP	-13772
▁Shan	-13773
keeper	-13774
osystem	-13775
▁Rodrig	-13776
specific	-13777
▁Episode	-13778
▁reduces	-13779
▁intervention	-13780
▁Va	-13781
▁jar	-13782
▁vin	-13783
▁Trek	-13784
▁lane	-13785
ooting	-13786
▁Worth	-13787
▁excuse	-13788
▁Sustain	-13789
leen	-13790
allow	-13791
▁resc	-13792
▁Going	-13793
▁beliefs	-13794
▁reservation	-13795
▁glam	-13796
▁icons	-13797
▁filters	-13798
▁scandal	-13799
▁tasting	-13800
▁Bulldogs	-13801
▁Healthcare	-13802
zo	-13803
▁Harper	-13804
:11	-13805
▁(“	-13806
▁nan	-13807
ublin	-13808
▁builds	-13809
:13	-13810
▁Ced	-13811
▁Furn	-13812
ancell	-13813
▁worlds	-13814
▁terrorist	-13815
▁traditions	-13816
▁Almost	-13817
▁Circle	-13818
▁passage	-13819
▁Networks	-13820
▁sandwich	-13821
▁1/3	-13822
▁Hab	-13823
▁relate	-13824
untu	-13825
neath	-13826
usive	-13827
▁Hung	-13828
▁fier	-13829
▁mart	-13830
inction	-13831
working	-13832
▁Respons	-13833
▁biology	-13834
▁carriers	-13835
---	-13836
▁lb	-13837
▁Thor	-13838
▁lands	-13839
▁delicate	-13840
▁principle	-13841
▁conducting	-13842
IME	-13843
agu	-13844
racts	-13845
▁Cubs	-13846
▁panc	-13847
▁Hunting	-13848
▁inflation	-13849
▁pollution	-13850
▁specially	-13851
.),	-13852
uffy	-13853
▁NPR	-13854
▁Sud	-13855
▁5:30	-13856
▁hack	-13857
▁shades	-13858
communic	-13859
▁hottest	-13860
▁shoulders	-13861
▁Production	-13862
John	-13863
▁mit	-13864
▁Bent	-13865
▁alph	-13866
▁rumors	-13867
▁fucking	-13868
▁checkout	-13869
▁affecting	-13870
GO	-13871
▁Zach	-13872
▁Zone	-13873
▁junk	-13874
onnell	-13875
▁peers	-13876
▁jumping	-13877
▁Princess	-13878
▁lineback	-13879
▁BT	-13880
code	-13881
acket	-13882
▁Myst	-13883
▁Dubai	-13884
▁packs	-13885
ullivan	-13886
▁vitamin	-13887
isting	-13888
▁Sierra	-13889
▁populations	-13890
omed	-13891
eared	-13892
▁Teen	-13893
ificent	-13894
▁islands	-13895
▁Margaret	-13896
▁tourists	-13897
▁WASHINGTON	-13898
▁advantages	-13899
▁ISO	-13900
▁knit	-13901
▁Panel	-13902
▁Bishop	-13903
▁exotic	-13904
▁fisher	-13905
▁invitation	-13906
▁Palace	-13907
ifferent	-13908
▁tension	-13909
▁animated	-13910
▁Broadcast	-13911
▁concentration	-13912
olo	-13913
▁88	-13914
▁Notre	-13915
▁priorities	-13916
jan	-13917
▁moder	-13918
▁refers	-13919
▁stitch	-13920
▁strain	-13921
▁terminal	-13922
ERY	-13923
aws	-13924
▁Jar	-13925
atched	-13926
▁Leban	-13927
olesale	-13928
▁companion	-13929
XX	-13930
ergy	-13931
▁dip	-13932
▁closet	-13933
▁unions	-13934
▁annoying	-13935
▁portrait	-13936
▁restored	-13937
▁́	-13938
ocial	-13939
▁intim	-13940
▁digest	-13941
▁scroll	-13942
▁Thailand	-13943
▁GL	-13944
▁Lie	-13945
▁alerts	-13946
▁Average	-13947
▁creator	-13948
▁Contract	-13949
▁nomination	-13950
.11	-13951
OUT	-13952
aky	-13953
oca	-13954
Mart	-13955
group	-13956
uerto	-13957
▁feeds	-13958
▁glory	-13959
▁cosmet	-13960
▁fabrics	-13961
▁measuring	-13962
▁Range	-13963
▁anger	-13964
▁Triple	-13965
▁reaches	-13966
▁affiliate	-13967
parents	-13968
▁varied	-13969
▁Medicaid	-13970
million	-13971
▁Pretty	-13972
▁discipl	-13973
▁permits	-13974
▁Equipment	-13975
END	-13976
cepts	-13977
▁pays	-13978
amento	-13979
▁Match	-13980
▁woods	-13981
▁Carroll	-13982
▁transit	-13983
▁Treatment	-13984
rez	-13985
ickr	-13986
▁Instit	-13987
lu	-13988
®,	-13989
▁SN	-13990
pace	-13991
▁shy	-13992
▁ugly	-13993
▁Chand	-13994
▁essay	-13995
▁ports	-13996
▁stack	-13997
▁Bryant	-13998
▁formerly	-13999
:17	-14000
▁raises	-14001
▁reliability	-14002
▁individually	-14003
▁Hob	-14004
natural	-14005
▁Barcel	-14006
▁Clinic	-14007
▁Modified	-14008
▁agreements	-14009
FO	-14010
aph	-14011
▁finals	-14012
▁revised	-14013
▁floating	-14014
▁parameters	-14015
▁fax	-14016
▁gel	-14017
▁pole	-14018
shirts	-14019
▁burned	-14020
▁cooler	-14021
▁arrives	-14022
▁distribute	-14023
roph	-14024
▁Craw	-14025
▁classified	-14026
▁wax	-14027
▁shout	-14028
legiate	-14029
▁travels	-14030
▁Historic	-14031
▁dub	-14032
▁chic	-14033
▁dairy	-14034
▁quarters	-14035
▁smartphones	-14036
▁lid	-14037
▁Bald	-14038
▁backs	-14039
▁pension	-14040
▁inappropriate	-14041
▁hey	-14042
▁5:00	-14043
▁Dust	-14044
struct	-14045
▁Canyon	-14046
▁Benjamin	-14047
▁explaining	-14048
▁variations	-14049
ASS	-14050
▁sore	-14051
normal	-14052
▁bachel	-14053
▁supportive	-14054
Mark	-14055
enson	-14056
mount	-14057
▁ghost	-14058
▁jersey	-14059
▁Officials	-14060
IAL	-14061
senal	-14062
▁quil	-14063
▁holder	-14064
▁oxygen	-14065
▁Champion	-14066
▁130	-14067
▁fires	-14068
▁sketch	-14069
▁centuries	-14070
pdf	-14071
▁Ru	-14072
▁Bos	-14073
olved	-14074
▁Extra	-14075
▁McCain	-14076
▁rushing	-14077
▁unnecess	-14078
▁Indonesia	-14079
▁sustained	-14080
▁Communication	-14081
-22	-14082
nie	-14083
base	-14084
orns	-14085
tage	-14086
▁Cox	-14087
arten	-14088
▁Emma	-14089
▁slim	-14090
▁congr	-14091
IX	-14092
Apr	-14093
Cop	-14094
quire	-14095
▁Bike	-14096
borough	-14097
▁accent	-14098
▁Opening	-14099
▁charter	-14100
▁Activity	-14101
▁predicted	-14102
▁releasing	-14103
▁Chad	-14104
▁Magn	-14105
Thread	-14106
▁Pearl	-14107
▁secrets	-14108
▁minority	-14109
▁considerable	-14110
arre	-14111
▁Fit	-14112
▁dict	-14113
▁bloom	-14114
▁cakes	-14115
▁exped	-14116
Per	-14117
affe	-14118
:33	-14119
▁Ye	-14120
arma	-14121
▁18-	-14122
▁PRE	-14123
▁Fantasy	-14124
▁pitched	-14125
:02	-14126
▁911	-14127
▁REAL	-14128
▁Hispan	-14129
▁Spencer	-14130
▁batting	-14131
▁tuition	-14132
▁Amendment	-14133
:24	-14134
onde	-14135
▁subt	-14136
member	-14137
connect	-14138
▁Movies	-14139
neapolis	-14140
▁relation	-14141
▁attracted	-14142
...)	-14143
▁EVER	-14144
direct	-14145
opedia	-14146
▁Butler	-14147
▁Wallace	-14148
▁Excellent	-14149
▁HS	-14150
Life	-14151
:42	-14152
urd	-14153
gomery	-14154
▁Plaza	-14155
▁sidew	-14156
▁Switzerland	-14157
anim	-14158
▁Become	-14159
▁pedest	-14160
▁approve	-14161
▁matched	-14162
▁recycled	-14163
▁stirring	-14164
▁compassion	-14165
Med	-14166
izont	-14167
▁Marl	-14168
▁Rule	-14169
umbers	-14170
▁lecture	-14171
▁deciding	-14172
▁achieving	-14173
▁Investment	-14174
▁Resear	-14175
▁limitations	-14176
-1,	-14177
Art	-14178
▁Cad	-14179
borne	-14180
▁1994	-14181
▁Gard	-14182
rowing	-14183
▁Created	-14184
▁bicycle	-14185
▁embedded	-14186
▁partnerships	-14187
mir	-14188
▁Bid	-14189
▁frost	-14190
▁Tonight	-14191
▁Kle	-14192
trans	-14193
▁Command	-14194
▁scholarships	-14195
fix	-14196
brook	-14197
▁Cycl	-14198
▁Pine	-14199
▁Asked	-14200
▁wound	-14201
▁dominated	-14202
▁challenged	-14203
acred	-14204
acuse	-14205
▁Khan	-14206
▁Pirates	-14207
▁circles	-14208
▁parallel	-14209
▁infections	-14210
▁$2.	-14211
▁Pel	-14212
▁sewing	-14213
▁generic	-14214
▁utilize	-14215
▁founding	-14216
▁Rug	-14217
▁caf	-14218
▁bedrooms	-14219
▁automated	-14220
▁journalism	-14221
Ab	-14222
⁄4	-14223
:04	-14224
:21	-14225
:31	-14226
akh	-14227
pin	-14228
rys	-14229
opez	-14230
orie	-14231
▁LCD	-14232
imens	-14233
▁Troy	-14234
alling	-14235
▁crews	-14236
▁overlook	-14237
▁spacious	-14238
▁incidents	-14239
▁attraction	-14240
▁intersection	-14241
IB	-14242
SB	-14243
:22	-14244
:27	-14245
bank	-14246
rant	-14247
plete	-14248
▁loyal	-14249
▁navigate	-14250
stud	-14251
▁peer	-14252
levard	-14253
▁Floor	-14254
▁coastal	-14255
▁chapters	-14256
▁respected	-14257
2-	-14258
El	-14259
▁Scar	-14260
▁revers	-14261
▁shrimp	-14262
▁quantity	-14263
▁ecosystem	-14264
▁violations	-14265
▁administrators	-14266
nity	-14267
▁innocent	-14268
▁musician	-14269
▁Jews	-14270
▁fate	-14271
▁Partner	-14272
▁receipt	-14273
▁counseling	-14274
▁distinctive	-14275
▁confidential	-14276
▁descriptions	-14277
ois	-14278
▁185	-14279
▁sciences	-14280
▁intensive	-14281
Che	-14282
arer	-14283
▁(18	-14284
▁Database	-14285
▁assignment	-14286
▁IF	-14287
▁Suz	-14288
aneous	-14289
▁alternate	-14290
isd	-14291
rose	-14292
▁stiff	-14293
▁meantime	-14294
▁refreshing	-14295
▁LP	-14296
iasm	-14297
iners	-14298
visor	-14299
▁Martha	-14300
▁Bernard	-14301
▁shocked	-14302
▁interviewed	-14303
▁Flex	-14304
▁Ster	-14305
▁mall	-14306
▁convey	-14307
▁Commons	-14308
▁identical	-14309
▁Uk	-14310
▁threads	-14311
▁vaccine	-14312
isle	-14313
▁Jet	-14314
appro	-14315
▁AIDS	-14316
▁Ferr	-14317
▁chill	-14318
▁divers	-14319
▁nearest	-14320
▁renewable	-14321
▁discipline	-14322
:32	-14323
idem	-14324
start	-14325
▁heal	-14326
ayette	-14327
▁Flore	-14328
▁almond	-14329
▁corruption	-14330
▁conditioning	-14331
,000,	-14332
▁Tommy	-14333
▁newer	-14334
▁Marcus	-14335
▁durability	-14336
-21	-14337
▁Qual	-14338
▁stew	-14339
▁Henderson	-14340
▁dimensions	-14341
omo	-14342
▁od	-14343
lims	-14344
holder	-14345
▁Spark	-14346
▁kicks	-14347
▁Puerto	-14348
▁creamy	-14349
▁caution	-14350
▁simultaneously	-14351
user	-14352
▁boundaries	-14353
▁implications	-14354
▁Ana	-14355
▁Veh	-14356
:08	-14357
▁Vi	-14358
aria	-14359
insp	-14360
keys	-14361
▁Bot	-14362
ailing	-14363
▁Eight	-14364
▁hazard	-14365
05	-14366
TMs	-14367
clip	-14368
▁CPU	-14369
▁mud	-14370
asive	-14371
urers	-14372
▁hiking	-14373
▁awkward	-14374
▁neglect	-14375
▁treasure	-14376
▁protective	-14377
▁arrangement	-14378
PH	-14379
▁carb	-14380
▁sung	-14381
available	-14382
▁promoted	-14383
ratulations	-14384
▁alternatives	-14385
dra	-14386
uto	-14387
▁TM	-14388
▁Ble	-14389
▁lat	-14390
large	-14391
▁Mack	-14392
ampire	-14393
▁manages	-14394
ppy	-14395
acht	-14396
enders	-14397
▁melted	-14398
▁broader	-14399
▁replied	-14400
▁basement	-14401
:38	-14402
utt	-14403
▁Wel	-14404
▁appropri	-14405
▁Barcelona	-14406
gary	-14407
▁eco	-14408
▁Blvd	-14409
▁Chron	-14410
▁Miles	-14411
▁Pizza	-14412
▁Monroe	-14413
▁sheriff	-14414
▁patience	-14415
▁mysterious	-14416
▁progressive	-14417
:23	-14418
Eng	-14419
mid	-14420
ethe	-14421
▁Counsel	-14422
▁troubles	-14423
▁parliament	-14424
▁unveiled	-14425
▁rect	-14426
▁Ronald	-14427
▁commod	-14428
▁novels	-14429
▁suited	-14430
▁starring	-14431
▁economics	-14432
▁licensing	-14433
▁RO	-14434
▁hint	-14435
▁containers	-14436
▁threatening	-14437
▁UM	-14438
▁Pour	-14439
▁Rush	-14440
▁pile	-14441
▁Holmes	-14442
▁Parent	-14443
▁Calendar	-14444
owner	-14445
▁Cruz	-14446
▁Saudi	-14447
▁healthier	-14448
▁Indeed	-14449
▁derived	-14450
▁notification	-14451
imb	-14452
show	-14453
▁Edge	-14454
Please	-14455
othing	-14456
▁arbit	-14457
▁blues	-14458
▁heroes	-14459
▁acceler	-14460
▁varieties	-14461
▁Discussion	-14462
▁ox	-14463
expensive	-14464
▁Patriots	-14465
-23	-14466
SQL	-14467
chnology	-14468
▁Delaware	-14469
▁achievements	-14470
▁71	-14471
aways	-14472
▁fame	-14473
▁herbs	-14474
▁naked	-14475
▁interpre	-14476
:37	-14477
▁69	-14478
opard	-14479
▁beneath	-14480
▁incorrect	-14481
RO	-14482
SO	-14483
annes	-14484
ingle	-14485
▁crossing	-14486
▁separated	-14487
help	-14488
▁Chan	-14489
▁Album	-14490
▁whisk	-14491
▁lounge	-14492
▁advocacy	-14493
▁coalition	-14494
:44	-14495
▁AW	-14496
▁EA	-14497
▁Tun	-14498
▁gad	-14499
ftime	-14500
century	-14501
▁Parking	-14502
▁literary	-14503
▁orientation	-14504
10.	-14505
htm	-14506
▁Dublin	-14507
▁modest	-14508
aceutical	-14509
▁Louisville	-14510
color	-14511
▁Joel	-14512
▁Risk	-14513
▁melt	-14514
▁Agent	-14515
▁Dayton	-14516
▁infant	-14517
▁coupons	-14518
▁explores	-14519
▁treating	-14520
▁galleries	-14521
▁125	-14522
▁Rele	-14523
▁Nicole	-14524
▁valued	-14525
▁Liverpool	-14526
▁underneath	-14527
▁controversy	-14528
▁Representatives	-14529
▁Thai	-14530
ellers	-14531
▁fitted	-14532
▁resistant	-14533
▁Minneapolis	-14534
alg	-14535
erse	-14536
▁appealing	-14537
Off	-14538
▁SK	-14539
▁Vik	-14540
amins	-14541
uated	-14542
▁Garcia	-14543
▁Shakes	-14544
▁laundry	-14545
▁maintains	-14546
▁Laboratory	-14547
▁discrimination	-14548
RP	-14549
pop	-14550
▁SB	-14551
raine	-14552
▁ende	-14553
▁urge	-14554
▁cultiv	-14555
▁pickup	-14556
▁Package	-14557
▁optical	-14558
▁Nutrition	-14559
▁collaborative	-14560
non	-14561
▁competitions	-14562
har	-14563
▁brass	-14564
▁holders	-14565
▁narrative	-14566
▁demonstration	-14567
81	-14568
ACH	-14569
Oct	-14570
▁facial	-14571
▁freely	-14572
▁tongue	-14573
▁missions	-14574
▁acknowledged	-14575
:07	-14576
▁Vel	-14577
osures	-14578
▁Bever	-14579
▁Derek	-14580
▁Ravens	-14581
▁Sacramento	-14582
▁widespread	-14583
fu	-14584
▁glob	-14585
▁trainer	-14586
▁broadband	-14587
▁74	-14588
▁16-	-14589
▁gem	-14590
▁Barnes	-14591
▁trains	-14592
▁washing	-14593
▁homeowners	-14594
▁experimental	-14595
:26	-14596
▁Orth	-14597
▁Built	-14598
inceton	-14599
▁modify	-14600
▁Outdoor	-14601
▁Downtown	-14602
▁RC	-14603
▁Helen	-14604
▁Syrian	-14605
▁basics	-14606
▁casino	-14607
▁harass	-14608
▁projected	-14609
▁acceptance	-14610
ibe	-14611
omer	-14612
rise	-14613
leton	-14614
▁Wade	-14615
search	-14616
▁Upper	-14617
▁Hughes	-14618
▁copper	-14619
▁entrepreneur	-14620
ao	-14621
:03	-14622
ISH	-14623
▁TW	-14624
orus	-14625
etics	-14626
▁consolid	-14627
▁longtime	-14628
▁outreach	-14629
▁Montgomery	-14630
▁bankruptcy	-14631
▁Pred	-14632
▁empower	-14633
▁Recovery	-14634
Gl	-14635
▁trio	-14636
▁finale	-14637
▁volumes	-14638
▁backyard	-14639
▁intensity	-14640
▁interpretation	-14641
:56	-14642
onge	-14643
▁140	-14644
chant	-14645
▁Carn	-14646
▁Yoga	-14647
handed	-14648
▁Berry	-14649
▁safer	-14650
▁shield	-14651
▁satisfy	-14652
▁biological	-14653
Fl	-14654
▁Oz	-14655
boat	-14656
▁besides	-14657
▁chamber	-14658
▁Physical	-14659
▁dependent	-14660
▁reflection	-14661
olves	-14662
▁....	-14663
▁clouds	-14664
▁Regular	-14665
▁discour	-14666
▁selections	-14667
:48	-14668
sor	-14669
chet	-14670
▁pup	-14671
Source	-14672
▁twelve	-14673
▁travelling	-14674
DB	-14675
:09	-14676
:29	-14677
▁Ay	-14678
▁Dawn	-14679
▁Lopez	-14680
▁thirty	-14681
▁crafted	-14682
▁Bachelor	-14683
▁artificial	-14684
▁measurement	-14685
eps	-14686
▁//	-14687
▁6:00	-14688
▁YORK	-14689
▁Casey	-14690
▁Score	-14691
▁inval	-14692
▁strap	-14693
▁Higher	-14694
▁peanut	-14695
ritional	-14696
▁Moreover	-14697
▁complain	-14698
▁luxurious	-14699
urdy	-14700
oshop	-14701
etooth	-14702
▁battles	-14703
▁kilomet	-14704
▁sacrifice	-14705
▁Ric	-14706
▁Stri	-14707
▁fles	-14708
▁todd	-14709
ulates	-14710
▁regret	-14711
▁Primary	-14712
▁terrific	-14713
▁restricted	-14714
▁incorporated	-14715
▁16.	-14716
ombie	-14717
▁hike	-14718
▁Freder	-14719
▁gluten	-14720
▁preventing	-14721
ggie	-14722
▁sends	-14723
forward	-14724
▁specializes	-14725
▁Indianapolis	-14726
▁Happ	-14727
▁Leaf	-14728
▁enrolled	-14729
▁preceded	-14730
erie	-14731
▁Lots	-14732
▁collar	-14733
▁notable	-14734
▁pointing	-14735
▁Tu	-14736
bone	-14737
▁nep	-14738
▁constitutional	-14739
:34	-14740
▁GO	-14741
▁sq	-14742
▁COL	-14743
▁toe	-14744
▁Kick	-14745
▁THAT	-14746
▁curve	-14747
▁spoon	-14748
▁Bennett	-14749
▁outlook	-14750
▁Cultural	-14751
▁PO	-14752
▁UFC	-14753
▁Coming	-14754
▁offset	-14755
▁Storage	-14756
▁forcing	-14757
▁radical	-14758
▁upgrades	-14759
-04	-14760
▁UP	-14761
ulin	-14762
▁9:30	-14763
icient	-14764
▁2000,	-14765
iplinary	-14766
▁targeting	-14767
:36	-14768
ere	-14769
▁Neigh	-14770
▁pairs	-14771
▁plugin	-14772
▁tweets	-14773
▁silence	-14774
▁Wikipedia	-14775
▁Philippines	-14776
dev	-14777
▁NW	-14778
riber	-14779
▁vinyl	-14780
service	-14781
▁testimony	-14782
▁compromise	-14783
▁Od	-14784
ANCE	-14785
hole	-14786
pert	-14787
amine	-14788
▁Belt	-14789
ovable	-14790
▁Brain	-14791
▁socks	-14792
▁broker	-14793
▁tackles	-14794
ido	-14795
ardi	-14796
▁2-0	-14797
▁Kap	-14798
▁Geor	-14799
▁Rebe	-14800
▁brick	-14801
▁distur	-14802
▁rivals	-14803
▁optimal	-14804
▁Boulevard	-14805
▁enthusiasm	-14806
▁motivation	-14807
:06	-14808
:47	-14809
inis	-14810
▁SMS	-14811
▁Bach	-14812
▁Chat	-14813
▁flee	-14814
▁mamm	-14815
▁UPDATE	-14816
▁Resident	-14817
▁confusion	-14818
Let	-14819
▁fridge	-14820
attering	-14821
▁counting	-14822
▁accordance	-14823
▁publishers	-14824
▁Lore	-14825
rupted	-14826
▁Cisco	-14827
▁audit	-14828
▁Approx	-14829
▁floral	-14830
▁Amazing	-14831
▁DS	-14832
▁RF	-14833
▁Appl	-14834
▁poem	-14835
▁Alumni	-14836
▁Oliver	-14837
▁Schedule	-14838
▁Catherine	-14839
▁educators	-14840
ME	-14841
have	-14842
▁ash	-14843
uming	-14844
▁Ellen	-14845
▁amendment	-14846
:43	-14847
Feb	-14848
piracy	-14849
▁Haven	-14850
▁Swedish	-14851
▁defence	-14852
▁evident	-14853
▁prayers	-14854
▁Benefits	-14855
▁struggles	-14856
.]	-14857
▁McM	-14858
▁Joint	-14859
▁lover	-14860
▁intake	-14861
▁infected	-14862
▁disappear	-14863
▁integrate	-14864
▁RV	-14865
than	-14866
▁Maps	-14867
atinum	-14868
▁Grade	-14869
▁Offer	-14870
▁Paint	-14871
▁fract	-14872
▁surveys	-14873
▁Truth	-14874
▁modes	-14875
▁rocket	-14876
▁pipeline	-14877
▁qualities	-14878
▁subsidiary	-14879
pal	-14880
camp	-14881
▁Hook	-14882
▁logic	-14883
▁minimize	-14884
▁consistency	-14885
dog	-14886
ellar	-14887
▁rushed	-14888
ahl	-14889
▁font	-14890
▁Notice	-14891
▁nephew	-14892
▁planted	-14893
▁assisted	-14894
▁institutional	-14895
▁neighborhoods	-14896
aley	-14897
▁Stu	-14898
ensed	-14899
▁Walt	-14900
▁waited	-14901
▁explicit	-14902
▁approaching	-14903
▁bree	-14904
▁oils	-14905
▁Politics	-14906
▁promotions	-14907
3-	-14908
fin	-14909
▁mos	-14910
▁Earn	-14911
arency	-14912
▁archives	-14913
▁Directory	-14914
▁1-0	-14915
▁Lynn	-14916
▁comply	-14917
▁decides	-14918
▁Northeast	-14919
▁performers	-14920
▁suggesting	-14921
.''	-14922
:28	-14923
uder	-14924
▁FROM	-14925
compass	-14926
▁independence	-14927
▁XL	-14928
▁ONE	-14929
▁Mosc	-14930
▁Stre	-14931
▁Twin	-14932
▁lime	-14933
▁2001,	-14934
▁bitter	-14935
▁nurses	-14936
▁Jeffrey	-14937
,...	-14938
▁Spart	-14939
▁noting	-14940
▁Syracuse	-14941
▁goodness	-14942
▁advocates	-14943
▁hilarious	-14944
Your	-14945
▁Cliff	-14946
▁buses	-14947
▁skate	-14948
▁Memory	-14949
▁qualifying	-14950
EB	-14951
||2	-14952
▁milit	-14953
▁halftime	-14954
ften	-14955
▁crap	-14956
▁masc	-14957
stairs	-14958
▁Featured	-14959
▁prospective	-14960
▁restoration	-14961
-40	-14962
▁(0)	-14963
▁(12	-14964
▁Gig	-14965
▁MAN	-14966
width	-14967
▁Jama	-14968
▁header	-14969
▁costumes	-14970
▁Obviously	-14971
▁Gw	-14972
▁Alz	-14973
keley	-14974
quare	-14975
▁Glenn	-14976
oriented	-14977
▁Recreation	-14978
ju	-14979
erm	-14980
peare	-14981
▁Pure	-14982
▁2002,	-14983
▁immigrants	-14984
ede	-14985
▁MM	-14986
▁XML	-14987
pring	-14988
anners	-14989
▁Albany	-14990
▁transformation	-14991
rine	-14992
onnie	-14993
▁Crew	-14994
rapeut	-14995
▁cyber	-14996
▁kernel	-14997
▁apparel	-14998
▁cushion	-14999
▁attachment	-15000
▁VIP	-15001
▁ups	-15002
▁Fitz	-15003
▁Gram	-15004
▁Known	-15005
▁bride	-15006
▁Comcast	-15007
▁establishing	-15008
▁announcements	-15009
▁Buc	-15010
▁Raid	-15011
▁advances	-15012
▁commenting	-15013
:49	-15014
eor	-15015
thal	-15016
▁$12	-15017
▁Sett	-15018
▁vessel	-15019
▁Superior	-15020
▁cholesterol	-15021
OCK	-15022
[...]
