<unk>	0
<pad>	0
<0x00>	0
<0x01>	0
<0x02>	0
<0x03>	0
<0x04>	0
<0x05>	0
<0x06>	0
<0x07>	0
<0x08>	0
<0x09>	0
<0x0A>	0
<0x0B>	0
<0x0C>	0
<0x0D>	0
<0x0E>	0
<0x0F>	0
<0x10>	0
<0x11>	0
<0x12>	0
<0x13>	0
<0x14>	0
<0x15>	0
<0x16>	0
<0x17>	0
<0x18>	0
<0x19>	0
<0x1A>	0
<0x1B>	0
<0x1C>	0
<0x1D>	0
<0x1E>	0
<0x1F>	0
<0x20>	0
<0x21>	0
<0x22>	0
<0x23>	0
<0x24>	0
<0x25>	0
<0x26>	0
<0x27>	0
<0x28>	0
<0x29>	0
<0x2A>	0
<0x2B>	0
<0x2C>	0
<0x2D>	0
<0x2E>	0
<0x2F>	0
<0x30>	0
<0x31>	0
<0x32>	0
<0x33>	0
<0x34>	0
<0x35>	0
<0x36>	0
<0x37>	0
<0x38>	0
<0x39>	0
<0x3A>	0
<0x3B>	0
<0x3C>	0
<0x3D>	0
<0x3E>	0
<0x3F>	0
<0x40>	0
<0x41>	0
<0x42>	0
<0x43>	0
<0x44>	0
<0x45>	0
<0x46>	0
<0x47>	0
<0x48>	0
<0x49>	0
<0x4A>	0
<0x4B>	0
<0x4C>	0
<0x4D>	0
<0x4E>	0
<0x4F>	0
<0x50>	0
<0x51>	0
<0x52>	0
<0x53>	0
<0x54>	0
<0x55>	0
<0x56>	0
<0x57>	0
<0x58>	0
<0x59>	0
<0x5A>	0
<0x5B>	0
<0x5C>	0
<0x5D>	0
<0x5E>	0
<0x5F>	0
<0x60>	0
<0x61>	0
<0x62>	0
<0x63>	0
<0x64>	0
<0x65>	0
<0x66>	0
<0x67>	0
<0x68>	0
<0x69>	0
<0x6A>	0
<0x6B>	0
<0x6C>	0
<0x6D>	0
<0x6E>	0
<0x6F>	0
<0x70>	0
<0x71>	0
<0x72>	0
<0x73>	0
<0x74>	0
<0x75>	0
<0x76>	0
<0x77>	0
<0x78>	0
<0x79>	0
<0x7A>	0
<0x7B>	0
<0x7C>	0
<0x7D>	0
<0x7E>	0
<0x7F>	0
<0x80>	0
<0x81>	0
<0x82>	0
<0x83>	0
<0x84>	0
<0x85>	0
<0x86>	0
<0x87>	0
<0x88>	0
<0x89>	0
<0x8A>	0
<0x8B>	0
<0x8C>	0
<0x8D>	0
<0x8E>	0
<0x8F>	0
<0x90>	0
<0x91>	0
<0x92>	0
<0x93>	0
<0x94>	0
<0x95>	0
<0x96>	0
<0x97>	0
<0x98>	0
<0x99>	0
<0x9A>	0
<0x9B>	0
<0x9C>	0
<0x9D>	0
<0x9E>	0
<0x9F>	0
<0xA0>	0
<0xA1>	0
<0xA2>	0
<0xA3>	0
<0xA4>	0
<0xA5>	0
<0xA6>	0
<0xA7>	0
<0xA8>	0
<0xA9>	0
<0xAA>	0
<0xAB>	0
<0xAC>	0
<0xAD>	0
<0xAE>	0
<0xAF>	0
<0xB0>	0
<0xB1>	0
<0xB2>	0
<0xB3>	0
<0xB4>	0
<0xB5>	0
<0xB6>	0
<0xB7>	0
<0xB8>	0
<0xB9>	0
<0xBA>	0
<0xBB>	0
<0xBC>	0
<0xBD>	0
<0xBE>	0
<0xBF>	0
<0xC0>	0
<0xC1>	0
<0xC2>	0
<0xC3>	0
<0xC4>	0
<0xC5>	0
<0xC6>	0
<0xC7>	0
<0xC8>	0
<0xC9>	0
<0xCA>	0
<0xCB>	0
<0xCC>	0
<0xCD>	0
<0xCE>	0
<0xCF>	0
<0xD0>	0
<0xD1>	0
<0xD2>	0
<0xD3>	0
<0xD4>	0
<0xD5>	0
<0xD6>	0
<0xD7>	0
<0xD8>	0
<0xD9>	0
<0xDA>	0
<0xDB>	0
<0xDC>	0
<0xDD>	0
<0xDE>	0
<0xDF>	0
<0xE0>	0
<0xE1>	0
<0xE2>	0
<0xE3>	0
<0xE4>	0
<0xE5>	0
<0xE6>	0
<0xE7>	0
<0xE8>	0
<0xE9>	0
<0xEA>	0
<0xEB>	0
<0xEC>	0
<0xED>	0
<0xEE>	0
<0xEF>	0
<0xF0>	0
<0xF1>	0
<0xF2>	0
<0xF3>	0
<0xF4>	0
<0xF5>	0
<0xF6>	0
<0xF7>	0
<0xF8>	0
<0xF9>	0
<0xFA>	0
<0xFB>	0
<0xFC>	0
<0xFD>	0
<0xFE>	0
<0xFF>	0
▁t	-0
▁a	-1
in	-2
he	-3
re	-4
on	-5
er	-6
▁the	-7
▁s	-8
▁w	-9
or	-10
at	-11
nd	-12
ou	-13
▁c	-14
it	-15
es	-16
▁f	-17
is	-18
en	-19
▁b	-20
ing	-21
▁p	-22
▁o	-23
ed	-24
an	-25
ar	-26
al	-27
▁to	-28
▁m	-29
▁and	-30
▁in	-31
▁of	-32
ic	-33
le	-34
▁d	-35
as	-36
▁h	-37
om	-38
ion	-39
▁th	-40
il	-41
▁T	-42
▁l	-43
▁S	-44
ent	-45
▁I	-46
ve	-47
st	-48
ro	-49
▁re	-50
▁n	-51
▁e	-52
▁g	-53
▁C	-54
▁A	-55
▁y	-56
et	-57
ac	-58
ay	-59
id	-60
▁on	-61
ly	-62
ot	-63
▁for	-64
▁be	-65
▁is	-66
ow	-67
am	-68
▁you	-69
▁M	-70
ol	-71
ad	-72
ig	-73
el	-74
ct	-75
▁P	-76
us	-77
ut	-78
ver	-79
im	-80
▁B	-81
▁st	-82
ith	-83
ation	-84
ur	-85
▁W	-86
▁that	-87
ir	-88
▁with	-89
▁The	-90
ch	-91
▁he	-92
▁it	-93
ter	-94
▁F	-95
▁D	-96
ce	-97
▁H	-98
ill	-99
un	-100
▁R	-101
▁an	-102
ers	-103
▁1	-104
▁al	-105
out	-106
▁2	-107
ul	-108
ke	-109
▁wh	-110
se	-111
▁as	-112
oo	-113
ag	-114
▁at	-115
▁L	-116
▁we	-117
▁pro	-118
▁are	-119
▁ha	-120
▁N	-121
if	-122
our	-123
ate	-124
pp	-125
▁-	-126
ri	-127
her	-128
ore	-129
ew	-130
igh	-131
em	-132
▁or	-133
est	-134
▁con	-135
▁G	-136
▁com	-137
ra	-138
▁se	-139
▁(	-140
ld	-141
▁E	-142
rom	-143
ess	-144
ts	-145
ab	-146
▁O	-147
th	-148
op	-149
▁was	-150
um	-151
▁r	-152
res	-153
▁v	-154
ity	-155
ist	-156
▁this	-157
ive	-158
▁from	-159
qu	-160
▁ex	-161
▁have	-162
ment	-163
▁sh	-164
ust	-165
oc	-166
▁by	-167
▁J	-168
00	-169
pe	-170
▁de	-171
up	-172
▁your	-173
..	-174
and	-175
art	-176
all	-177
os	-178
ies	-179
ain	-180
ard	-181
ear	-182
▁will	-183
▁ch	-184
ort	-185
ud	-186
▁not	-187
ant	-188
ight	-189
ost	-190
nt	-191
▁su	-192
ome	-193
▁le	-194
ast	-195
▁us	-196
▁can	-197
ack	-198
▁pl	-199
red	-200
▁ab	-201
▁"	-202
ould	-203
▁U	-204
gh	-205
▁j	-206
iv	-207
ell	-208
ge	-209
te	-210
rou	-211
ide	-212
ak	-213
ine	-214
▁wor	-215
▁all	-216
▁has	-217
▁Th	-218
ice	-219
ial	-220
od	-221
og	-222
▁sa	-223
▁k	-224
ook	-225
▁In	-226
ff	-227
▁but	-228
ure	-229
▁ad	-230
▁up	-231
▁ne	-232
ip	-233
▁out	-234
▁do	-235
age	-236
ions	-237
ry	-238
▁St	-239
01	-240
▁K	-241
ally	-242
ail	-243
one	-244
ap	-245
are	-246
▁whe	-247
▁me	-248
ame	-249
ake	-250
▁more	-251
▁comp	-252
ite	-253
ind	-254
ther	-255
▁Y	-256
ber	-257
act	-258
ood	-259
ich	-260
able	-261
ie	-262
ep	-263
ated	-264
ick	-265
ong	-266
▁so	-267
▁V	-268
orm	-269
cc	-270
ect	-271
ime	-272
▁cl	-273
▁my	-274
▁their	-275
very	-276
▁off	-277
▁they	-278
▁one	-279
ike	-280
▁about	-281
▁his	-282
ase	-283
▁en	-284
ans	-285
iz	-286
ll	-287
ub	-288
▁“	-289
▁cont	-290
▁3	-291
cl	-292
▁te	-293
▁who	-294
ous	-295
▁our	-296
▁Ch	-297
ia	-298
so	-299
ks	-300
▁year	-301
ire	-302
ue	-303
ary	-304
▁un	-305
▁go	-306
▁201	-307
ace	-308
▁new	-309
ree	-310
pl	-311
du	-312
▁said	-313
per	-314
day	-315
ign	-316
ass	-317
ach	-318
ays	-319
▁per	-320
erv	-321
▁res	-322
▁man	-323
▁im	-324
ib	-325
ance	-326
und	-327
reat	-328
▁tr	-329
pt	-330
ord	-331
ile	-332
ven	-333
form	-334
own	-335
▁qu	-336
▁app	-337
▁It	-338
to	-339
ents	-340
▁sp	-341
▁We	-342
▁like	-343
ove	-344
ations	-345
▁any	-346
▁get	-347
▁other	-348
ark	-349
ount	-350
av	-351
▁He	-352
ings	-353
▁which	-354
▁some	-355
▁ag	-356
▁time	-357
▁been	-358
▁also	-359
ress	-360
ction	-361
▁over	-362
▁sc	-363
ond	-364
▁rec	-365
...	-366
▁dis	-367
mer	-368
ors	-369
▁ar	-370
▁kn	-371
irst	-372
ound	-373
vel	-374
▁work	-375
ical	-376
ition	-377
▁just	-378
▁Re	-379
ough	-380
▁when	-381
ob	-382
ck	-383
▁This	-384
ult	-385
ren	-386
▁them	-387
▁would	-388
wn	-389
▁had	-390
ose	-391
low	-392
▁than	-393
vers	-394
ink	-395
ild	-396
▁her	-397
▁pe	-398
ens	-399
▁tw	-400
▁part	-401
▁ro	-402
com	-403
▁4	-404
ence	-405
ru	-406
▁were	-407
▁|	-408
▁fe	-409
fter	-410
▁spe	-411
▁pre	-412
▁what	-413
ov	-414
oin	-415
ish	-416
fe	-417
▁if	-418
oy	-419
▁its	-420
ory	-421
▁there	-422
▁acc	-423
▁first	-424
ning	-425
clud	-426
ool	-427
ade	-428
itt	-429
▁pr	-430
lic	-431
▁5	-432
old	-433
amp	-434
ang	-435
▁into	-436
▁200	-437
hed	-438
end	-439
▁add	-440
use	-441
▁am	-442
ons	-443
ater	-444
rough	-445
iew	-446
ne	-447
▁bl	-448
▁need	-449
ople	-450
anc	-451
port	-452
▁includ	-453
▁Wh	-454
gr	-455
▁play	-456
▁des	-457
ft	-458
▁two	-459
▁$	-460
▁look	-461
ates	-462
lp	-463
▁how	-464
ian	-465
▁19	-466
▁no	-467
▁col	-468
les	-469
▁only	-470
▁back	-471
tern	-472
▁comm	-473
▁make	-474
▁she	-475
ict	-476
iss	-477
▁bec	-478
▁know	-479
▁people	-480
▁may	-481
▁help	-482
▁You	-483
als	-484
▁after	-485
ph	-486
ious	-487
▁As	-488
▁New	-489
▁see	-490
round	-491
▁prov	-492
▁em	-493
▁ph	-494
▁Un	-495
we	-496
▁If	-497
xt	-498
hing	-499
▁through	-500
▁produ	-501
ful	-502
▁most	-503
▁every	-504
▁An	-505
▁Com	-506
ock	-507
ont	-508
rent	-509
aw	-510
urn	-511
ause	-512
▁serv	-513
▁bet	-514
row	-515
lect	-516
formation	-517
▁6	-518
ting	-519
▁use	-520
▁wee	-521
▁bu	-522
▁co	-523
▁well	-524
▁years	-525
ual	-526
ities	-527
ise	-528
▁And	-529
▁act	-530
ating	-531
▁now	-532
ational	-533
ices	-534
▁De	-535
▁stud	-536
▁und	-537
ments	-538
▁fl	-539
ily	-540
ject	-541
▁&	-542
▁good	-543
▁gu	-544
▁want	-545
oun	-546
▁ind	-547
bs	-548
▁Pro	-549
ife	-550
▁For	-551
▁supp	-552
).	-553
▁sec	-554
ason	-555
cial	-556
▁these	-557
ics	-558
▁could	-559
chool	-560
hen	-561
▁Sh	-562
lease	-563
."	-564
▁show	-565
vent	-566
▁don	-567
ased	-568
▁fin	-569
fore	-570
ork	-571
▁ke	-572
▁here	-573
oth	-574
enc	-575
ward	-576
get	-577
▁Al	-578
aking	-579
▁under	-580
▁reg	-581
ures	-582
▁great	-583
▁cons	-584
ident	-585
▁very	-586
▁7	-587
uch	-588
rib	-589
arch	-590
pect	-591
▁information	-592
iness	-593
▁way	-594
▁Cl	-595
man	-596
ull	-597
ty	-598
▁10	-599
▁sm	-600
▁ent	-601
▁last	-602
▁8	-603
rit	-604
▁down	-605
▁even	-606
▁many	-607
▁own	-608
ange	-609
oss	-610
hes	-611
▁Se	-612
erson	-613
▁–	-614
ert	-615
gram	-616
ited	-617
yst	-618
ix	-619
▁tra	-620
▁rem	-621
▁did	-622
uring	-623
pr	-624
▁then	-625
▁too	-626
ner	-627
its	-628
ific	-629
,"	-630
▁find	-631
ath	-632
olog	-633
ied	-634
▁day	-635
hip	-636
io	-637
ues	-638
▁read	-639
▁mon	-640
▁set	-641
ble	-642
▁av	-643
▁where	-644
▁should	-645
air	-646
||	-647
▁again	-648
▁But	-649
▁loc	-650
▁min	-651
▁inv	-652
▁imp	-653
other	-654
▁bus	-655
▁think	-656
ility	-657
▁high	-658
▁call	-659
ible	-660
▁rel	-661
▁inc	-662
ars	-663
▁ass	-664
any	-665
▁him	-666
▁start	-667
ys	-668
▁made	-669
▁team	-670
▁Ar	-671
alth	-672
▁much	-673
▁mem	-674
ton	-675
▁Be	-676
▁che	-677
ublic	-678
velop	-679
▁att	-680
ug	-681
▁br	-682
▁Ad	-683
),	-684
▁9	-685
▁dif	-686
▁because	-687
ivers	-688
▁fam	-689
▁home	-690
gan	-691
atch	-692
▁inst	-693
ular	-694
ank	-695
▁pol	-696
elf	-697
▁ac	-698
land	-699
▁post	-700
▁exper	-701
▁Le	-702
ollow	-703
▁before	-704
ax	-705
▁All	-706
▁take	-707
ative	-708
line	-709
ience	-710
rest	-711
▁long	-712
▁dec	-713
pen	-714
ystem	-715
omet	-716
cess	-717
ex	-718
view	-719
ets	-720
▁pres	-721
▁best	-722
az	-723
ters	-724
irect	-725
▁art	-726
ms	-727
ave	-728
alk	-729
▁2012	-730
ince	-731
way	-732
▁does	-733
▁run	-734
ah	-735
▁end	-736
ins	-737
▁right	-738
▁car	-739
ash	-740
riend	-741
▁those	-742
▁sur	-743
ower	-744
read	-745
meric	-746
▁program	-747
ener	-748
▁game	-749
ng	-750
▁world	-751
▁three	-752
▁rep	-753
ouse	-754
ames	-755
▁while	-756
▁design	-757
▁ear	-758
▁inte	-759
iel	-760
▁ra	-761
orts	-762
▁lead	-763
.”	-764
▁ed	-765
▁product	-766
▁bo	-767
▁vis	-768
▁On	-769
▁i	-770
▁Fr	-771
▁ins	-772
ale	-773
ced	-774
▁ret	-775
ier	-776
▁ser	-777
akes	-778
ailable	-779
ric	-780
▁cre	-781
▁eff	-782
uc	-783
▁0	-784
▁being	-785
▁such	-786
▁poin	-787
unity	-788
▁really	-789
▁char	-790
riv	-791
roup	-792
ather	-793
ces	-794
▁requ	-795
▁Bl	-796
ages	-797
▁disc	-798
▁business	-799
▁each	-800
▁hand	-801
000	-802
der	-803
▁gr	-804
▁going	-805
ered	-806
ros	-807
imes	-808
ives	-809
▁person	-810
ple	-811
The	-812
▁around	-813
▁Americ	-814
▁cur	-815
▁follow	-816
▁week	-817
ittle	-818
-1	-819
▁med	-820
▁say	-821
chn	-822
▁So	-823
▁win	-824
ient	-825
▁still	-826
▁top	-827
▁Col	-828
▁develop	-829
ually	-830
▁provid	-831
▁sim	-832
▁2013	-833
au	-834
▁free	-835
▁count	-836
▁used	-837
oad	-838
led	-839
▁cour	-840
▁book	-841
oot	-842
ted	-843
▁found	-844
▁month	-845
▁mod	-846
ute	-847
▁available	-848
▁Sc	-849
▁mark	-850
▁num	-851
▁state	-852
,”	-853
orn	-854
cent	-855
oh	-856
▁though	-857
▁12	-858
▁child	-859
ement	-860
▁comple	-861
▁To	-862
ional	-863
ize	-864
▁care	-865
ights	-866
▁diffe	-867
▁sub	-868
ines	-869
els	-870
▁love	-871
▁list	-872
▁inter	-873
▁life	-874
▁somet	-875
▁Pl	-876
▁det	-877
ants	-878
bers	-879
▁system	-880
ustom	-881
▁Ph	-882
▁eas	-883
▁school	-884
▁There	-885
ene	-886
▁fil	-887
▁sign	-888
▁They	-889
arm	-890
▁fun	-891
▁fr	-892
▁sk	-893
iet	-894
atur	-895
▁open	-896
ists	-897
▁few	-898
illion	-899
▁both	-900
▁str	-901
▁Ex	-902
▁rece	-903
▁support	-904
▁May	-905
ield	-906
▁second	-907
▁little	-908
▁Q	-909
iversity	-910
▁Sp	-911
▁How	-912
▁trans	-913
▁including	-914
▁same	-915
ished	-916
ness	-917
▁feat	-918
▁Te	-919
▁friend	-920
-2	-921
▁aut	-922
▁gl	-923
ww	-924
ality	-925
▁ev	-926
ired	-927
rand	-928
▁got	-929
▁place	-930
ger	-931
▁next	-932
▁At	-933
▁'	-934
▁lar	-935
son	-936
▁She	-937
▁happ	-938
▁pur	-939
▁Or	-940
▁>	-941
ween	-942
▁keep	-943
▁lot	-944
▁def	-945
reen	-946
▁season	-947
▁11	-948
▁prof	-949
ways	-950
ik	-951
ology	-952
cer	-953
▁Cent	-954
▁during	-955
▁big	-956
▁ann	-957
▁del	-958
arn	-959
att	-960
ital	-961
▁pass	-962
,000	-963
ving	-964
ized	-965
▁exp	-966
▁four	-967
▁adv	-968
ved	-969
▁What	-970
▁cr	-971
▁contin	-972
▁between	-973
▁since	-974
▁No	-975
thing	-976
be	-977
istr	-978
ution	-979
▁family	-980
▁Con	-981
▁direct	-982
▁ext	-983
uss	-984
▁put	-985
▁tri	-986
ross	-987
gg	-988
ering	-989
▁try	-990
▁come	-991
ards	-992
▁form	-993
▁quest	-994
▁head	-995
▁plan	-996
ever	-997
▁cle	-998
▁phot	-999
▁int	-1000
cept	-1001
▁site	-1002
vern	-1003
min	-1004
▁mus	-1005
▁mov	-1006
▁health	-1007
ision	-1008
▁iss	-1009
▁Is	-1010
▁—	-1011
▁rest	-1012
▁Res	-1013
▁using	-1014
▁bro	-1015
▁--	-1016
ley	-1017
▁cent	-1018
less	-1019
▁20	-1020
▁allow	-1021
▁different	-1022
outh	-1023
▁better	-1024
▁interest	-1025
▁custom	-1026
▁today	-1027
pping	-1028
▁class	-1029
ee	-1030
ware	-1031
▁Mon	-1032
▁group	-1033
ott	-1034
▁real	-1035
▁public	-1036
iving	-1037
ling	-1038
▁another	-1039
rence	-1040
▁small	-1041
ER	-1042
br	-1043
uck	-1044
▁report	-1045
con	-1046
▁techn	-1047
▁Mar	-1048
▁says	-1049
▁15	-1050
ody	-1051
▁bel	-1052
▁met	-1053
▁something	-1054
▁old	-1055
ata	-1056
ems	-1057
▁things	-1058
▁Chr	-1059
▁Z	-1060
ird	-1061
▁sl	-1062
▁company	-1063
▁stand	-1064
ats	-1065
▁18	-1066
▁appro	-1067
ok	-1068
▁gener	-1069
▁days	-1070
▁project	-1071
ense	-1072
aj	-1073
▁sure	-1074
▁full	-1075
▁Comm	-1076
▁hard	-1077
iqu	-1078
▁ve	-1079
▁When	-1080
enn	-1081
▁Tr	-1082
▁against	-1083
▁sol	-1084
ior	-1085
▁perform	-1086
▁special	-1087
▁organ	-1088
▁feel	-1089
ope	-1090
▁University	-1091
▁ref	-1092
iday	-1093
pped	-1094
ote	-1095
oney	-1096
▁let	-1097
▁service	-1098
▁Fe	-1099
▁Ind	-1100
▁resp	-1101
lection	-1102
▁With	-1103
▁US	-1104
orth	-1105
ission	-1106
▁inf	-1107
ared	-1108
self	-1109
gy	-1110
▁process	-1111
▁vide	-1112
let	-1113
▁always	-1114
▁current	-1115
▁That	-1116
▁cap	-1117
▁news	-1118
▁opp	-1119
▁conf	-1120
ves	-1121
▁must	-1122
raph	-1123
▁build	-1124
▁water	-1125
urs	-1126
▁Car	-1127
▁visit	-1128
▁number	-1129
ember	-1130
▁unt	-1131
▁without	-1132
▁wom	-1133
▁ask	-1134
▁partic	-1135
ann	-1136
▁fac	-1137
▁poss	-1138
ately	-1139
ours	-1140
▁ty	-1141
▁My	-1142
▁proble	-1143
▁ter	-1144
▁2011	-1145
ample	-1146
▁email	-1147
▁never	-1148
▁Br	-1149
▁give	-1150
▁students	-1151
▁var	-1152
▁import	-1153
tend	-1154
!!	-1155
gin	-1156
▁view	-1157
▁wr	-1158
▁access	-1159
▁cor	-1160
ining	-1161
30	-1162
▁ide	-1163
▁online	-1164
ically	-1165
ccess	-1166
▁meet	-1167
▁offic	-1168
ium	-1169
▁Fl	-1170
ories	-1171
▁manag	-1172
▁bre	-1173
iver	-1174
me	-1175
50	-1176
▁opt	-1177
ohn	-1178
▁past	-1179
ploy	-1180
▁night	-1181
▁market	-1182
▁Co	-1183
ording	-1184
▁pat	-1185
▁until	-1186
aut	-1187
▁main	-1188
▁sal	-1189
▁pay	-1190
tt	-1191
▁webs	-1192
co	-1193
ball	-1194
▁Rep	-1195
▁area	-1196
ract	-1197
ina	-1198
rol	-1199
work	-1200
▁percent	-1201
▁[	-1202
▁val	-1203
▁recent	-1204
inal	-1205
ney	-1206
ator	-1207
utes	-1208
▁looking	-1209
▁cost	-1210
▁$1	-1211
ids	-1212
ral	-1213
joy	-1214
▁Count	-1215
int	-1216
▁App	-1217
▁might	-1218
▁el	-1219
▁bas	-1220
▁dr	-1221
▁Man	-1222
▁law	-1223
▁.	-1224
mber	-1225
▁event	-1226
▁local	-1227
▁page	-1228
.,	-1229
▁John	-1230
ured	-1231
ery	-1232
ged	-1233
avor	-1234
alf	-1235
here	-1236
▁spec	-1237
▁dri	-1238
▁test	-1239
▁ob	-1240
▁level	-1241
▁experience	-1242
▁job	-1243
aff	-1244
/2	-1245
ps	-1246
▁turn	-1247
▁expl	-1248
▁provide	-1249
▁...	-1250
ubl	-1251
▁children	-1252
icle	-1253
oor	-1254
▁exc	-1255
bo	-1256
▁order	-1257
▁soc	-1258
▁incre	-1259
▁power	-1260
ertain	-1261
▁Jan	-1262
▁name	-1263
▁million	-1264
▁left	-1265
▁pop	-1266
▁addition	-1267
IN	-1268
▁fact	-1269
▁prom	-1270
▁members	-1271
▁grow	-1272
ites	-1273
▁less	-1274
▁rese	-1275
irl	-1276
▁invest	-1277
▁near	-1278
▁30	-1279
artment	-1280
▁Pr	-1281
ten	-1282
ored	-1283
ode	-1284
▁par	-1285
▁line	-1286
osed	-1287
ains	-1288
ruct	-1289
▁community	-1290
oci	-1291
ency	-1292
book	-1293
▁En	-1294
▁State	-1295
▁please	-1296
▁check	-1297
uff	-1298
une	-1299
ges	-1300
med	-1301
▁food	-1302
nect	-1303
augh	-1304
We	-1305
▁Can	-1306
ret	-1307
▁Cont	-1308
stand	-1309
▁expect	-1310
▁Ste	-1311
fect	-1312
▁Our	-1313
ature	-1314
the	-1315
ury	-1316
ified	-1317
▁able	-1318
load	-1319
yr	-1320
▁Che	-1321
▁include	-1322
▁belie	-1323
ills	-1324
▁Med	-1325
▁sing	-1326
ON	-1327
pend	-1328
▁making	-1329
▁pos	-1330
ably	-1331
▁oper	-1332
▁govern	-1333
▁camp	-1334
▁away	-1335
ream	-1336
ries	-1337
▁hot	-1338
uper	-1339
▁music	-1340
▁products	-1341
por	-1342
iron	-1343
hor	-1344
▁leg	-1345
▁sw	-1346
▁Post	-1347
▁room	-1348
ised	-1349
▁Christ	-1350
ready	-1351
▁Ne	-1352
▁dist	-1353
▁American	-1354
by	-1355
ama	-1356
▁important	-1357
▁Tw	-1358
▁working	-1359
veral	-1360
ined	-1361
▁website	-1362
lege	-1363
ases	-1364
yle	-1365
ec	-1366
▁record	-1367
atter	-1368
▁Intern	-1369
▁One	-1370
▁hist	-1371
ym	-1372
▁effect	-1373
▁City	-1374
ived	-1375
▁services	-1376
ults	-1377
ron	-1378
▁Wor	-1379
▁*	-1380
▁mar	-1381
▁Please	-1382
iam	-1383
▁dep	-1384
▁offer	-1385
ows	-1386
▁enjoy	-1387
▁Off	-1388
RE	-1389
org	-1390
iting	-1391
▁money	-1392
▁14	-1393
ism	-1394
▁contact	-1395
▁profess	-1396
▁blog	-1397
▁data	-1398
omm	-1399
▁Me	-1400
aring	-1401
▁eng	-1402
ajor	-1403
▁aff	-1404
sh	-1405
▁16	-1406
▁won	-1407
▁complete	-1408
ane	-1409
ots	-1410
▁air	-1411
ials	-1412
ference	-1413
▁video	-1414
▁five	-1415
▁2010	-1416
▁intern	-1417
aster	-1418
▁story	-1419
▁beh	-1420
▁review	-1421
▁thing	-1422
▁cut	-1423
▁change	-1424
▁Cal	-1425
▁Do	-1426
▁Am	-1427
gether	-1428
▁together	-1429
▁Ass	-1430
▁didn	-1431
▁light	-1432
▁course	-1433
▁games	-1434
ern	-1435
▁times	-1436
pecial	-1437
itions	-1438
▁following	-1439
conom	-1440
iety	-1441
▁within	-1442
▁(1	-1443
▁large	-1444
▁impro	-1445
▁chang	-1446
▁After	-1447
reet	-1448
▁case	-1449
▁already	-1450
▁easy	-1451
▁applic	-1452
▁return	-1453
sc	-1454
▁ago	-1455
▁present	-1456
ST	-1457
AT	-1458
ush	-1459
ober	-1460
▁More	-1461
ider	-1462
▁Serv	-1463
▁vers	-1464
▁Bro	-1465
▁along	-1466
vious	-1467
▁County	-1468
ister	-1469
oon	-1470
▁Eng	-1471
ising	-1472
▁mil	-1473
▁13	-1474
▁educ	-1475
▁School	-1476
▁Not	-1477
▁est	-1478
▁ce	-1479
nes	-1480
▁minutes	-1481
▁detail	-1482
▁several	-1483
▁ever	-1484
▁tell	-1485
▁city	-1486
▁X	-1487
▁dem	-1488
▁point	-1489
▁199	-1490
aper	-1491
▁success	-1492
ivid	-1493
ones	-1494
ients	-1495
▁points	-1496
▁buy	-1497
▁country	-1498
▁prote	-1499
▁below	-1500
ability	-1501
▁Center	-1502
▁Gu	-1503
▁activ	-1504
▁why	-1505
oll	-1506
▁proper	-1507
▁By	-1508
▁Ed	-1509
▁Your	-1510
▁Gr	-1511
▁Mc	-1512
▁live	-1513
app	-1514
▁York	-1515
▁creat	-1516
▁side	-1517
▁enough	-1518
rop	-1519
▁men	-1520
▁join	-1521
ify	-1522
tain	-1523
▁bit	-1524
▁friends	-1525
▁‘	-1526
osp	-1527
▁word	-1528
▁hum	-1529
eral	-1530
▁getting	-1531
▁talk	-1532
ille	-1533
▁equ	-1534
▁short	-1535
▁kind	-1536
idd	-1537
▁called	-1538
▁trad	-1539
▁cou	-1540
▁makes	-1541
side	-1542
ization	-1543
ique	-1544
ential	-1545
AN	-1546
▁far	-1547
ips	-1548
▁dra	-1549
year	-1550
▁Friday	-1551
▁learn	-1552
▁/	-1553
▁indust	-1554
ention	-1555
duct	-1556
▁pract	-1557
yl	-1558
ource	-1559
▁quality	-1560
ift	-1561
ead	-1562
▁soft	-1563
▁perfect	-1564
aturday	-1565
▁having	-1566
ocus	-1567
ograph	-1568
ourn	-1569
uly	-1570
ched	-1571
▁deal	-1572
▁orig	-1573
20	-1574
▁:	-1575
▁came	-1576
▁pack	-1577
▁done	-1578
▁24	-1579
ump	-1580
▁17	-1581
viron	-1582
▁Des	-1583
▁Dr	-1584
--	-1585
▁1.	-1586
oice	-1587
▁least	-1588
▁yet	-1589
▁told	-1590
▁early	-1591
▁Bo	-1592
▁hours	-1593
▁women	-1594
▁took	-1595
▁News	-1596
▁hold	-1597
AR	-1598
ides	-1599
▁fund	-1600
fort	-1601
▁net	-1602
▁employ	-1603
▁move	-1604
arr	-1605
▁Pres	-1606
▁Dep	-1607
▁opport	-1608
yn	-1609
▁went	-1610
unch	-1611
▁announ	-1612
▁25	-1613
▁half	-1614
▁North	-1615
af	-1616
▁search	-1617
▁needs	-1618
▁cond	-1619
▁favor	-1620
▁writ	-1621
▁months	-1622
▁dev	-1623
iven	-1624
▁Saturday	-1625
ances	-1626
▁const	-1627
▁Now	-1628
▁house	-1629
▁tre	-1630
▁address	-1631
▁tax	-1632
▁pain	-1633
▁These	-1634
▁Comp	-1635
▁personal	-1636
▁doesn	-1637
ither	-1638
10	-1639
▁rele	-1640
▁compet	-1641
//	-1642
▁based	-1643
▁Apr	-1644
▁elect	-1645
rew	-1646
▁major	-1647
▁become	-1648
▁la	-1649
▁non	-1650
aim	-1651
▁purch	-1652
uture	-1653
anks	-1654
▁wa	-1655
rap	-1656
room	-1657
ony	-1658
://	-1659
▁Sep	-1660
▁young	-1661
▁United	-1662
allen	-1663
ibr	-1664
▁Wed	-1665
▁Feb	-1666
▁research	-1667
▁Qu	-1668
back	-1669
of	-1670
▁share	-1671
verage	-1672
▁government	-1673
▁Just	-1674
ches	-1675
▁appear	-1676
▁works	-1677
ript	-1678
▁100	-1679
▁es	-1680
▁low	-1681
▁National	-1682
itor	-1683
▁pick	-1684
▁doing	-1685
▁six	-1686
uro	-1687
▁Ab	-1688
▁beaut	-1689
▁Pol	-1690
▁sn	-1691
▁sum	-1692
▁Will	-1693
▁field	-1694
▁pot	-1695
▁Sm	-1696
acy	-1697
▁mater	-1698
▁Here	-1699
▁store	-1700
fer	-1701
ttp	-1702
▁Ke	-1703
▁red	-1704
▁thought	-1705
▁South	-1706
....	-1707
▁Dis	-1708
▁upd	-1709
▁series	-1710
▁Monday	-1711
▁Min	-1712
▁quick	-1713
▁possible	-1714
▁started	-1715
ging	-1716
hers	-1717
ners	-1718
vironment	-1719
▁Oct	-1720
enef	-1721
ensive	-1722
▁bring	-1723
▁•	-1724
▁control	-1725
▁World	-1726
It	-1727
itive	-1728
▁create	-1729
2.	-1730
▁Per	-1731
▁treat	-1732
▁across	-1733
oose	-1734
▁comb	-1735
play	-1736
for	-1737
over	-1738
most	-1739
▁pie	-1740
▁once	-1741
▁others	-1742
▁#	-1743
▁2.	-1744
▁host	-1745
▁Park	-1746
illed	-1747
▁offers	-1748
▁econom	-1749
▁2009	-1750
▁focus	-1751
Th	-1752
▁mult	-1753
lement	-1754
▁connect	-1755
OR	-1756
aces	-1757
▁added	-1758
▁occ	-1759
▁Im	-1760
▁lim	-1761
ination	-1762
▁comes	-1763
aur	-1764
▁Em	-1765
▁pict	-1766
▁Inst	-1767
▁hope	-1768
▁discuss	-1769
▁Mr	-1770
resh	-1771
▁PM	-1772
▁later	-1773
wards	-1774
▁invol	-1775
▁often	-1776
▁21	-1777
sw	-1778
▁account	-1779
▁Sund	-1780
gest	-1781
ape	-1782
aps	-1783
come	-1784
▁features	-1785
atic	-1786
▁Bar	-1787
▁click	-1788
aken	-1789
▁mess	-1790
ources	-1791
ateg	-1792
▁Day	-1793
▁close	-1794
arter	-1795
▁fore	-1796
▁High	-1797
▁publ	-1798
▁log	-1799
▁third	-1800
▁hit	-1801
▁mean	-1802
icy	-1803
▁development	-1804
▁Dav	-1805
▁land	-1806
ians	-1807
▁link	-1808
ster	-1809
▁Stud	-1810
▁happen	-1811
ienc	-1812
▁Add	-1813
▁understand	-1814
▁Ge	-1815
.)	-1816
▁future	-1817
pro	-1818
▁mom	-1819
▁mor	-1820
▁key	-1821
▁March	-1822
atest	-1823
uesday	-1824
▁problem	-1825
▁Pre	-1826
▁Pe	-1827
ison	-1828
go	-1829
▁miss	-1830
ai	-1831
aren	-1832
ursday	-1833
▁price	-1834
▁web	-1835
gle	-1836
urity	-1837
▁tot	-1838
▁break	-1839
▁Gl	-1840
▁priv	-1841
▁individ	-1842
▁begin	-1843
utions	-1844
▁cook	-1845
▁ey	-1846
time	-1847
▁benef	-1848
▁questions	-1849
▁charac	-1850
▁strong	-1851
▁watch	-1852
-0	-1853
▁foot	-1854
ilities	-1855
umb	-1856
▁Go	-1857
ators	-1858
inc	-1859
▁Tuesday	-1860
▁sound	-1861
▁film	-1862
ring	-1863
ned	-1864
inks	-1865
▁Aug	-1866
▁staff	-1867
ument	-1868
▁stay	-1869
St	-1870
cle	-1871
▁content	-1872
▁member	-1873
irt	-1874
lebr	-1875
▁actually	-1876
▁cred	-1877
▁Thursday	-1878
crib	-1879
▁cop	-1880
▁press	-1881
▁Mark	-1882
▁walk	-1883
ES	-1884
▁April	-1885
▁pret	-1886
▁prob	-1887
AS	-1888
ests	-1889
▁comput	-1890
▁question	-1891
ided	-1892
▁body	-1893
▁install	-1894
ague	-1895
upp	-1896
▁mag	-1897
▁West	-1898
▁study	-1899
EN	-1900
resent	-1901
iful	-1902
roll	-1903
▁Don	-1904
▁wond	-1905
▁Reg	-1906
not	-1907
▁Sunday	-1908
▁social	-1909
unic	-1910
▁track	-1911
▁z	-1912
sel	-1913
itted	-1914
ued	-1915
▁From	-1916
▁known	-1917
ilt	-1918
▁seen	-1919
par	-1920
uary	-1921
▁2008	-1922
▁Ob	-1923
▁tem	-1924
▁tool	-1925
isk	-1926
▁travel	-1927
▁office	-1928
▁Mich	-1929
▁hig	-1930
de	-1931
AL	-1932
▁Sept	-1933
▁industry	-1934
:00	-1935
urch	-1936
▁Inc	-1937
▁sent	-1938
▁front	-1939
fact	-1940
-3	-1941
▁pri	-1942
▁wind	-1943
nesday	-1944
▁Cor	-1945
▁girl	-1946
▁means	-1947
▁specific	-1948
▁anything	-1949
▁El	-1950
▁ste	-1951
▁deb	-1952
▁select	-1953
▁sit	-1954
ask	-1955
▁single	-1956
▁June	-1957
▁enc	-1958
▁http	-1959
▁pretty	-1960
▁according	-1961
earch	-1962
▁events	-1963
▁sho	-1964
▁typ	-1965
▁taking	-1966
▁vol	-1967
▁Red	-1968
▁players	-1969
▁step	-1970
▁Some	-1971
▁history	-1972
▁hom	-1973
▁clear	-1974
▁Read	-1975
ural	-1976
▁Us	-1977
5.	-1978
▁Sec	-1979
▁Wednesday	-1980
▁results	-1981
▁everything	-1982
▁range	-1983
▁mind	-1984
▁star	-1985
▁issues	-1986
▁redu	-1987
off	-1988
irm	-1989
rain	-1990
oint	-1991
▁heart	-1992
▁particip	-1993
▁everyone	-1994
eng	-1995
▁held	-1996
▁iP	-1997
vert	-1998
▁final	-1999
▁someone	-2000
obile	-2001
anies	-2002
▁Euro	-2003
▁While	-2004
▁includes	-2005
▁continue	-2006
▁fire	-2007
▁weeks	-2008
wh	-2009
▁provides	-2010
lex	-2011
▁comment	-2012
▁House	-2013
itch	-2014
ek	-2015
▁result	-2016
▁Acc	-2017
▁certain	-2018
▁dou	-2019
▁face	-2020
▁technology	-2021
▁However	-2022
▁50	-2023
▁media	-2024
▁performance	-2025
▁author	-2026
▁port	-2027
▁latest	-2028
ops	-2029
▁Was	-2030
urther	-2031
▁Part	-2032
▁send	-2033
11	-2034
▁San	-2035
▁TV	-2036
▁believe	-2037
99	-2038
▁items	-2039
▁above	-2040
aid	-2041
▁President	-2042
IT	-2043
▁anal	-2044
▁color	-2045
▁respons	-2046
4.	-2047
fully	-2048
▁age	-2049
▁black	-2050
▁card	-2051
▁x	-2052
itter	-2053
ief	-2054
abor	-2055
▁whole	-2056
▁aud	-2057
▁sell	-2058
ands	-2059
ply	-2060
ole	-2061
▁ca	-2062
3.	-2063
▁Art	-2064
▁bad	-2065
▁box	-2066
amer	-2067
▁given	-2068
adu	-2069
▁spend	-2070
▁among	-2071
▁Department	-2072
iod	-2073
▁favorite	-2074
ancial	-2075
▁challen	-2076
▁reason	-2077
▁repl	-2078
unities	-2079
▁AM	-2080
▁Val	-2081
atural	-2082
ler	-2083
▁Har	-2084
▁trying	-2085
ables	-2086
▁ident	-2087
▁doc	-2088
▁tou	-2089
▁tit	-2090
ilar	-2091
2,	-2092
▁version	-2093
▁kids	-2094
▁TH	-2095
ox	-2096
▁either	-2097
▁America	-2098
▁coming	-2099
pecially	-2100
▁recomm	-2101
name	-2102
kend	-2103
▁bar	-2104
my	-2105
▁environment	-2106
lish	-2107
▁States	-2108
ED	-2109
aily	-2110
▁recommend	-2111
▁Up	-2112
ounc	-2113
__	-2114
▁fre	-2115
ili	-2116
▁space	-2117
▁building	-2118
cript	-2119
▁ball	-2120
▁3.	-2121
▁concer	-2122
▁rights	-2123
▁running	-2124
iff	-2125
imate	-2126
ung	-2127
erved	-2128
▁soon	-2129
▁cup	-2130
▁Char	-2131
▁ener	-2132
coming	-2133
ino	-2134
▁ant	-2135
ville	-2136
▁polit	-2137
▁Associ	-2138
bor	-2139
▁almost	-2140
itting	-2141
aul	-2142
▁fall	-2143
▁Aust	-2144
▁taken	-2145
▁Act	-2146
ibility	-2147
▁Health	-2148
elt	-2149
ival	-2150
60	-2151
▁mot	-2152
▁clean	-2153
▁January	-2154
▁probably	-2155
itten	-2156
▁Face	-2157
ained	-2158
err	-2159
▁sugg	-2160
▁former	-2161
aged	-2162
▁Get	-2163
▁size	-2164
▁hon	-2165
ester	-2166
▁brand	-2167
▁receive	-2168
▁require	-2169
▁programs	-2170
▁whether	-2171
▁currently	-2172
eth	-2173
▁assist	-2174
▁prop	-2175
idence	-2176
ams	-2177
▁Web	-2178
▁His	-2179
ogn	-2180
yright	-2181
▁wanted	-2182
▁et	-2183
▁celebr	-2184
▁asked	-2185
though	-2186
▁police	-2187
▁beautiful	-2188
▁cal	-2189
▁simple	-2190
▁party	-2191
IC	-2192
▁seem	-2193
▁companies	-2194
▁text	-2195
▁recently	-2196
▁behind	-2197
▁morning	-2198
rodu	-2199
▁issue	-2200
▁couple	-2201
che	-2202
icult	-2203
ese	-2204
▁popular	-2205
head	-2206
ried	-2207
▁Her	-2208
▁Tra	-2209
▁improve	-2210
▁cool	-2211
▁phone	-2212
▁super	-2213
amed	-2214
nder	-2215
used	-2216
▁Calif	-2217
eter	-2218
ederal	-2219
▁article	-2220
ze	-2221
▁song	-2222
AC	-2223
aby	-2224
ety	-2225
▁designed	-2226
▁customers	-2227
▁shows	-2228
▁wide	-2229
mit	-2230
▁Europe	-2231
▁God	-2232
asing	-2233
▁comments	-2234
aced	-2235
▁provided	-2236
▁idea	-2237
▁Ser	-2238
▁July	-2239
▁nice	-2240
▁entire	-2241
▁crit	-2242
▁Street	-2243
oved	-2244
obal	-2245
▁users	-2246
▁attend	-2247
6.	-2248
▁forward	-2249
▁else	-2250
▁road	-2251
▁training	-2252
▁Nove	-2253
▁Sen	-2254
▁oil	-2255
ruary	-2256
▁received	-2257
▁Pat	-2258
-4	-2259
▁College	-2260
▁original	-2261
oe	-2262
▁anyone	-2263
▁,	-2264
▁previous	-2265
▁details	-2266
ux	-2267
▁claim	-2268
ministr	-2269
ctor	-2270
▁board	-2271
ires	-2272
isc	-2273
▁phys	-2274
▁Ang	-2275
▁Int	-2276
▁answ	-2277
ulation	-2278
▁areas	-2279
icles	-2280
▁particular	-2281
▁meas	-2282
▁represent	-2283
▁cult	-2284
▁isn	-2285
▁style	-2286
25	-2287
▁president	-2288
1.	-2289
▁late	-2290
ees	-2291
▁goal	-2292
▁Direct	-2293
▁due	-2294
▁di	-2295
▁education	-2296
▁Par	-2297
▁Bu	-2298
▁town	-2299
IS	-2300
arents	-2301
▁vict	-2302
OT	-2303
ouncil	-2304
lev	-2305
3,	-2306
▁playing	-2307
ume	-2308
aching	-2309
itional	-2310
rug	-2311
▁Click	-2312
▁fresh	-2313
▁ens	-2314
▁dig	-2315
▁period	-2316
iol	-2317
▁energy	-2318
adem	-2319
eds	-2320
istrict	-2321
ishing	-2322
ruction	-2323
ada	-2324
▁Soc	-2325
aker	-2326
ana	-2327
gress	-2328
hib	-2329
▁sex	-2330
ef	-2331
▁career	-2332
▁Sw	-2333
▁Facebook	-2334
▁www	-2335
▁February	-2336
OU	-2337
▁human	-2338
80	-2339
ky	-2340
▁unique	-2341
▁hol	-2342
:30	-2343
▁Fin	-2344
▁cover	-2345
7.	-2346
reg	-2347
astic	-2348
cember	-2349
▁summer	-2350
arning	-2351
▁type	-2352
example	-2353
▁white	-2354
▁release	-2355
iber	-2356
▁problems	-2357
▁bott	-2358
▁download	-2359
icro	-2360
▁collect	-2361
ming	-2362
▁inj	-2363
▁especially	-2364
▁prep	-2365
hington	-2366
▁software	-2367
raft	-2368
▁needed	-2369
▁weekend	-2370
▁management	-2371
hern	-2372
irth	-2373
▁Aut	-2374
oogle	-2375
▁via	-2376
▁quite	-2377
▁November	-2378
ufact	-2379
oke	-2380
▁example	-2381
▁professional	-2382
wood	-2383
▁Black	-2384
▁looks	-2385
▁Af	-2386
na	-2387
▁action	-2388
▁student	-2389
▁anim	-2390
▁veh	-2391
▁further	-2392
▁(2	-2393
▁fit	-2394
▁October	-2395
▁likely	-2396
▁fig	-2397
▁reading	-2398
▁sales	-2399
▁paper	-2400
ny	-2401
▁swe	-2402
▁©	-2403
ham	-2404
▁September	-2405
iddle	-2406
oom	-2407
▁required	-2408
12	-2409
▁stri	-2410
▁stop	-2411
▁network	-2412
7,	-2413
ental	-2414
▁takes	-2415
idge	-2416
▁protect	-2417
ael	-2418
ibrary	-2419
clus	-2420
▁inn	-2421
6,	-2422
▁total	-2423
▁relations	-2424
▁vot	-2425
▁Wind	-2426
aign	-2427
▁David	-2428
▁Washington	-2429
▁date	-2430
▁ap	-2431
▁player	-2432
▁created	-2433
ipping	-2434
▁photos	-2435
▁meeting	-2436
▁40	-2437
▁pan	-2438
ribut	-2439
angu	-2440
aging	-2441
▁fail	-2442
▁December	-2443
www	-2444
▁national	-2445
▁seems	-2446
ises	-2447
pper	-2448
▁August	-2449
▁played	-2450
▁dog	-2451
overed	-2452
▁death	-2453
arent	-2454
▁Obama	-2455
▁collection	-2456
▁round	-2457
▁base	-2458
▁match	-2459
▁La	-2460
▁Also	-2461
▁stra	-2462
▁happy	-2463
ledge	-2464
▁Hot	-2465
ecut	-2466
▁+	-2467
ession	-2468
reme	-2469
▁ready	-2470
▁regular	-2471
▁Je	-2472
▁consum	-2473
▁wonder	-2474
▁squ	-2475
anced	-2476
▁position	-2477
▁po	-2478
ades	-2479
rote	-2480
▁court	-2481
▁Sal	-2482
▁ground	-2483
▁Cour	-2484
key	-2485
cast	-2486
▁init	-2487
▁extra	-2488
▁hear	-2489
▁Mus	-2490
ornia	-2491
▁table	-2492
▁War	-2493
▁value	-2494
▁included	-2495
:4	-2496
▁Ac	-2497
▁reported	-2498
▁attack	-2499
▁bud	-2500
▁loss	-2501
▁books	-2502
selves	-2503
ett	-2504
▁diff	-2505
▁outside	-2506
▁opportunity	-2507
9.	-2508
oph	-2509
attle	-2510
▁consider	-2511
▁simply	-2512
ules	-2513
▁Bus	-2514
▁Rec	-2515
▁leave	-2516
▁tal	-2517
oring	-2518
based	-2519
▁engine	-2520
▁cand	-2521
▁additional	-2522
bur	-2523
▁fast	-2524
mon	-2525
▁dam	-2526
▁Home	-2527
▁Last	-2528
▁released	-2529
olution	-2530
▁general	-2531
▁International	-2532
▁Net	-2533
▁Are	-2534
▁common	-2535
zz	-2536
▁Any	-2537
▁chance	-2538
▁rad	-2539
▁announced	-2540
▁suggest	-2541
▁subs	-2542
▁financial	-2543
aving	-2544
AM	-2545
▁leaders	-2546
▁Free	-2547
ournal	-2548
▁drive	-2549
▁credit	-2550
▁ways	-2551
▁deter	-2552
pm	-2553
ING	-2554
str	-2555
▁computer	-2556
ively	-2557
lier	-2558
▁tour	-2559
▁California	-2560
▁mix	-2561
▁comfort	-2562
aining	-2563
chie	-2564
▁lost	-2565
▁Hol	-2566
▁Sub	-2567
▁ple	-2568
▁sle	-2569
▁First	-2570
▁etc	-2571
▁screen	-2572
▁Sim	-2573
▁ord	-2574
▁Ag	-2575
ought	-2576
ding	-2577
medi	-2578
▁subject	-2579
▁Cop	-2580
ently	-2581
▁Jack	-2582
elcome	-2583
▁Well	-2584
▁coll	-2585
▁center	-2586
▁quarter	-2587
8.	-2588
▁op	-2589
ipe	-2590
▁Sch	-2591
▁recogn	-2592
▁Spr	-2593
▁nothing	-2594
istic	-2595
▁Tex	-2596
▁deg	-2597
▁increase	-2598
ford	-2599
▁file	-2600
sp	-2601
▁Of	-2602
▁tick	-2603
▁throughout	-2604
▁living	-2605
▁choose	-2606
▁security	-2607
▁flow	-2608
oud	-2609
▁Cr	-2610
hips	-2611
itte	-2612
▁potential	-2613
▁published	-2614
oid	-2615
▁Tod	-2616
▁Group	-2617
▁wrote	-2618
▁rather	-2619
▁Google	-2620
▁stat	-2621
▁Air	-2622
▁inside	-2623
▁role	-2624
▁risk	-2625
▁touch	-2626
ounts	-2627
▁Then	-2628
▁accept	-2629
▁fans	-2630
▁natural	-2631
1,	-2632
word	-2633
▁deep	-2634
uation	-2635
urance	-2636
▁private	-2637
hel	-2638
▁shoot	-2639
▁tast	-2640
▁Posted	-2641
▁park	-2642
▁movie	-2643
▁changes	-2644
▁matter	-2645
▁Every	-2646
gar	-2647
uge	-2648
face	-2649
▁mat	-2650
▁similar	-2651
▁options	-2652
-8	-2653
▁clos	-2654
▁however	-2655
ags	-2656
azing	-2657
▁official	-2658
TM	-2659
▁located	-2660
▁words	-2661
▁sus	-2662
▁expected	-2663
▁compl	-2664
▁Cons	-2665
▁sil	-2666
▁experienc	-2667
ached	-2668
▁Paul	-2669
▁feature	-2670
▁insp	-2671
▁enter	-2672
▁plans	-2673
band	-2674
▁shot	-2675
▁Service	-2676
▁bed	-2677
▁sat	-2678
▁true	-2679
▁display	-2680
▁longer	-2681
apt	-2682
▁boy	-2683
cy	-2684
ayer	-2685
ification	-2686
▁Out	-2687
arget	-2688
▁Manag	-2689
▁Kn	-2690
▁Dem	-2691
mission	-2692
▁parents	-2693
OM	-2694
▁amount	-2695
▁variety	-2696
ospital	-2697
▁property	-2698
rows	-2699
▁Office	-2700
▁application	-2701
▁Oh	-2702
▁aw	-2703
iter	-2704
itc	-2705
ID	-2706
▁cir	-2707
▁saw	-2708
▁code	-2709
▁lives	-2710
▁difficult	-2711
▁necess	-2712
leg	-2713
board	-2714
▁worth	-2715
▁purchase	-2716
▁character	-2717
ma	-2718
▁rate	-2719
▁led	-2720
▁worked	-2721
ocr	-2722
light	-2723
▁Check	-2724
▁campaign	-2725
ago	-2726
▁leading	-2727
izing	-2728
▁Phot	-2729
ray	-2730
▁4.	-2731
▁investig	-2732
LE	-2733
ida	-2734
▁sen	-2735
▁user	-2736
▁draw	-2737
▁Thanks	-2738
mail	-2739
hood	-2740
ffic	-2741
aches	-2742
5,	-2743
▁meth	-2744
▁photo	-2745
▁director	-2746
▁decided	-2747
▁defin	-2748
▁various	-2749
▁decision	-2750
40	-2751
duc	-2752
▁stuff	-2753
uel	-2754
▁serious	-2755
In	-2756
lin	-2757
▁Mem	-2758
▁image	-2759
▁request	-2760
▁signific	-2761
▁model	-2762
mas	-2763
rect	-2764
▁Most	-2765
▁activities	-2766
like	-2767
▁abs	-2768
▁Republic	-2769
▁Internet	-2770
▁manufact	-2771
▁28	-2772
▁club	-2773
▁Other	-2774
▁respect	-2775
ondon	-2776
▁exist	-2777
▁Law	-2778
▁associ	-2779
▁score	-2780
:1	-2781
bum	-2782
▁Mag	-2783
▁skin	-2784
rown	-2785
▁nation	-2786
▁saf	-2787
▁East	-2788
ey	-2789
▁systems	-2790
▁achie	-2791
ara	-2792
▁medical	-2793
bl	-2794
ude	-2795
▁cannot	-2796
▁surpr	-2797
▁dom	-2798
▁agre	-2799
▁posted	-2800
▁View	-2801
▁projects	-2802
▁Brit	-2803
▁broad	-2804
▁Great	-2805
▁fight	-2806
empt	-2807
▁restaur	-2808
▁involved	-2809
70	-2810
▁material	-2811
▁22	-2812
▁1,	-2813
▁dress	-2814
▁Hall	-2815
▁yourself	-2816
▁viol	-2817
▁lab	-2818
▁autom	-2819
▁mother	-2820
▁safe	-2821
▁note	-2822
▁Texas	-2823
▁sold	-2824
▁Prof	-2825
▁Green	-2826
idents	-2827
▁Michael	-2828
▁gets	-2829
▁writing	-2830
itute	-2831
▁William	-2832
▁international	-2833
▁Book	-2834
▁Public	-2835
orge	-2836
▁pull	-2837
▁award	-2838
▁Over	-2839
▁encour	-2840
BC	-2841
urt	-2842
cing	-2843
wide	-2844
illing	-2845
▁teams	-2846
rec	-2847
▁White	-2848
ground	-2849
val	-2850
▁goes	-2851
▁Program	-2852
▁hy	-2853
ounds	-2854
avy	-2855
iple	-2856
rab	-2857
akers	-2858
▁function	-2859
▁See	-2860
▁ill	-2861
▁appe	-2862
▁starting	-2863
▁self	-2864
9,	-2865
▁source	-2866
erry	-2867
ellow	-2868
ET	-2869
▁seven	-2870
▁interview	-2871
AP	-2872
▁coach	-2873
▁Flor	-2874
▁@	-2875
▁Apple	-2876
▁college	-2877
▁cell	-2878
where	-2879
▁band	-2880
▁Gener	-2881
▁message	-2882
".	-2883
▁London	-2884
▁gradu	-2885
▁mid	-2886
▁save	-2887
▁Twitter	-2888
▁fine	-2889
▁sun	-2890
▁began	-2891
▁related	-2892
ilies	-2893
▁Business	-2894
owl	-2895
▁wasn	-2896
▁growth	-2897
ashion	-2898
▁hair	-2899
olf	-2900
▁higher	-2901
▁Spe	-2902
▁choice	-2903
ening	-2904
▁exam	-2905
cription	-2906
▁gen	-2907
▁dest	-2908
▁gave	-2909
▁Sun	-2910
imum	-2911
▁reports	-2912
▁Del	-2913
▁describ	-2914
ament	-2915
▁norm	-2916
▁prin	-2917
mercial	-2918
rought	-2919
▁Austral	-2920
▁Loc	-2921
▁individual	-2922
asons	-2923
▁prior	-2924
▁woman	-2925
atives	-2926
▁cat	-2927
▁usually	-2928
▁saying	-2929
-5	-2930
aves	-2931
▁arch	-2932
▁exact	-2933
▁hands	-2934
alt	-2935
▁Angel	-2936
▁affect	-2937
▁average	-2938
▁significant	-2939
▁drug	-2940
▁moment	-2941
▁section	-2942
▁estab	-2943
▁policy	-2944
ault	-2945
▁Good	-2946
▁Review	-2947
:3	-2948
field	-2949
▁ideas	-2950
▁Mac	-2951
▁hop	-2952
▁Super	-2953
▁built	-2954
▁Techn	-2955
▁production	-2956
▁budget	-2957
den	-2958
▁cause	-2959
▁practice	-2960
▁slow	-2961
▁billion	-2962
▁roll	-2963
▁interested	-2964
▁son	-2965
▁Cong	-2966
airs	-2967
▁eight	-2968
▁Why	-2969
ampions	-2970
▁knowledge	-2971
▁method	-2972
▁Let	-2973
venue	-2974
▁stock	-2975
ittee	-2976
▁instead	-2977
▁safety	-2978
▁23	-2979
▁remember	-2980
unt	-2981
▁Mor	-2982
▁Found	-2983
▁quickly	-2984
▁sche	-2985
iction	-2986
▁piece	-2987
▁infl	-2988
▁Services	-2989
▁defe	-2990
down	-2991
▁baby	-2992
acing	-2993
▁birth	-2994
anch	-2995
▁wall	-2996
▁immedi	-2997
▁prevent	-2998
▁Win	-2999
erc	-3000
▁Top	-3001
▁jud	-3002
▁regard	-3003
▁198	-3004
▁contract	-3005
:5	-3006
▁ep	-3007
unk	-3008
▁About	-3009
▁camer	-3010
▁location	-3011
▁King	-3012
▁langu	-3013
▁Ger	-3014
▁ful	-3015
ipment	-3016
▁rent	-3017
▁treatment	-3018
▁allows	-3019
▁standard	-3020
▁parts	-3021
erve	-3022
bit	-3023
▁Design	-3024
icated	-3025
▁mobile	-3026
4,	-3027
rel	-3028
riving	-3029
ocol	-3030
▁Ear	-3031
EL	-3032
uk	-3033
▁bal	-3034
▁lo	-3035
▁green	-3036
▁teac	-3037
▁dro	-3038
bed	-3039
▁trip	-3040
▁James	-3041
▁apply	-3042
ato	-3043
▁Vis	-3044
▁inde	-3045
▁Educ	-3046
atory	-3047
▁daily	-3048
▁excell	-3049
▁skills	-3050
▁title	-3051
▁bur	-3052
▁written	-3053
▁emer	-3054
itary	-3055
▁prices	-3056
▁Rich	-3057
▁sett	-3058
▁Today	-3059
▁sites	-3060
This	-3061
put	-3062
▁introdu	-3063
▁feed	-3064
▁Association	-3065
omen	-3066
ica	-3067
▁hotel	-3068
▁div	-3069
▁Road	-3070
▁gift	-3071
▁spot	-3072
▁Club	-3073
▁easily	-3074
▁II	-3075
▁Inter	-3076
▁dead	-3077
▁Best	-3078
vey	-3079
▁Mod	-3080
▁purp	-3081
aughter	-3082
▁Mary	-3083
▁Afric	-3084
▁Find	-3085
▁interesting	-3086
▁prim	-3087
▁communic	-3088
iding	-3089
▁images	-3090
▁except	-3091
▁stories	-3092
mitted	-3093
▁giving	-3094
▁learning	-3095
▁warm	-3096
just	-3097
▁mass	-3098
▁Cle	-3099
▁wrong	-3100
▁sense	-3101
▁myself	-3102
▁Council	-3103
▁race	-3104
▁dise	-3105
▁amazing	-3106
ha	-3107
▁ensure	-3108
▁UK	-3109
▁hour	-3110
▁lower	-3111
▁groups	-3112
▁depend	-3113
▁nearly	-3114
▁customer	-3115
▁tried	-3116
▁express	-3117
raz	-3118
▁integr	-3119
▁guys	-3120
▁Trans	-3121
▁gun	-3122
ecutive	-3123
▁Port	-3124
▁annual	-3125
▁global	-3126
▁According	-3127
EC	-3128
EO	-3129
▁organization	-3130
vin	-3131
▁upon	-3132
▁grand	-3133
ule	-3134
▁heat	-3135
▁ability	-3136
▁impact	-3137
▁Dan	-3138
▁neigh	-3139
ography	-3140
▁60	-3141
useum	-3142
▁album	-3143
▁war	-3144
▁object	-3145
▁picture	-3146
▁schools	-3147
▁Big	-3148
▁gives	-3149
▁resources	-3150
ension	-3151
oul	-3152
▁reb	-3153
▁Class	-3154
▁federal	-3155
azine	-3156
ado	-3157
▁Chic	-3158
▁Dec	-3159
▁document	-3160
▁rev	-3161
▁mach	-3162
▁Ann	-3163
▁hor	-3164
/1	-3165
▁Rem	-3166
▁Sk	-3167
▁Windows	-3168
:2	-3169
▁lic	-3170
▁Since	-3171
▁levels	-3172
urer	-3173
▁blood	-3174
▁$2	-3175
▁ones	-3176
▁Copyright	-3177
OS	-3178
aries	-3179
▁answer	-3180
▁weight	-3181
▁huge	-3182
▁stru	-3183
arden	-3184
▁China	-3185
ancy	-3186
▁neg	-3187
▁item	-3188
▁pers	-3189
AD	-3190
▁Rober	-3191
▁providing	-3192
▁administr	-3193
IL	-3194
▁block	-3195
▁bank	-3196
▁feet	-3197
▁heard	-3198
inary	-3199
▁Christmas	-3200
enty	-3201
uments	-3202
▁Rom	-3203
iring	-3204
▁write	-3205
▁target	-3206
izes	-3207
▁ded	-3208
▁themselves	-3209
apan	-3210
▁sens	-3211
▁wife	-3212
▁directly	-3213
▁vac	-3214
▁costs	-3215
▁straight	-3216
▁officials	-3217
ald	-3218
▁sym	-3219
▁wait	-3220
▁Information	-3221
iles	-3222
king	-3223
▁System	-3224
▁Av	-3225
▁Bre	-3226
▁Phil	-3227
▁serve	-3228
▁Court	-3229
▁THE	-3230
▁Down	-3231
▁English	-3232
ns	-3233
▁AN	-3234
▁Police	-3235
▁separ	-3236
▁political	-3237
▁became	-3238
▁sports	-3239
ples	-3240
rive	-3241
▁Mart	-3242
▁Gold	-3243
▁countries	-3244
:||	-3245
▁ess	-3246
sy	-3247
ares	-3248
ivity	-3249
▁Year	-3250
▁families	-3251
iant	-3252
▁itself	-3253
▁rout	-3254
OL	-3255
▁promot	-3256
ipped	-3257
ston	-3258
▁partners	-3259
net	-3260
▁attention	-3261
pite	-3262
▁sale	-3263
▁statement	-3264
inner	-3265
▁turned	-3266
mark	-3267
▁conference	-3268
onse	-3269
add	-3270
▁maintain	-3271
US	-3272
▁ut	-3273
▁Hel	-3274
0.	-3275
▁lif	-3276
▁Ev	-3277
▁ur	-3278
reng	-3279
▁legal	-3280
▁Florida	-3281
▁Open	-3282
▁fair	-3283
▁Miss	-3284
arant	-3285
▁Even	-3286
icks	-3287
▁Tom	-3288
▁Brown	-3289
▁rock	-3290
▁wish	-3291
▁prem	-3292
sec	-3293
▁bill	-3294
iced	-3295
▁Bel	-3296
ength	-3297
▁cross	-3298
▁conditions	-3299
▁applications	-3300
▁doll	-3301
▁tools	-3302
▁Pal	-3303
▁effort	-3304
▁eye	-3305
▁served	-3306
▁finished	-3307
▁runs	-3308
estern	-3309
PS	-3310
uals	-3311
anger	-3312
▁files	-3313
▁speed	-3314
-6	-3315
:0	-3316
75	-3317
▁dark	-3318
▁limited	-3319
anta	-3320
ims	-3321
▁Research	-3322
AA	-3323
wor	-3324
▁2007	-3325
haps	-3326
▁fab	-3327
▁guy	-3328
▁maybe	-3329
▁Each	-3330
▁Rock	-3331
yond	-3332
atform	-3333
▁dry	-3334
ocks	-3335
▁fix	-3336
rench	-3337
▁modern	-3338
▁spent	-3339
ructure	-3340
▁brought	-3341
▁obs	-3342
imately	-3343
▁Lou	-3344
▁Whe	-3345
▁sem	-3346
▁Use	-3347
aught	-3348
action	-3349
amb	-3350
ivery	-3351
isl	-3352
ysis	-3353
▁Indian	-3354
▁Chicago	-3355
hone	-3356
▁organiz	-3357
▁Board	-3358
▁cases	-3359
▁Sign	-3360
▁wood	-3361
▁mail	-3362
▁Play	-3363
▁Thom	-3364
▁Press	-3365
▁pictures	-3366
▁lik	-3367
▁named	-3368
▁Two	-3369
▁respond	-3370
-201	-3371
▁Japan	-3372
▁tom	-3373
▁floor	-3374
▁cancer	-3375
▁hus	-3376
▁Many	-3377
▁Star	-3378
▁River	-3379
ycl	-3380
▁Sur	-3381
ror	-3382
▁Fam	-3383
▁terms	-3384
▁Canada	-3385
▁states	-3386
▁largest	-3387
▁double	-3388
▁finally	-3389
acts	-3390
▁Director	-3391
Wh	-3392
▁Camp	-3393
▁fan	-3394
▁qual	-3395
hest	-3396
wise	-3397
▁door	-3398
▁economic	-3399
▁thinking	-3400
▁Look	-3401
estival	-3402
rian	-3403
▁Ant	-3404
▁gas	-3405
▁Time	-3406
ctions	-3407
ady	-3408
itely	-3409
▁pow	-3410
▁gar	-3411
▁5.	-3412
itation	-3413
▁Develop	-3414
▁marketing	-3415
▁Bay	-3416
▁helps	-3417
▁opportunities	-3418
▁forum	-3419
uit	-3420
▁wants	-3421
▁growing	-3422
▁completely	-3423
▁benefits	-3424
▁coun	-3425
unte	-3426
▁Supp	-3427
/201	-3428
ened	-3429
▁earlier	-3430
▁firm	-3431
▁impress	-3432
▁hous	-3433
▁ren	-3434
▁arg	-3435
sem	-3436
ube	-3437
▁mount	-3438
ona	-3439
arc	-3440
▁gold	-3441
▁sometimes	-3442
▁bi	-3443
▁»	-3444
▁pages	-3445
▁reach	-3446
ration	-3447
▁charge	-3448
bon	-3449
house	-3450
itchen	-3451
▁vehicle	-3452
uses	-3453
▁Nov	-3454
▁Ital	-3455
▁Enter	-3456
aint	-3457
▁trail	-3458
▁mention	-3459
iller	-3460
▁Show	-3461
mm	-3462
body	-3463
▁eat	-3464
▁owners	-3465
▁digital	-3466
▁Ir	-3467
▁Smith	-3468
▁planning	-3469
He	-3470
▁IN	-3471
vest	-3472
nds	-3473
uth	-3474
▁Community	-3475
li	-3476
▁reve	-3477
ota	-3478
▁carry	-3479
▁wed	-3480
last	-3481
▁lay	-3482
umn	-3483
▁conduct	-3484
▁26	-3485
▁Micro	-3486
DA	-3487
reci	-3488
▁categ	-3489
▁option	-3490
▁dream	-3491
▁Cur	-3492
▁Los	-3493
▁imm	-3494
▁selection	-3495
inger	-3496
rip	-3497
▁entertain	-3498
▁print	-3499
uled	-3500
▁decl	-3501
▁Education	-3502
▁commercial	-3503
▁miles	-3504
▁attract	-3505
▁PC	-3506
▁Church	-3507
▁Rel	-3508
▁extend	-3509
▁links	-3510
▁offered	-3511
more	-3512
▁General	-3513
▁Sol	-3514
▁pet	-3515
▁homes	-3516
▁ult	-3517
▁Child	-3518
▁materials	-3519
▁Bill	-3520
▁candid	-3521
izz	-3522
▁ble	-3523
▁Call	-3524
▁circ	-3525
▁employees	-3526
▁ton	-3527
▁spring	-3528
▁Care	-3529
▁capt	-3530
▁League	-3531
▁husband	-3532
ico	-3533
▁advert	-3534
▁extreme	-3535
▁overall	-3536
▁Sl	-3537
roud	-3538
▁multiple	-3539
▁necessary	-3540
▁streng	-3541
-7	-3542
orrow	-3543
▁effic	-3544
▁nut	-3545
▁plant	-3546
▁contrib	-3547
▁Once	-3548
▁father	-3549
▁football	-3550
▁successful	-3551
▁Like	-3552
▁shop	-3553
▁exhib	-3554
▁businesses	-3555
▁Rob	-3556
change	-3557
▁Pet	-3558
▁himself	-3559
▁wine	-3560
soft	-3561
▁Cap	-3562
▁cert	-3563
▁ten	-3564
▁opin	-3565
▁jobs	-3566
▁tur	-3567
ibly	-3568
▁Who	-3569
▁sweet	-3570
▁ST	-3571
▁glass	-3572
▁correct	-3573
rup	-3574
asc	-3575
▁histor	-3576
▁wonderful	-3577
hold	-3578
▁Lear	-3579
▁bottom	-3580
▁healthy	-3581
idered	-3582
▁numbers	-3583
isions	-3584
istered	-3585
▁£	-3586
▁threat	-3587
▁Lake	-3588
ipp	-3589
atab	-3590
▁wear	-3591
elling	-3592
▁thous	-3593
▁Media	-3594
▁goals	-3595
▁Russ	-3596
rey	-3597
▁Life	-3598
▁approach	-3599
▁Adv	-3600
▁weather	-3601
▁imag	-3602
▁moving	-3603
rem	-3604
▁Market	-3605
▁equipment	-3606
esterday	-3607
▁types	-3608
▁whose	-3609
▁senior	-3610
▁Have	-3611
ological	-3612
▁innov	-3613
porate	-3614
▁middle	-3615
▁reserved	-3616
▁USA	-3617
▁allowed	-3618
▁felt	-3619
▁Fire	-3620
▁German	-3621
▁opening	-3622
▁Commission	-3623
SS	-3624
▁beginning	-3625
▁sleep	-3626
ivil	-3627
roid	-3628
▁moved	-3629
oses	-3630
▁excellent	-3631
ffee	-3632
ooth	-3633
▁arrest	-3634
▁condition	-3635
▁eyes	-3636
▁Govern	-3637
▁stage	-3638
▁traditional	-3639
▁Island	-3640
▁highly	-3641
raw	-3642
▁err	-3643
▁Det	-3644
iment	-3645
ruit	-3646
cause	-3647
▁positive	-3648
▁offering	-3649
▁Times	-3650
▁Central	-3651
oma	-3652
▁arriv	-3653
▁looked	-3654
box	-3655
irit	-3656
▁Work	-3657
▁farm	-3658
▁snow	-3659
▁patients	-3660
▁Bur	-3661
▁beat	-3662
▁attempt	-3663
▁knew	-3664
▁holiday	-3665
▁accom	-3666
que	-3667
▁suff	-3668
▁fashion	-3669
▁creating	-3670
▁=	-3671
▁Contact	-3672
▁progress	-3673
▁efforts	-3674
▁response	-3675
▁advice	-3676
▁region	-3677
▁Special	-3678
Ch	-3679
ban	-3680
▁died	-3681
▁Congress	-3682
irgin	-3683
▁term	-3684
▁disease	-3685
▁pattern	-3686
▁paid	-3687
▁finish	-3688
uing	-3689
▁Back	-3690
▁Matt	-3691
▁Carol	-3692
gers	-3693
▁Hist	-3694
undred	-3695
inn	-3696
▁1/2	-3697
▁Food	-3698
ceed	-3699
▁language	-3700
▁Sum	-3701
500	-3702
asts	-3703
▁Met	-3704
▁Alex	-3705
now	-3706
▁Democr	-3707
osing	-3708
▁vote	-3709
▁copy	-3710
▁indic	-3711
▁District	-3712
▁convers	-3713
▁implement	-3714
atever	-3715
▁drink	-3716
▁medic	-3717
▁clients	-3718
opped	-3719
▁uses	-3720
▁places	-3721
▁sched	-3722
see	-3723
▁Ret	-3724
phone	-3725
▁DV	-3726
▁appreci	-3727
▁Wal	-3728
▁surv	-3729
▁insurance	-3730
fl	-3731
▁shopping	-3732
BS	-3733
yan	-3734
▁solution	-3735
IV	-3736
▁ahead	-3737
imin	-3738
oly	-3739
mp	-3740
iable	-3741
▁cold	-3742
▁conc	-3743
▁developed	-3744
??	-3745
ancing	-3746
ION	-3747
▁haven	-3748
▁Form	-3749
dule	-3750
▁fully	-3751
▁aware	-3752
▁owner	-3753
▁wild	-3754
order	-3755
ocolate	-3756
▁Mike	-3757
▁platform	-3758
dd	-3759
ette	-3760
rences	-3761
▁manager	-3762
PA	-3763
antage	-3764
▁couldn	-3765
▁Ben	-3766
outhern	-3767
osh	-3768
▁Ok	-3769
▁Franc	-3770
▁IT	-3771
okes	-3772
friend	-3773
▁Thank	-3774
▁complex	-3775
▁pred	-3776
▁talking	-3777
tr	-3778
▁smart	-3779
▁iPhone	-3780
▁Arch	-3781
▁temper	-3782
▁achieve	-3783
▁Institute	-3784
▁27	-3785
aled	-3786
▁Exp	-3787
▁Su	-3788
▁clot	-3789
▁videos	-3790
▁military	-3791
▁Color	-3792
▁fourth	-3793
▁effective	-3794
▁blue	-3795
icken	-3796
▁rates	-3797
▁Product	-3798
omb	-3799
▁cards	-3800
▁Sam	-3801
itiz	-3802
▁load	-3803
▁Follow	-3804
▁doub	-3805
▁deliver	-3806
▁economy	-3807
▁Plan	-3808
▁avoid	-3809
▁altern	-3810
▁Company	-3811
▁pieces	-3812
▁exactly	-3813
▁Wood	-3814
asy	-3815
onstr	-3816
▁letter	-3817
▁winning	-3818
▁Div	-3819
▁McC	-3820
▁Make	-3821
▁Music	-3822
set	-3823
▁<	-3824
▁Chris	-3825
▁Bank	-3826
▁loved	-3827
▁Team	-3828
▁activity	-3829
▁Sand	-3830
▁trade	-3831
▁easier	-3832
▁Custom	-3833
▁helped	-3834
▁retail	-3835
▁Sy	-3836
▁Ve	-3837
▁Game	-3838
▁camera	-3839
▁listed	-3840
▁Ter	-3841
force	-3842
▁Scott	-3843
▁expand	-3844
iling	-3845
rial	-3846
▁device	-3847
ses	-3848
▁fat	-3849
iance	-3850
▁French	-3851
▁Love	-3852
ributed	-3853
▁expert	-3854
▁PR	-3855
▁influ	-3856
▁biggest	-3857
comes	-3858
▁shipping	-3859
ucky	-3860
8,	-3861
arily	-3862
istry	-3863
lying	-3864
apter	-3865
▁lines	-3866
▁daughter	-3867
lor	-3868
▁batter	-3869
▁brother	-3870
▁ri	-3871
",	-3872
90	-3873
▁Mex	-3874
▁European	-3875
▁trust	-3876
▁bag	-3877
▁plus	-3878
▁responsible	-3879
orial	-3880
▁Vide	-3881
▁proud	-3882
OW	-3883
▁Angeles	-3884
▁brows	-3885
▁active	-3886
▁beyond	-3887
▁consist	-3888
itz	-3889
orage	-3890
▁competition	-3891
▁wat	-3892
▁pair	-3893
▁scient	-3894
▁aren	-3895
▁sort	-3896
▁considered	-3897
/4	-3898
▁NY	-3899
▁ver	-3900
▁bask	-3901
▁Mil	-3902
▁Blue	-3903
pri	-3904
▁situation	-3905
rig	-3906
▁sugar	-3907
▁lack	-3908
IM	-3909
▁Sil	-3910
▁laws	-3911
▁department	-3912
noon	-3913
hens	-3914
▁pressure	-3915
▁definitely	-3916
asp	-3917
▁Vol	-3918
▁reflect	-3919
▁physical	-3920
ads	-3921
oves	-3922
▁Week	-3923
▁changed	-3924
amm	-3925
▁gone	-3926
▁solutions	-3927
▁Mount	-3928
pendent	-3929
ervation	-3930
▁England	-3931
▁immediately	-3932
CC	-3933
tion	-3934
▁degree	-3935
▁setting	-3936
ander	-3937
esome	-3938
sych	-3939
▁ing	-3940
met	-3941
▁driving	-3942
▁thanks	-3943
fit	-3944
▁button	-3945
▁happened	-3946
▁residents	-3947
allery	-3948
▁guess	-3949
▁subst	-3950
▁er	-3951
olute	-3952
▁girls	-3953
▁Date	-3954
▁Offic	-3955
anging	-3956
▁construction	-3957
▁Under	-3958
▁larger	-3959
aling	-3960
▁born	-3961
▁reviews	-3962
ari	-3963
▁pm	-3964
▁consult	-3965
▁197	-3966
▁speak	-3967
▁exclus	-3968
▁evening	-3969
icious	-3970
gl	-3971
arks	-3972
▁contain	-3973
omin	-3974
rief	-3975
▁acqu	-3976
▁stick	-3977
▁People	-3978
▁disapp	-3979
▁Project	-3980
▁instruct	-3981
ears	-3982
▁Jim	-3983
▁pen	-3984
▁benefit	-3985
▁relationship	-3986
▁Network	-3987
ying	-3988
▁enh	-3989
▁followed	-3990
gn	-3991
uce	-3992
▁Wil	-3993
▁mer	-3994
▁scored	-3995
95	-3996
ki	-3997
▁Louis	-3998
IG	-3999
▁names	-4000
▁cash	-4001
▁lots	-4002
lies	-4003
▁slight	-4004
▁path	-4005
▁adding	-4006
levision	-4007
▁Fil	-4008
▁trou	-4009
▁science	-4010
ption	-4011
▁occur	-4012
▁update	-4013
▁Join	-4014
▁80	-4015
▁shown	-4016
ores	-4017
▁passed	-4018
rast	-4019
nded	-4020
▁bul	-4021
ech	-4022
▁prot	-4023
lements	-4024
▁nature	-4025
IP	-4026
▁helping	-4027
well	-4028
ously	-4029
▁Online	-4030
▁reduce	-4031
▁Rad	-4032
▁accur	-4033
▁regul	-4034
▁hundred	-4035
het	-4036
oms	-4037
▁Although	-4038
▁spending	-4039
____	-4040
▁thank	-4041
▁Robert	-4042
▁normal	-4043
▁2,	-4044
▁Main	-4045
itect	-4046
▁calls	-4047
▁Family	-4048
agn	-4049
iny	-4050
▁Mad	-4051
▁devices	-4052
▁feeling	-4053
▁announce	-4054
gency	-4055
▁demand	-4056
▁2006	-4057
▁scene	-4058
▁taste	-4059
inally	-4060
OP	-4061
▁Ber	-4062
15	-4063
illa	-4064
▁entry	-4065
▁Foundation	-4066
▁beg	-4067
▁Virgin	-4068
▁commit	-4069
apers	-4070
▁occas	-4071
ga	-4072
▁Atl	-4073
▁Ver	-4074
▁culture	-4075
▁delivery	-4076
▁29	-4077
lastname	-4078
▁difference	-4079
▁0.	-4080
▁Hotel	-4081
▁Profess	-4082
▁max	-4083
▁90	-4084
▁Take	-4085
▁recipe	-4086
▁remain	-4087
▁demonstr	-4088
▁rules	-4089
amic	-4090
rael	-4091
ronic	-4092
RA	-4093
▁Water	-4094
▁profession	-4095
▁posts	-4096
▁Valley	-4097
▁winter	-4098
▁Because	-4099
▁Step	-4100
▁CD	-4101
ails	-4102
▁den	-4103
▁academ	-4104
▁length	-4105
▁views	-4106
▁volunte	-4107
▁UN	-4108
▁guarant	-4109
edy	-4110
▁drop	-4111
▁completed	-4112
):	-4113
FL	-4114
▁poll	-4115
▁partner	-4116
annel	-4117
▁leader	-4118
ken	-4119
▁Cup	-4120
vention	-4121
▁Hum	-4122
▁Power	-4123
oston	-4124
▁onto	-4125
▁Medic	-4126
▁Report	-4127
!!!	-4128
▁Jeff	-4129
▁measure	-4130
▁Management	-4131
▁Search	-4132
▁Ty	-4133
▁afternoon	-4134
aith	-4135
▁Tim	-4136
berg	-4137
olic	-4138
▁bought	-4139
igan	-4140
▁nine	-4141
▁egg	-4142
▁cart	-4143
ustain	-4144
▁neighbor	-4145
isco	-4146
▁Spring	-4147
▁launch	-4148
▁talent	-4149
ss	-4150
▁Conference	-4151
▁George	-4152
▁signed	-4153
▁restaurant	-4154
▁>>	-4155
▁Card	-4156
▁seeing	-4157
▁closed	-4158
▁Sports	-4159
▁instit	-4160
▁certainly	-4161
▁appropri	-4162
aming	-4163
You	-4164
▁tips	-4165
▁wouldn	-4166
▁highest	-4167
▁analysis	-4168
▁individuals	-4169
men	-4170
itors	-4171
▁spons	-4172
SP	-4173
▁colors	-4174
▁classic	-4175
▁defense	-4176
▁Bet	-4177
▁spread	-4178
▁hospital	-4179
▁challenge	-4180
▁alone	-4181
▁exerc	-4182
▁voice	-4183
▁legisl	-4184
▁kick	-4185
▁Science	-4186
ij	-4187
▁minute	-4188
BA	-4189
▁cast	-4190
▁prec	-4191
atabase	-4192
▁excited	-4193
▁inform	-4194
▁$3	-4195
▁Att	-4196
ordin	-4197
▁fant	-4198
▁characters	-4199
ences	-4200
▁Fore	-4201
▁continues	-4202
ifts	-4203
▁pool	-4204
▁Mot	-4205
▁ice	-4206
antly	-4207
win	-4208
▁kept	-4209
▁Ill	-4210
▁During	-4211
ils	-4212
▁frequ	-4213
▁British	-4214
▁surround	-4215
▁jump	-4216
▁classes	-4217
▁updated	-4218
▁doctor	-4219
▁strugg	-4220
IA	-4221
▁Joe	-4222
▁train	-4223
▁Library	-4224
cher	-4225
▁Tor	-4226
▁fem	-4227
▁Next	-4228
▁kitchen	-4229
▁although	-4230
aven	-4231
▁throw	-4232
osition	-4233
▁increasing	-4234
▁mis	-4235
▁mission	-4236
▁package	-4237
▁tickets	-4238
▁Mont	-4239
▁recip	-4240
▁figure	-4241
▁Yes	-4242
▁Christian	-4243
▁cream	-4244
omew	-4245
▁knows	-4246
▁damage	-4247
uty	-4248
▁liter	-4249
rees	-4250
▁initial	-4251
▁organizations	-4252
13	-4253
▁graph	-4254
▁Microsoft	-4255
▁yesterday	-4256
lim	-4257
▁salt	-4258
▁effects	-4259
orry	-4260
▁ath	-4261
▁Wall	-4262
▁List	-4263
istics	-4264
▁force	-4265
▁welcome	-4266
▁selected	-4267
▁truly	-4268
▁Johnson	-4269
▁artists	-4270
▁watching	-4271
▁adjust	-4272
ini	-4273
▁suit	-4274
▁standards	-4275
Re	-4276
▁vs	-4277
▁strateg	-4278
▁traffic	-4279
▁solid	-4280
▁Mass	-4281
▁paint	-4282
▁Mal	-4283
▁heavy	-4284
▁rank	-4285
iation	-4286
▁Publ	-4287
▁models	-4288
▁comfortable	-4289
incip	-4290
▁Grand	-4291
▁older	-4292
▁Israel	-4293
▁articles	-4294
▁powerful	-4295
orter	-4296
▁driver	-4297
▁guests	-4298
outs	-4299
▁butter	-4300
▁prefer	-4301
▁Ari	-4302
▁DVD	-4303
▁map	-4304
▁basis	-4305
▁session	-4306
ios	-4307
atically	-4308
▁internet	-4309
antic	-4310
▁Note	-4311
▁Australia	-4312
▁NE	-4313
▁clin	-4314
▁Development	-4315
▁(3	-4316
▁Str	-4317
encies	-4318
▁RE	-4319
ustr	-4320
arrant	-4321
▁radio	-4322
▁requirements	-4323
▁Only	-4324
45	-4325
▁Beach	-4326
oop	-4327
right	-4328
▁Jul	-4329
▁ban	-4330
▁Frank	-4331
▁Boston	-4332
▁toward	-4333
▁winner	-4334
pts	-4335
free	-4336
▁Academ	-4337
▁notice	-4338
obe	-4339
TS	-4340
porary	-4341
REE	-4342
▁covered	-4343
state	-4344
▁wedding	-4345
▁thousands	-4346
▁continued	-4347
oving	-4348
▁charges	-4349
If	-4350
ties	-4351
ulty	-4352
▁Bob	-4353
works	-4354
▁ship	-4355
▁behav	-4356
▁guide	-4357
▁advantage	-4358
rowd	-4359
itar	-4360
▁Women	-4361
▁relig	-4362
▁station	-4363
▁emb	-4364
odes	-4365
ection	-4366
▁creative	-4367
iers	-4368
▁Dig	-4369
▁Hill	-4370
▁poor	-4371
▁investment	-4372
▁capital	-4373
▁fish	-4374
fast	-4375
▁basket	-4376
▁Real	-4377
▁increased	-4378
▁gra	-4379
lished	-4380
▁transport	-4381
rd	-4382
iled	-4383
▁cru	-4384
▁opened	-4385
CH	-4386
▁finding	-4387
▁Log	-4388
▁dinner	-4389
▁collabor	-4390
TV	-4391
▁Jun	-4392
▁pros	-4393
▁yards	-4394
la	-4395
▁fell	-4396
▁placed	-4397
▁Mer	-4398
▁decor	-4399
kins	-4400
ooper	-4401
▁rob	-4402
no	-4403
▁India	-4404
▁schedule	-4405
▁firstname	-4406
▁Ins	-4407
istration	-4408
rie	-4409
▁Jones	-4410
▁basic	-4411
**	-4412
▁catch	-4413
▁transfer	-4414
▁Jew	-4415
▁Upd	-4416
▁disp	-4417
▁remains	-4418
▁70	-4419
▁victory	-4420
▁35	-4421
▁Both	-4422
dom	-4423
▁starts	-4424
▁Americans	-4425
▁fol	-4426
LC	-4427
gal	-4428
▁AP	-4429
▁196	-4430
active	-4431
▁Social	-4432
▁Rights	-4433
miss	-4434
▁Dou	-4435
▁bath	-4436
unately	-4437
▁conven	-4438
gery	-4439
▁coffee	-4440
▁killed	-4441
ournament	-4442
▁Ohio	-4443
▁evidence	-4444
▁31	-4445
▁arr	-4446
▁outd	-4447
▁unit	-4448
▁journal	-4449
▁Full	-4450
imal	-4451
▁artist	-4452
▁Sa	-4453
▁fill	-4454
▁street	-4455
▁produced	-4456
MS	-4457
▁Men	-4458
▁cars	-4459
▁secret	-4460
▁Award	-4461
▁satis	-4462
▁Orig	-4463
▁presented	-4464
ka	-4465
lymp	-4466
▁sand	-4467
irection	-4468
ixt	-4469
▁Long	-4470
place	-4471
ologies	-4472
ula	-4473
▁stre	-4474
▁particularly	-4475
pects	-4476
oices	-4477
▁workers	-4478
umber	-4479
▁password	-4480
▁dedicated	-4481
ownt	-4482
▁Roy	-4483
▁Jud	-4484
▁existing	-4485
icing	-4486
term	-4487
▁Thomas	-4488
▁leaving	-4489
isher	-4490
reek	-4491
▁Fort	-4492
▁approx	-4493
▁sport	-4494
▁seconds	-4495
▁chem	-4496
▁epis	-4497
▁library	-4498
acks	-4499
ifying	-4500
▁shooting	-4501
lied	-4502
▁communities	-4503
top	-4504
nding	-4505
▁01	-4506
bert	-4507
▁cab	-4508
▁Sing	-4509
▁machine	-4510
▁purpose	-4511
▁campus	-4512
▁essential	-4513
▁OF	-4514
kn	-4515
▁serving	-4516
azz	-4517
▁tables	-4518
▁appears	-4519
▁contest	-4520
▁6.	-4521
ograp	-4522
▁church	-4523
ading	-4524
▁Pri	-4525
▁songs	-4526
▁absolute	-4527
▁shall	-4528
▁afford	-4529
▁famous	-4530
▁returned	-4531
▁chocolate	-4532
using	-4533
▁ingred	-4534
-9	-4535
rep	-4536
riage	-4537
▁initi	-4538
▁scheduled	-4539
burg	-4540
▁background	-4541
▁Light	-4542
▁meaning	-4543
▁mill	-4544
▁agree	-4545
mine	-4546
▁contains	-4547
standing	-4548
▁showing	-4549
▁Committee	-4550
▁whatever	-4551
▁protection	-4552
▁Den	-4553
▁waiting	-4554
▁NOT	-4555
atures	-4556
▁records	-4557
▁ID	-4558
▁Fre	-4559
▁scr	-4560
▁earn	-4561
▁exciting	-4562
inese	-4563
▁eval	-4564
▁discussion	-4565
▁kid	-4566
illage	-4567
▁breat	-4568
▁Richard	-4569
▁registered	-4570
▁IS	-4571
▁assess	-4572
▁league	-4573
▁Fun	-4574
▁understanding	-4575
▁Ham	-4576
▁Olymp	-4577
▁compon	-4578
▁secure	-4579
▁produce	-4580
▁Haw	-4581
▁laun	-4582
amin	-4583
▁ended	-4584
▁TO	-4585
ategy	-4586
▁Mur	-4587
agon	-4588
▁proced	-4589
▁Stand	-4590
▁compared	-4591
▁extremely	-4592
▁plays	-4593
▁steps	-4594
▁forget	-4595
▁Medical	-4596
▁district	-4597
gen	-4598
life	-4599
chan	-4600
orney	-4601
▁2005	-4602
▁remind	-4603
▁Author	-4604
▁determin	-4605
22	-4606
cel	-4607
▁Town	-4608
▁Elect	-4609
▁crowd	-4610
iences	-4611
▁Download	-4612
▁facilities	-4613
/0	-4614
oos	-4615
look	-4616
▁Union	-4617
▁reasons	-4618
ampionship	-4619
Sh	-4620
ansas	-4621
▁awesome	-4622
▁remove	-4623
▁Aud	-4624
▁television	-4625
MA	-4626
cks	-4627
icted	-4628
▁Martin	-4629
▁Series	-4630
▁AL	-4631
ovel	-4632
▁Cook	-4633
▁refer	-4634
▁showed	-4635
▁towards	-4636
▁motor	-4637
▁trial	-4638
▁corner	-4639
▁medium	-4640
▁rich	-4641
itness	-4642
▁obvious	-4643
▁perhaps	-4644
▁CA	-4645
osure	-4646
▁Technology	-4647
▁rain	-4648
▁chair	-4649
▁Senate	-4650
▁Museum	-4651
▁happens	-4652
▁Charl	-4653
▁obtain	-4654
▁Society	-4655
▁Ryan	-4656
▁learned	-4657
▁menu	-4658
alog	-4659
▁Pac	-4660
▁Keep	-4661
▁adop	-4662
ersey	-4663
▁3,	-4664
▁ju	-4665
▁Another	-4666
▁advance	-4667
▁stores	-4668
▁coverage	-4669
▁sch	-4670
ements	-4671
▁stress	-4672
▁keeping	-4673
▁bowl	-4674
▁Old	-4675
away	-4676
ords	-4677
vere	-4678
▁lock	-4679
▁client	-4680
▁incred	-4681
▁Carolina	-4682
ishes	-4683
▁shut	-4684
▁wire	-4685
▁studies	-4686
▁citiz	-4687
▁Hy	-4688
▁stream	-4689
▁developing	-4690
▁Video	-4691
▁editor	-4692
▁storage	-4693
▁chief	-4694
▁agency	-4695
▁technical	-4696
▁magazine	-4697
▁FREE	-4698
▁spirit	-4699
▁rare	-4700
88	-4701
▁HD	-4702
▁status	-4703
16	-4704
uries	-4705
▁Blog	-4706
▁ride	-4707
▁ON	-4708
▁scen	-4709
▁Where	-4710
▁fif	-4711
▁Jackson	-4712
▁animals	-4713
▁bright	-4714
▁memory	-4715
▁virt	-4716
▁battle	-4717
▁plenty	-4718
▁updates	-4719
▁monitor	-4720
eless	-4721
▁regarding	-4722
▁grant	-4723
ano	-4724
▁injury	-4725
▁appropriate	-4726
cul	-4727
▁Di	-4728
craft	-4729
unning	-4730
▁somew	-4731
orthern	-4732
▁2012,	-4733
▁Android	-4734
▁register	-4735
▁peace	-4736
▁cheese	-4737
▁movies	-4738
alls	-4739
bing	-4740
▁Virginia	-4741
▁friendly	-4742
▁Ol	-4743
▁uns	-4744
▁Arts	-4745
▁patient	-4746
▁connection	-4747
itude	-4748
▁Penn	-4749
▁500	-4750
atively	-4751
▁NC	-4752
▁veter	-4753
▁veget	-4754
▁window	-4755
▁brings	-4756
▁manufacturer	-4757
UR	-4758
hem	-4759
inch	-4760
▁funds	-4761
▁shoes	-4762
▁charged	-4763
▁tim	-4764
▁Exper	-4765
▁master	-4766
roy	-4767
▁Jose	-4768
▁rooms	-4769
▁missing	-4770
ita	-4771
ola	-4772
▁Cre	-4773
▁reached	-4774
▁audience	-4775
▁Nor	-4776
▁Sher	-4777
▁readers	-4778
rehens	-4779
▁Journal	-4780
▁CEO	-4781
▁tough	-4782
▁associated	-4783
aked	-4784
point	-4785
▁emot	-4786
▁label	-4787
▁useful	-4788
▁strength	-4789
▁Page	-4790
▁Engine	-4791
▁executive	-4792
▁established	-4793
▁primary	-4794
▁electric	-4795
▁prepared	-4796
▁teaching	-4797
▁Fair	-4798
▁requires	-4799
▁bird	-4800
▁Start	-4801
▁joined	-4802
▁raised	-4803
dy	-4804
▁Boy	-4805
▁fee	-4806
istan	-4807
▁format	-4808
arge	-4809
▁har	-4810
▁Their	-4811
▁topic	-4812
▁Chinese	-4813
acity	-4814
overy	-4815
▁county	-4816
▁cris	-4817
▁tree	-4818
▁Republican	-4819
▁Que	-4820
▁Whether	-4821
icon	-4822
▁Georg	-4823
ommod	-4824
24	-4825
uke	-4826
iques	-4827
▁Head	-4828
▁lose	-4829
LA	-4830
▁100%	-4831
▁shel	-4832
▁limit	-4833
▁Mat	-4834
▁stars	-4835
DF	-4836
”.	-4837
▁civil	-4838
▁smooth	-4839
vis	-4840
▁shared	-4841
but	-4842
▁Way	-4843
▁Steve	-4844
▁server	-4845
▁gain	-4846
▁Build	-4847
zen	-4848
care	-4849
▁Tur	-4850
▁brown	-4851
acement	-4852
idel	-4853
▁repe	-4854
▁operations	-4855
while	-4856
▁Peter	-4857
▁orders	-4858
sequ	-4859
▁2000	-4860
asure	-4861
lands	-4862
olars	-4863
▁estim	-4864
-10	-4865
CE	-4866
▁fav	-4867
▁hearing	-4868
▁advanced	-4869
west	-4870
pective	-4871
▁Tour	-4872
▁south	-4873
▁AT	-4874
▁Its	-4875
▁north	-4876
▁profile	-4877
▁featured	-4878
▁Welcome	-4879
cell	-4880
▁critical	-4881
▁database	-4882
ero	-4883
▁dance	-4884
▁caused	-4885
▁supply	-4886
▁shape	-4887
▁century	-4888
oles	-4889
▁32	-4890
gu	-4891
cean	-4892
▁Def	-4893
▁sounds	-4894
▁Mel	-4895
▁storm	-4896
▁direction	-4897
▁2012.	-4898
▁forms	-4899
een	-4900
iverse	-4901
▁brief	-4902
▁smaller	-4903
▁documents	-4904
ales	-4905
▁notes	-4906
▁selling	-4907
▁testing	-4908
▁Tre	-4909
▁surface	-4910
▁slightly	-4911
▁educational	-4912
▁environmental	-4913
▁becoming	-4914
▁Lee	-4915
nergy	-4916
▁Access	-4917
▁Williams	-4918
▁allowing	-4919
▁Er	-4920
semb	-4921
▁weap	-4922
▁asking	-4923
▁greater	-4924
▁unless	-4925
▁sources	-4926
▁Lin	-4927
▁committed	-4928
▁meant	-4929
▁distrib	-4930
▁upcoming	-4931
ht	-4932
▁Pay	-4933
▁youth	-4934
▁parking	-4935
▁Clin	-4936
-200	-4937
▁sty	-4938
▁upgr	-4939
edia	-4940
ship	-4941
▁spl	-4942
▁Vict	-4943
uzz	-4944
▁Organ	-4945
▁danger	-4946
19	-4947
▁buying	-4948
BI	-4949
▁Ut	-4950
arsh	-4951
▁fold	-4952
▁Price	-4953
▁spect	-4954
▁previously	-4955
▁boo	-4956
44	-4957
▁listen	-4958
▁experienced	-4959
▁relax	-4960
SA	-4961
ena	-4962
enses	-4963
▁raise	-4964
▁separate	-4965
▁45	-4966
▁Live	-4967
▁funding	-4968
▁opinion	-4969
);	-4970
▁rap	-4971
abilities	-4972
▁rid	-4973
▁putting	-4974
33	-4975
going	-4976
▁survey	-4977
▁Kr	-4978
▁iPad	-4979
▁seat	-4980
▁advent	-4981
▁walking	-4982
▁Security	-4983
▁Africa	-4984
▁Columb	-4985
▁sharing	-4986
▁operating	-4987
▁Wild	-4988
▁assistance	-4989
!"	-4990
night	-4991
▁facility	-4992
▁brain	-4993
▁earned	-4994
osen	-4995
▁sets	-4996
▁actual	-4997
▁Western	-4998
▁calling	-4999
▁parties	-5000
▁combined	-5001
▁earth	-5002
▁tight	-5003
▁managed	-5004
▁officer	-5005
▁leadership	-5006
?"	-5007
▁central	-5008
▁population	-5009
▁thr	-5010
ellig	-5011
▁novel	-5012
▁approved	-5013
▁Gal	-5014
igned	-5015
▁challenges	-5016
iliar	-5017
▁busy	-5018
aks	-5019
▁Cath	-5020
▁hits	-5021
▁spokes	-5022
▁markets	-5023
▁audio	-5024
▁researc	-5025
▁visitors	-5026
elly	-5027
There	-5028
▁info	-5029
▁sauce	-5030
erous	-5031
reens	-5032
▁anti	-5033
▁leaves	-5034
▁Connect	-5035
▁movement	-5036
▁experts	-5037
hop	-5038
ennis	-5039
ius	-5040
▁filled	-5041
▁election	-5042
with	-5043
▁Fund	-5044
▁sustain	-5045
▁7.	-5046
▁Lim	-5047
▁Festival	-5048
▁Michigan	-5049
!)	-5050
65	-5051
▁pregn	-5052
atre	-5053
▁cas	-5054
▁sav	-5055
▁flex	-5056
▁Daily	-5057
▁claims	-5058
▁Jes	-5059
▁ge	-5060
secut	-5061
▁ideal	-5062
▁chicken	-5063
▁agreement	-5064
part	-5065
van	-5066
mond	-5067
▁academic	-5068
▁purchased	-5069
oons	-5070
▁Lead	-5071
▁mist	-5072
▁theme	-5073
▁birthday	-5074
hy	-5075
pan	-5076
▁AND	-5077
▁Mic	-5078
▁athlet	-5079
▁resident	-5080
icip	-5081
ae	-5082
yer	-5083
▁Federal	-5084
▁despite	-5085
▁ingredients	-5086
▁ir	-5087
▁manage	-5088
▁otherwise	-5089
▁Jon	-5090
▁Chief	-5091
▁Watch	-5092
▁Young	-5093
atin	-5094
weet	-5095
▁sea	-5096
▁Mexico	-5097
ourney	-5098
▁Brand	-5099
▁locations	-5100
ENT	-5101
ctors	-5102
ferences	-5103
▁payment	-5104
▁teacher	-5105
▁Support	-5106
▁tonight	-5107
▁tele	-5108
▁multi	-5109
▁panel	-5110
▁photograph	-5111
edom	-5112
▁flat	-5113
▁experiences	-5114
estic	-5115
owntown	-5116
▁wearing	-5117
▁Children	-5118
▁Division	-5119
▁polic	-5120
▁professionals	-5121
201	-5122
bre	-5123
▁honor	-5124
▁twice	-5125
▁Person	-5126
fortunately	-5127
▁beauty	-5128
▁income	-5129
▁princip	-5130
▁vehicles	-5131
▁MS	-5132
▁mur	-5133
▁faith	-5134
▁guest	-5135
▁cy	-5136
▁Inf	-5137
rooms	-5138
▁milk	-5139
▁passion	-5140
▁Southern	-5141
▁Ariz	-5142
▁concept	-5143
▁appeared	-5144
▁Rest	-5145
35	-5146
▁$5	-5147
igation	-5148
▁consumers	-5149
▁aim	-5150
▁Walk	-5151
▁teachers	-5152
▁independent	-5153
85	-5154
▁dollars	-5155
ushed	-5156
▁purs	-5157
▁society	-5158
14	-5159
awn	-5160
▁conv	-5161
▁Learn	-5162
▁Party	-5163
iser	-5164
▁helpful	-5165
▁Opt	-5166
▁Before	-5167
▁fabric	-5168
▁courses	-5169
▁enjoyed	-5170
▁furn	-5171
▁bread	-5172
▁garden	-5173
▁strategy	-5174
▁entertainment	-5175
▁Maybe	-5176
-12	-5177
▁Pack	-5178
▁handle	-5179
ocket	-5180
▁Girl	-5181
▁diagn	-5182
fr	-5183
▁Georgia	-5184
▁willing	-5185
▁caught	-5186
▁structure	-5187
▁arm	-5188
▁van	-5189
▁Kore	-5190
▁Soft	-5191
lywood	-5192
▁shots	-5193
▁Jo	-5194
▁thread	-5195
▁changing	-5196
▁controll	-5197
▁subscrib	-5198
▁plastic	-5199
17	-5200
▁incor	-5201
▁Government	-5202
▁neighborhood	-5203
OO	-5204
ipl	-5205
▁fuel	-5206
▁reality	-5207
▁accommod	-5208
▁corporate	-5209
▁CH	-5210
▁Disc	-5211
▁remaining	-5212
otes	-5213
▁flu	-5214
▁Earth	-5215
▁stret	-5216
▁desk	-5217
▁Energy	-5218
▁launched	-5219
▁fly	-5220
▁Quest	-5221
▁History	-5222
▁Land	-5223
▁Hospital	-5224
▁architect	-5225
▁twe	-5226
200	-5227
eal	-5228
iest	-5229
▁warrant	-5230
▁Rev	-5231
▁bra	-5232
▁esc	-5233
▁Help	-5234
▁France	-5235
▁Administr	-5236
▁sy	-5237
▁ran	-5238
arently	-5239
▁alle	-5240
kin	-5241
▁AC	-5242
▁colle	-5243
▁square	-5244
▁counter	-5245
rehensive	-5246
▁Set	-5247
ointed	-5248
▁metal	-5249
▁minor	-5250
OV	-5251
usion	-5252
essions	-5253
▁foreign	-5254
▁Francisco	-5255
▁||	-5256
▁designs	-5257
▁Academy	-5258
▁participate	-5259
▁teen	-5260
▁adults	-5261
▁Cam	-5262
▁Sar	-5263
known	-5264
▁Place	-5265
▁Bud	-5266
▁Oper	-5267
▁error	-5268
▁eating	-5269
▁temperature	-5270
▁approximately	-5271
▁commitment	-5272
iami	-5273
▁Mid	-5274
▁Squ	-5275
▁debut	-5276
▁balance	-5277
cont	-5278
▁Cost	-5279
▁Photo	-5280
▁Colorado	-5281
▁deals	-5282
▁animal	-5283
▁administration	-5284
how	-5285
▁category	-5286
hew	-5287
ivered	-5288
▁units	-5289
▁draft	-5290
▁described	-5291
▁efficient	-5292
rick	-5293
▁Hun	-5294
▁Did	-5295
▁bac	-5296
▁lunch	-5297
fol	-5298
▁Pan	-5299
▁combination	-5300
77	-5301
▁4,	-5302
▁Die	-5303
▁YOU	-5304
▁Hope	-5305
▁Word	-5306
▁Night	-5307
▁seemed	-5308
▁determine	-5309
OC	-5310
hand	-5311
vant	-5312
ulous	-5313
lock	-5314
▁exclusive	-5315
ews	-5316
oup	-5317
aded	-5318
▁species	-5319
PM	-5320
▁:)	-5321
season	-5322
▁surgery	-5323
▁Four	-5324
▁missed	-5325
PR	-5326
▁mo	-5327
▁Dev	-5328
▁generally	-5329
▁Forum	-5330
▁micro	-5331
▁installed	-5332
▁worldwide	-5333
▁Mo	-5334
▁sister	-5335
▁exercise	-5336
ucle	-5337
▁Max	-5338
▁clim	-5339
▁Invest	-5340
▁decide	-5341
▁practices	-5342
▁Contin	-5343
ye	-5344
abet	-5345
▁rat	-5346
▁Games	-5347
▁Those	-5348
▁married	-5349
▁promote	-5350
razy	-5351
▁Saf	-5352
ulate	-5353
▁Room	-5354
▁cuts	-5355
▁noted	-5356
▁explore	-5357
▁majority	-5358
ella	-5359
▁edge	-5360
32	-5361
▁cooking	-5362
ager	-5363
▁ring	-5364
▁worry	-5365
▁eth	-5366
▁Little	-5367
▁Secret	-5368
▁Gra	-5369
▁plug	-5370
iminal	-5371
▁holding	-5372
▁graduate	-5373
▁Somet	-5374
▁apart	-5375
▁tomorrow	-5376
▁Id	-5377
▁Bas	-5378
▁diet	-5379
▁intended	-5380
66	-5381
berry	-5382
▁Hard	-5383
▁Middle	-5384
▁inches	-5385
▁8.	-5386
▁Box	-5387
▁Field	-5388
▁revenue	-5389
▁commission	-5390
▁responsibility	-5391
18	-5392
▁establish	-5393
▁Ext	-5394
▁Three	-5395
▁Friend	-5396
NA	-5397
▁Tay	-5398
▁Tit	-5399
▁mostly	-5400
▁concerns	-5401
▁Test	-5402
water	-5403
▁2004	-5404
▁copyright	-5405
EM	-5406
▁Kim	-5407
▁NFL	-5408
ocal	-5409
▁guard	-5410
▁anywhere	-5411
anda	-5412
▁Canad	-5413
▁focused	-5414
UT	-5415
ait	-5416
arp	-5417
▁push	-5418
ighter	-5419
▁featuring	-5420
xx	-5421
lets	-5422
▁boys	-5423
▁prison	-5424
azon	-5425
▁labor	-5426
▁valid	-5427
▁bike	-5428
icians	-5429
▁Italian	-5430
▁arrested	-5431
IF	-5432
▁Hand	-5433
▁Miami	-5434
▁psych	-5435
▁accident	-5436
iration	-5437
▁transl	-5438
▁becomes	-5439
▁IP	-5440
▁picked	-5441
iture	-5442
▁topics	-5443
▁bringing	-5444
▁basketball	-5445
ucks	-5446
▁resist	-5447
▁emergency	-5448
coh	-5449
ker	-5450
ste	-5451
▁Jenn	-5452
▁beach	-5453
They	-5454
▁Inn	-5455
▁tend	-5456
ups	-5457
▁visiting	-5458
list	-5459
▁Cat	-5460
▁Tri	-5461
▁estate	-5462
▁bat	-5463
▁Prote	-5464
▁discover	-5465
eed	-5466
gas	-5467
▁encourage	-5468
▁Fox	-5469
▁Ray	-5470
▁Students	-5471
▁exchange	-5472
rs	-5473
▁rise	-5474
▁tack	-5475
▁mechan	-5476
lah	-5477
iner	-5478
▁Kent	-5479
▁trees	-5480
rene	-5481
▁tro	-5482
tered	-5483
▁alternative	-5484
iency	-5485
▁propos	-5486
▁Arizona	-5487
▁Ce	-5488
▁begins	-5489
▁faculty	-5490
IR	-5491
ician	-5492
paper	-5493
ushing	-5494
▁Daniel	-5495
▁African	-5496
▁swim	-5497
▁Jersey	-5498
▁hundreds	-5499
▁numerous	-5500
▁arrived	-5501
▁thoughts	-5502
illy	-5503
▁Aff	-5504
▁failed	-5505
▁vision	-5506
▁elements	-5507
▁investigation	-5508
▁jun	-5509
▁Carl	-5510
▁degrees	-5511
▁websites	-5512
appy	-5513
yard	-5514
▁cry	-5515
▁Brad	-5516
▁removed	-5517
▁sitting	-5518
▁marriage	-5519
▁absolutely	-5520
▁advertising	-5521
ias	-5522
▁corn	-5523
astern	-5524
▁frame	-5525
▁sexual	-5526
vy	-5527
▁Plus	-5528
▁300	-5529
▁plants	-5530
▁Through	-5531
.|	-5532
under	-5533
▁dogs	-5534
poration	-5535
▁methods	-5536
▁Far	-5537
▁harm	-5538
▁sequ	-5539
▁films	-5540
▁Pot	-5541
▁seeking	-5542
▁sup	-5543
inet	-5544
▁Hou	-5545
▁adult	-5546
oted	-5547
real	-5548
▁der	-5549
▁tests	-5550
owa	-5551
▁Inte	-5552
orters	-5553
▁writer	-5554
▁decisions	-5555
▁·	-5556
▁rom	-5557
▁Const	-5558
ression	-5559
▁submit	-5560
▁Manager	-5561
▁Coast	-5562
▁officers	-5563
▁improved	-5564
▁inspired	-5565
obs	-5566
▁planned	-5567
▁Try	-5568
▁sad	-5569
▁Prov	-5570
SU	-5571
▁core	-5572
▁Santa	-5573
abled	-5574
▁highlight	-5575
▁hun	-5576
tenance	-5577
▁edition	-5578
▁automatically	-5579
▁3-	-5580
▁Pass	-5581
▁detailed	-5582
▁cable	-5583
▁values	-5584
▁confidence	-5585
▁Lab	-5586
▁tun	-5587
▁Gar	-5588
which	-5589
▁neck	-5590
▁taxes	-5591
umin	-5592
▁dur	-5593
▁Avenue	-5594
▁consid	-5595
▁suspect	-5596
▁consumer	-5597
▁policies	-5598
nel	-5599
ritten	-5600
ram	-5601
uts	-5602
adel	-5603
▁citizens	-5604
▁proposed	-5605
▁generation	-5606
Cl	-5607
▁ang	-5608
▁debt	-5609
▁accompl	-5610
▁Does	-5611
▁sides	-5612
▁appearance	-5613
▁Ell	-5614
▁burn	-5615
▁cake	-5616
▁fees	-5617
▁ticket	-5618
▁Digital	-5619
▁committee	-5620
aser	-5621
▁2013.	-5622
▁gifts	-5623
▁Romney	-5624
▁switch	-5625
ya	-5626
▁tow	-5627
▁Ken	-5628
eline	-5629
▁Bi	-5630
ache	-5631
▁performed	-5632
inct	-5633
ribe	-5634
prise	-5635
ulated	-5636
▁female	-5637
CA	-5638
▁parent	-5639
gend	-5640
ender	-5641
▁Meet	-5642
▁fear	-5643
col	-5644
▁$4	-5645
▁broadcast	-5646
mes	-5647
endar	-5648
▁Data	-5649
Americ	-5650
▁tournament	-5651
▁university	-5652
foot	-5653
osis	-5654
▁Global	-5655
▁behavior	-5656
▁cities	-5657
▁Charles	-5658
ATE	-5659
▁MP	-5660
aska	-5661
▁golf	-5662
▁mine	-5663
▁delicious	-5664
text	-5665
▁distance	-5666
▁End	-5667
▁aid	-5668
oking	-5669
▁fantastic	-5670
▁permission	-5671
▁AR	-5672
▁meat	-5673
▁Taylor	-5674
▁delivered	-5675
hab	-5676
▁2011,	-5677
▁prepare	-5678
▁10.	-5679
irmed	-5680
▁crew	-5681
▁pitch	-5682
▁tells	-5683
▁council	-5684
▁drivers	-5685
SE	-5686
▁Van	-5687
▁yes	-5688
▁browser	-5689
▁baseball	-5690
▁provider	-5691
GB	-5692
▁Hen	-5693
lahoma	-5694
▁Store	-5695
▁cloud	-5696
▁issued	-5697
▁measures	-5698
▁vacation	-5699
▁extensive	-5700
▁innovative	-5701
ria	-5702
▁owned	-5703
▁thick	-5704
▁truth	-5705
▁bigger	-5706
▁familiar	-5707
▁occasion	-5708
FC	-5709
▁flo	-5710
▁restr	-5711
▁losing	-5712
iat	-5713
▁covers	-5714
▁hardware	-5715
oman	-5716
▁Expl	-5717
▁Nick	-5718
▁(5	-5719
▁GM	-5720
▁feels	-5721
▁Mobile	-5722
▁fields	-5723
▁trouble	-5724
▁restaurants	-5725
▁comprehensive	-5726
▁Sup	-5727
▁cheap	-5728
▁Master	-5729
▁houses	-5730
▁dish	-5731
▁Visit	-5732
▁Andrew	-5733
▁therap	-5734
▁signs	-5735
▁depart	-5736
▁supposed	-5737
▁5,	-5738
▁Ma	-5739
resp	-5740
ancer	-5741
▁Using	-5742
▁craft	-5743
▁pepper	-5744
ployment	-5745
▁violence	-5746
My	-5747
idays	-5748
rowse	-5749
▁crime	-5750
actions	-5751
▁confirm	-5752
▁recorded	-5753
TH	-5754
otic	-5755
▁rule	-5756
ixture	-5757
related	-5758
emporary	-5759
▁cutting	-5760
do	-5761
▁kill	-5762
▁eventually	-5763
hus	-5764
alled	-5765
▁Staff	-5766
▁Current	-5767
▁coordin	-5768
▁researchers	-5769
▁capacity	-5770
As	-5771
▁2011.	-5772
RL	-5773
lyn	-5774
▁(4	-5775
▁lux	-5776
▁agreed	-5777
▁clearly	-5778
▁tea	-5779
▁lovely	-5780
▁speech	-5781
▁identify	-5782
▁ped	-5783
weight	-5784
▁SP	-5785
aped	-5786
comp	-5787
eries	-5788
▁answers	-5789
▁operation	-5790
.'	-5791
▁Ep	-5792
▁flour	-5793
▁concerned	-5794
irts	-5795
▁flavor	-5796
▁conversation	-5797
▁10,	-5798
▁row	-5799
▁Lord	-5800
▁Cross	-5801
▁hoping	-5802
lee	-5803
▁jew	-5804
idden	-5805
▁gear	-5806
▁Radio	-5807
lete	-5808
▁mode	-5809
▁waste	-5810
▁millions	-5811
▁receiving	-5812
▁Second	-5813
▁forced	-5814
▁cultural	-5815
?”	-5816
UN	-5817
▁fruit	-5818
ensions	-5819
----	-5820
What	-5821
▁Dur	-5822
adium	-5823
▁whom	-5824
▁battery	-5825
▁agencies	-5826
ailability	-5827
▁broken	-5828
▁fellow	-5829
▁08	-5830
▁Wat	-5831
▁fro	-5832
▁config	-5833
▁ign	-5834
▁unc	-5835
ifer	-5836
▁Key	-5837
▁oven	-5838
▁arrang	-5839
za	-5840
icit	-5841
▁lived	-5842
spe	-5843
▁Iowa	-5844
profit	-5845
▁Drive	-5846
▁minimum	-5847
▁Mountain	-5848
▁settings	-5849
▁MA	-5850
▁Davis	-5851
uable	-5852
cluding	-5853
▁Broad	-5854
▁plate	-5855
ta	-5856
▁journey	-5857
▁resource	-5858
▁Site	-5859
opping	-5860
▁mouth	-5861
▁optim	-5862
▁stopped	-5863
▁Low	-5864
▁hasn	-5865
▁pump	-5866
▁Local	-5867
▁episode	-5868
▁recommended	-5869
upper	-5870
▁Human	-5871
▁debate	-5872
▁native	-5873
cles	-5874
▁chosen	-5875
▁honest	-5876
▁Minister	-5877
▁supported	-5878
bu	-5879
▁Sat	-5880
▁Tick	-5881
▁drugs	-5882
▁awards	-5883
forcement	-5884
ml	-5885
ora	-5886
eria	-5887
▁dyn	-5888
ev	-5889
▁Leg	-5890
▁Sus	-5891
▁ends	-5892
▁Members	-5893
▁factors	-5894
▁license	-5895
imp	-5896
onn	-5897
anna	-5898
▁quiet	-5899
▁instructions	-5900
▁pal	-5901
▁Kevin	-5902
▁designer	-5903
▁mentioned	-5904
▁Houston	-5905
▁enhance	-5906
iors	-5907
▁Hom	-5908
▁anc	-5909
▁forg	-5910
▁vent	-5911
▁Brian	-5912
▁maximum	-5913
▁Environment	-5914
▁judge	-5915
hors	-5916
▁instr	-5917
▁communication	-5918
▁Lind	-5919
▁Span	-5920
uction	-5921
▁flowers	-5922
▁reference	-5923
▁accessories	-5924
▁filed	-5925
▁faster	-5926
▁returns	-5927
▁Ul	-5928
▁Summer	-5929
▁Victor	-5930
▁flight	-5931
▁celebrate	-5932
▁expensive	-5933
▁introduced	-5934
▁195	-5935
▁Gen	-5936
▁Kat	-5937
▁ven	-5938
inois	-5939
▁Cast	-5940
▁36	-5941
alty	-5942
▁Tem	-5943
erves	-5944
udden	-5945
▁Rod	-5946
atoes	-5947
▁Share	-5948
▁doubt	-5949
▁fifth	-5950
▁presence	-5951
road	-5952
merce	-5953
▁leads	-5954
▁posting	-5955
▁totally	-5956
▁Turn	-5957
▁task	-5958
orough	-5959
2)	-5960
23	-5961
▁analy	-5962
▁funny	-5963
▁Bra	-5964
▁grab	-5965
▁meal	-5966
▁soph	-5967
▁replace	-5968
acle	-5969
verse	-5970
▁Awards	-5971
▁dropped	-5972
▁musical	-5973
▁Centre	-5974
▁rub	-5975
▁sympt	-5976
▁detect	-5977
▁outdoor	-5978
▁pleased	-5979
▁Communic	-5980
▁relevant	-5981
▁tradition	-5982
gage	-5983
star	-5984
▁Requ	-5985
▁apps	-5986
▁visual	-5987
eah	-5988
ternal	-5989
▁installation	-5990
▁18,	-5991
▁bon	-5992
▁hero	-5993
▁keeps	-5994
ictions	-5995
▁Travel	-5996
isters	-5997
▁Comments	-5998
▁33	-5999
▁mort	-6000
▁brands	-6001
▁landsc	-6002
onym	-6003
▁injuries	-6004
▁wal	-6005
arian	-6006
▁talks	-6007
▁Assist	-6008
▁Econom	-6009
▁mental	-6010
▁techniques	-6011
rupt	-6012
▁Tech	-6013
adelph	-6014
▁grown	-6015
▁alleged	-6016
▁nav	-6017
▁pun	-6018
▁holds	-6019
▁pounds	-6020
▁regional	-6021
▁discovered	-6022
rid	-6023
▁Base	-6024
▁Guide	-6025
▁Kansas	-6026
▁feedback	-6027
▁greatest	-6028
▁specifically	-6029
tra	-6030
▁FA	-6031
▁LA	-6032
▁Want	-6033
▁bond	-6034
▁gather	-6035
▁shares	-6036
oti	-6037
▁14,	-6038
▁Executive	-6039
II	-6040
▁closer	-6041
▁compar	-6042
▁sam	-6043
▁Chair	-6044
▁satisf	-6045
adelphia	-6046
▁downtown	-6047
oga	-6048
▁Pop	-6049
▁Mult	-6050
▁Hor	-6051
cohol	-6052
ington	-6053
▁possibly	-6054
erg	-6055
▁mir	-6056
▁arts	-6057
▁beer	-6058
EE	-6059
▁6,	-6060
▁15,	-6061
▁Pow	-6062
▁seek	-6063
▁invent	-6064
▁Germany	-6065
▁Student	-6066
▁cute	-6067
▁rand	-6068
▁rough	-6069
▁Instead	-6070
▁Illinois	-6071
ris	-6072
aduate	-6073
▁Still	-6074
▁Indust	-6075
▁sector	-6076
▁discount	-6077
▁registration	-6078
▁7,	-6079
▁Writ	-6080
lights	-6081
▁guitar	-6082
▁cups	-6083
▁Right	-6084
▁silver	-6085
▁volume	-6086
ulations	-6087
▁ordered	-6088
▁Japanese	-6089
▁Eag	-6090
▁nor	-6091
▁rot	-6092
ockey	-6093
▁index	-6094
▁realize	-6095
ien	-6096
▁cro	-6097
▁Harr	-6098
▁competitive	-6099
▁2003	-6100
▁Amazon	-6101
▁MD	-6102
apes	-6103
mosp	-6104
▁vary	-6105
▁climate	-6106
▁Catholic	-6107
▁Hollywood	-6108
21	-6109
▁WH	-6110
▁Paris	-6111
▁Phone	-6112
▁recipes	-6113
27	-6114
No	-6115
▁AS	-6116
▁Lt	-6117
mont	-6118
▁FOR	-6119
▁dram	-6120
▁turns	-6121
▁Professor	-6122
boy	-6123
▁ED	-6124
▁styles	-6125
▁folks	-6126
▁foods	-6127
▁elimin	-6128
▁random	-6129
▁surprise	-6130
98	-6131
▁situ	-6132
▁Select	-6133
iversary	-6134
▁messages	-6135
▁standing	-6136
▁breakfast	-6137
▁resolution	-6138
▁Buy	-6139
▁Creat	-6140
▁baking	-6141
▁figures	-6142
▁Rog	-6143
▁Works	-6144
▁dates	-6145
▁decades	-6146
▁Ford	-6147
▁truck	-6148
osit	-6149
▁elig	-6150
uclear	-6151
▁crazy	-6152
oes	-6153
allas	-6154
▁offensive	-6155
▁properties	-6156
pre	-6157
▁Lady	-6158
Pro	-6159
▁17,	-6160
▁mel	-6161
▁imagine	-6162
▁candidates	-6163
anche	-6164
▁element	-6165
▁relationships	-6166
otal	-6167
▁amb	-6168
▁breast	-6169
▁applied	-6170
LY	-6171
Sp	-6172
▁coast	-6173
▁Reserved	-6174
▁Wi	-6175
izza	-6176
ulture	-6177
▁shock	-6178
▁favour	-6179
▁Canadian	-6180
igr	-6181
▁Eric	-6182
▁Know	-6183
estyle	-6184
▁teach	-6185
▁upper	-6186
▁studio	-6187
▁appoint	-6188
▁entered	-6189
▁presentation	-6190
▁12,	-6191
▁Ask	-6192
▁mini	-6193
▁Diego	-6194
▁OS	-6195
▁Dar	-6196
▁Ira	-6197
▁Oklahoma	-6198
ala	-6199
▁Barb	-6200
▁none	-6201
▁Email	-6202
▁Control	-6203
▁Ash	-6204
▁pulled	-6205
▁hosting	-6206
▁monthly	-6207
▁extended	-6208
▁candidate	-6209
tle	-6210
▁affili	-6211
▁Philadelphia	-6212
▁OR	-6213
▁loan	-6214
▁command	-6215
ERS	-6216
For	-6217
cue	-6218
mar	-6219
eler	-6220
▁tag	-6221
▁Kenn	-6222
idelines	-6223
TA	-6224
▁Fed	-6225
▁Bush	-6226
▁Shop	-6227
▁cells	-6228
▁reform	-6229
▁confident	-6230
▁Lo	-6231
▁Jay	-6232
▁ages	-6233
▁facing	-6234
28	-6235
▁NEW	-6236
▁Prem	-6237
▁sizes	-6238
▁actions	-6239
▁seasons	-6240
▁scholars	-6241
▁Australian	-6242
▁originally	-6243
GE	-6244
can	-6245
▁Enjoy	-6246
▁contr	-6247
bury	-6248
▁hur	-6249
odies	-6250
ppers	-6251
▁incident	-6252
dr	-6253
gs	-6254
ua	-6255
▁Farm	-6256
▁Need	-6257
ampion	-6258
▁critic	-6259
▁profit	-6260
▁supports	-6261
ench	-6262
obby	-6263
▁11,	-6264
▁Lew	-6265
▁jack	-6266
▁evalu	-6267
▁horse	-6268
iki	-6269
▁die	-6270
▁clothing	-6271
▁purposes	-6272
▁9.	-6273
▁grade	-6274
▁explain	-6275
▁defensive	-6276
▁48	-6277
icial	-6278
▁laugh	-6279
▁chemical	-6280
▁surf	-6281
▁agent	-6282
▁Comple	-6283
▁Despite	-6284
hi	-6285
phas	-6286
lines	-6287
▁Anal	-6288
▁concern	-6289
kes	-6290
▁cra	-6291
aints	-6292
ario	-6293
▁Balt	-6294
▁chain	-6295
▁accepted	-6296
▁iron	-6297
▁weekly	-6298
▁20,	-6299
▁Equ	-6300
▁forces	-6301
▁blow	-6302
▁flav	-6303
▁tall	-6304
▁util	-6305
▁museum	-6306
▁telling	-6307
▁photograp	-6308
▁Vers	-6309
▁hopes	-6310
▁scale	-6311
▁depending	-6312
▁PS	-6313
▁Tig	-6314
▁hang	-6315
▁likes	-6316
▁organic	-6317
▁submitted	-6318
And	-6319
ogs	-6320
high	-6321
▁Rand	-6322
▁participants	-6323
▁Cert	-6324
▁boat	-6325
▁Jesus	-6326
▁intellig	-6327
97	-6328
gent	-6329
ikes	-6330
▁gro	-6331
▁Applic	-6332
▁lights	-6333
▁tradem	-6334
▁Atlanta	-6335
▁mixture	-6336
▁windows	-6337
▁guarantee	-6338
▁reporting	-6339
▁2013,	-6340
▁enthus	-6341
▁Pacific	-6342
▁confirmed	-6343
irty	-6344
ouch	-6345
▁pit	-6346
cover	-6347
▁adds	-6348
▁paying	-6349
▁attacks	-6350
▁religious	-6351
▁)	-6352
regon	-6353
▁recovery	-6354
▁appreciate	-6355
▁Foot	-6356
▁Rose	-6357
iamond	-6358
▁licens	-6359
▁8,	-6360
▁Oak	-6361
Story	-6362
▁properly	-6363
26	-6364
Bl	-6365
▁75	-6366
▁worse	-6367
▁serves	-6368
▁concert	-6369
▁21,	-6370
inson	-6371
▁Rick	-6372
▁poly	-6373
▁Though	-6374
iano	-6375
▁Asia	-6376
▁steel	-6377
▁struct	-6378
bar	-6379
onna	-6380
▁25,	-6381
▁rating	-6382
ican	-6383
inem	-6384
▁Bowl	-6385
iscons	-6386
▁stated	-6387
▁meetings	-6388
▁interests	-6389
OD	-6390
▁CN	-6391
▁revealed	-6392
ded	-6393
▁09	-6394
urning	-6395
▁Ram	-6396
▁Ron	-6397
▁Cond	-6398
▁chat	-6399
▁ment	-6400
▁worst	-6401
▁stretch	-6402
▁accurate	-6403
burgh	-6404
isconsin	-6405
▁maintenance	-6406
mend	-6407
▁$10	-6408
▁luck	-6409
▁Stephen	-6410
▁streets	-6411
▁34	-6412
▁SC	-6413
otton	-6414
▁Army	-6415
▁renew	-6416
▁usual	-6417
game	-6418
▁wid	-6419
▁hate	-6420
▁electronic	-6421
▁recognized	-6422
▁DC	-6423
▁ok	-6424
▁Maryland	-6425
ERE	-6426
▁Jr	-6427
▁Ro	-6428
elry	-6429
utch	-6430
▁Luc	-6431
▁impl	-6432
▁logo	-6433
▁vice	-6434
asters	-6435
▁liber	-6436
▁powder	-6437
▁Country	-6438
▁airport	-6439
▁criminal	-6440
▁influence	-6441
iana	-6442
▁unf	-6443
▁Cred	-6444
▁Seattle	-6445
▁components	-6446
Ex	-6447
800	-6448
rome	-6449
▁Code	-6450
▁Tenn	-6451
▁Miller	-6452
▁Silver	-6453
▁conver	-6454
▁voters	-6455
▁internal	-6456
▁supporting	-6457
▁distribution	-6458
hat	-6459
sey	-6460
▁UC	-6461
▁male	-6462
▁retire	-6463
▁housing	-6464
▁accounts	-6465
▁Bul	-6466
▁Cub	-6467
▁Iraq	-6468
▁boost	-6469
That	-6470
▁Cir	-6471
▁Subsc	-6472
▁fighting	-6473
▁processing	-6474
▁Stan	-6475
▁grew	-6476
▁Disney	-6477
▁Minnes	-6478
▁yellow	-6479
imore	-6480
intage	-6481
▁faces	-6482
▁atmosp	-6483
▁determined	-6484
ava	-6485
▁Sn	-6486
▁wel	-6487
▁advoc	-6488
agement	-6489
▁Mean	-6490
▁Nation	-6491
▁positions	-6492
uous	-6493
▁Hon	-6494
▁Area	-6495
▁joint	-6496
▁tracks	-6497
▁13,	-6498
▁Oregon	-6499
▁letters	-6500
ca	-6501
fts	-6502
▁LLC	-6503
▁ille	-6504
▁Training	-6505
▁considering	-6506
umes	-6507
▁23,	-6508
etime	-6509
ffect	-6510
▁Made	-6511
▁dial	-6512
▁Trust	-6513
▁carbon	-6514
▁repair	-6515
▁surprised	-6516
▁technologies	-6517
▁NH	-6518
▁ec	-6519
▁coup	-6520
▁perfectly	-6521
VER	-6522
▁Ca	-6523
ashed	-6524
claim	-6525
▁lists	-6526
▁Wisconsin	-6527
▁impressive	-6528
▁Tony	-6529
▁delay	-6530
▁supplies	-6531
▁buildings	-6532
”,	-6533
bour	-6534
ello	-6535
▁Run	-6536
▁Jason	-6537
▁resol	-6538
oration	-6539
▁Number	-6540
▁rental	-6541
▁turning	-6542
▁Magazine	-6543
▁partnership	-6544
▁BE	-6545
▁1/4	-6546
▁16,	-6547
▁Bal	-6548
▁pure	-6549
▁stir	-6550
▁loves	-6551
▁division	-6552
ifications	-6553
▁?	-6554
▁OK	-6555
ycling	-6556
▁Senior	-6557
▁failure	-6558
▁printed	-6559
▁employee	-6560
▁Hur	-6561
hered	-6562
▁centre	-6563
pet	-6564
▁gay	-6565
letter	-6566
▁Dallas	-6567
▁Policy	-6568
▁remote	-6569
But	-6570
iti	-6571
▁Sky	-6572
▁odd	-6573
▁spr	-6574
▁sick	-6575
▁offices	-6576
▁affected	-6577
▁symptoms	-6578
▁PA	-6579
▁Tool	-6580
▁broke	-6581
▁Systems	-6582
▁sessions	-6583
▁outstanding	-6584
▁05	-6585
▁30,	-6586
▁Map	-6587
▁Dist	-6588
▁Liber	-6589
▁Wilson	-6590
▁terror	-6591
host	-6592
rier	-6593
remony	-6594
▁Order	-6595
▁Spanish	-6596
▁choices	-6597
▁SE	-6598
oster	-6599
▁tail	-6600
▁wins	-6601
▁route	-6602
▁calcul	-6603
▁historic	-6604
acr	-6605
wear	-6606
▁19,	-6607
▁vir	-6608
ospit	-6609
power	-6610
▁Type	-6611
▁tablesp	-6612
sen	-6613
▁Pit	-6614
▁Coll	-6615
▁noticed	-6616
▁connected	-6617
Don	-6618
▁22,	-6619
▁Minnesota	-6620
▁functions	-6621
▁typically	-6622
More	-6623
▁gall	-6624
▁nurs	-6625
▁conce	-6626
▁Comput	-6627
▁versions	-6628
▁searching	-6629
▁194	-6630
▁attended	-6631
▁therefore	-6632
▁membership	-6633
▁legislation	-6634
GA	-6635
hent	-6636
▁hurt	-6637
▁seed	-6638
▁warn	-6639
▁professor	-6640
▁NAS	-6641
arrow	-6642
▁2010,	-6643
▁teasp	-6644
▁scoring	-6645
▁importance	-6646
▁07	-6647
erts	-6648
▁spin	-6649
▁trend	-6650
▁titles	-6651
On	-6652
enced	-6653
ented	-6654
▁Ball	-6655
▁Italy	-6656
▁02	-6657
aron	-6658
vell	-6659
▁glad	-6660
▁fixed	-6661
▁authorities	-6662
ba	-6663
▁riv	-6664
▁Fred	-6665
▁Small	-6666
▁stands	-6667
▁sudden	-6668
▁delight	-6669
▁witness	-6670
▁Memorial	-6671
phy	-6672
orable	-6673
▁03	-6674
aver	-6675
ework	-6676
▁Stat	-6677
▁bare	-6678
▁input	-6679
▁Perform	-6680
▁follows	-6681
▁offense	-6682
▁identified	-6683
hot	-6684
rible	-6685
ansion	-6686
reprene	-6687
▁freedom	-6688
▁gallery	-6689
▁playoff	-6690
▁transform	-6691
▁tab	-6692
▁Recent	-6693
▁causes	-6694
▁forest	-6695
▁franch	-6696
missions	-6697
86	-6698
Al	-6699
agues	-6700
▁rapid	-6701
▁Gallery	-6702
▁fishing	-6703
▁investors	-6704
▁24,	-6705
▁icon	-6706
▁walked	-6707
▁treated	-6708
▁convenient	-6709
▁($	-6710
▁thus	-6711
▁appeal	-6712
▁univers	-6713
▁everyday	-6714
▁Republicans	-6715
▁27,	-6716
▁tut	-6717
uster	-6718
▁Bell	-6719
▁Which	-6720
▁reduced	-6721
▁approval	-6722
ums	-6723
▁Ms	-6724
▁SU	-6725
▁bound	-6726
ception	-6727
rastructure	-6728
/3	-6729
▁~	-6730
100	-6731
oore	-6732
▁Linux	-6733
▁moves	-6734
▁victim	-6735
▁Iran	-6736
▁pink	-6737
▁festival	-6738
▁painting	-6739
▁du	-6740
▁Building	-6741
1)	-6742
▁hook	-6743
angers	-6744
rition	-6745
▁perman	-6746
▁processes	-6747
▁Link	-6748
arters	-6749
uality	-6750
▁Vegas	-6751
▁Garden	-6752
ibilities	-6753
▁Available	-6754
▁Looking	-6755
▁55	-6756
▁AD	-6757
ylvan	-6758
▁conflic	-6759
RI	-6760
...]	-6761
▁voted	-6762
▁engineering	-6763
ulf	-6764
▁tie	-6765
▁Send	-6766
▁depth	-6767
▁domin	-6768
▁organis	-6769
rics	-6770
amber	-6771
iability	-6772
rives	-6773
▁weak	-6774
▁chapter	-6775
▁rail	-6776
▁Space	-6777
zy	-6778
▁pil	-6779
▁leather	-6780
▁apartment	-6781
▁(6	-6782
rell	-6783
▁400	-6784
▁dangerous	-6785
TC	-6786
bol	-6787
▁Cut	-6788
onto	-6789
▁Mrs	-6790
athan	-6791
▁Dave	-6792
▁liqu	-6793
sembly	-6794
▁severe	-6795
▁massive	-6796
▁Las	-6797
hetic	-6798
▁Priv	-6799
acking	-6800
▁Major	-6801
▁lucky	-6802
▁crisis	-6803
▁Airport	-6804
▁invited	-6805
▁recording	-6806
▁ris	-6807
▁Mess	-6808
▁Editor	-6809
▁apparently	-6810
▁Greg	-6811
▁output	-6812
▁clothes	-6813
▁illustr	-6814
▁Remember	-6815
▁$1.	-6816
▁Cru	-6817
▁Lar	-6818
gment	-6819
▁Kids	-6820
▁thin	-6821
▁abuse	-6822
▁upload	-6823
▁constit	-6824
Ar	-6825
ih	-6826
▁fort	-6827
▁assistant	-6828
▁interface	-6829
▁surrounding	-6830
ogue	-6831
▁Bru	-6832
▁liked	-6833
▁emphas	-6834
page	-6835
▁wra	-6836
▁Think	-6837
▁motiv	-6838
▁Northern	-6839
cons	-6840
made	-6841
▁eleg	-6842
▁occup	-6843
▁decade	-6844
▁hotels	-6845
▁Baltimore	-6846
▁Unfortunately	-6847
lo	-6848
ls	-6849
▁SH	-6850
iley	-6851
iscal	-6852
▁description	-6853
▁u	-6854
▁Hi	-6855
▁Jac	-6856
▁Fall	-6857
▁cock	-6858
▁moder	-6859
▁wheel	-6860
▁anyway	-6861
▁negoti	-6862
▁creation	-6863
▁perspective	-6864
itage	-6865
▁$100	-6866
▁premium	-6867
▁valuable	-6868
▁incredible	-6869
ghan	-6870
▁sample	-6871
▁weapons	-6872
iece	-6873
▁phil	-6874
▁2010.	-6875
▁banks	-6876
▁Safety	-6877
▁availability	-6878
▁ol	-6879
▁reput	-6880
▁Jewish	-6881
oil	-6882
▁9,	-6883
adow	-6884
▁28,	-6885
press	-6886
▁eggs	-6887
▁bottle	-6888
▁unlike	-6889
▁concent	-6890
▁Fac	-6891
▁pin	-6892
igration	-6893
run	-6894
uis	-6895
inations	-6896
29	-6897
you	-6898
▁Ur	-6899
▁Ref	-6900
▁west	-6901
▁spark	-6902
▁reader	-6903
▁script	-6904
▁victims	-6905
▁speaking	-6906
▁scientific	-6907
▁PDF	-6908
rance	-6909
▁(200	-6910
abetes	-6911
▁Golden	-6912
▁dining	-6913
▁murder	-6914
long	-6915
rich	-6916
▁Mov	-6917
▁Adam	-6918
▁Utah	-6919
▁Story	-6920
▁moments	-6921
▁believes	-6922
▁practical	-6923
▁doors	-6924
▁Justice	-6925
▁politics	-6926
▁seriously	-6927
When	-6928
ially	-6929
▁suggested	-6930
ahoo	-6931
▁susp	-6932
cluded	-6933
▁equal	-6934
▁juice	-6935
▁conducted	-6936
▁regularly	-6937
roit	-6938
▁Own	-6939
enger	-6940
▁Austin	-6941
▁involve	-6942
▁negative	-6943
▁Administration	-6944
Ad	-6945
▁flood	-6946
▁reward	-6947
▁Josh	-6948
▁Source	-6949
▁Secretary	-6950
▁industrial	-6951
abama	-6952
▁Phys	-6953
▁soul	-6954
▁Comment	-6955
▁attorney	-6956
born	-6957
▁syn	-6958
rical	-6959
orders	-6960
▁Brook	-6961
▁mixed	-6962
▁Steven	-6963
▁happening	-6964
▁HP	-6965
▁Kh	-6966
▁Sav	-6967
▁island	-6968
▁aspects	-6969
▁cookies	-6970
law	-6971
pat	-6972
▁lapt	-6973
respond	-6974
▁conserv	-6975
▁computers	-6976
anges	-6977
▁styl	-6978
▁strike	-6979
▁joy	-6980
osite	-6981
▁Labor	-6982
▁savings	-6983
▁Financial	-6984
36	-6985
An	-6986
idi	-6987
▁flash	-6988
▁sorry	-6989
ani	-6990
▁sheet	-6991
▁spoke	-6992
▁tested	-6993
▁village	-6994
▁directed	-6995
▁institutions	-6996
,'	-6997
case	-6998
ingu	-6999
▁addresses	-7000
▁employment	-7001
▁exhibition	-7002
▁CON	-7003
▁rac	-7004
inder	-7005
▁2002	-7006
▁Save	-7007
▁advis	-7008
ylvania	-7009
▁Corporation	-7010
ati	-7011
▁bags	-7012
!”	-7013
3)	-7014
writ	-7015
▁Royal	-7016
▁passing	-7017
▁ourselves	-7018
stone	-7019
▁Film	-7020
▁column	-7021
▁unable	-7022
▁Son	-7023
class	-7024
intend	-7025
▁Event	-7026
▁Hills	-7027
▁goods	-7028
▁kinds	-7029
▁Joseph	-7030
▁knowing	-7031
Un	-7032
▁PH	-7033
anny	-7034
▁Non	-7035
child	-7036
▁Prin	-7037
reland	-7038
▁factor	-7039
DS	-7040
kee	-7041
▁hell	-7042
▁joining	-7043
▁adm	-7044
essed	-7045
osoph	-7046
▁Bern	-7047
ership	-7048
▁Never	-7049
▁desire	-7050
▁relatively	-7051
96	-7052
bro	-7053
ilty	-7054
▁Come	-7055
▁dough	-7056
▁Should	-7057
▁Location	-7058
▁arms	-7059
▁bear	-7060
▁hosted	-7061
▁Studies	-7062
▁oz	-7063
▁inch	-7064
▁quant	-7065
▁simpl	-7066
▁Software	-7067
cious	-7068
▁Season	-7069
▁alcohol	-7070
▁trading	-7071
▁manufacturing	-7072
▁Est	-7073
▁ast	-7074
▁Talk	-7075
ossible	-7076
▁belong	-7077
▁furniture	-7078
▁developers	-7079
78	-7080
▁rum	-7081
▁wet	-7082
▁Case	-7083
▁mile	-7084
▁cooper	-7085
▁analyst	-7086
▁nuclear	-7087
▁explained	-7088
)|	-7089
eller	-7090
inals	-7091
hentic	-7092
▁phones	-7093
▁authors	-7094
▁channel	-7095
▁Published	-7096
▁Ly	-7097
▁herself	-7098
▁ongoing	-7099
▁portion	-7100
▁Dun	-7101
▁Gro	-7102
▁Medicine	-7103
▁domestic	-7104
▁programming	-7105
esy	-7106
rum	-7107
▁CL	-7108
▁URL	-7109
▁Penns	-7110
▁Anderson	-7111
▁eligible	-7112
bel	-7113
▁Alabama	-7114
▁interior	-7115
▁affordable	-7116
xy	-7117
zes	-7118
▁Ap	-7119
▁Arm	-7120
uling	-7121
▁encouraged	-7122
▁mic	-7123
ounce	-7124
▁Scot	-7125
▁Harry	-7126
▁Would	-7127
▁Finally	-7128
▁mountain	-7129
▁historical	-7130
▁garlic	-7131
▁entirely	-7132
▁organized	-7133
▁contemporary	-7134
▁Sea	-7135
anned	-7136
▁moist	-7137
▁younger	-7138
nam	-7139
cers	-7140
▁150	-7141
eding	-7142
▁Dream	-7143
▁Stock	-7144
▁enable	-7145
ographic	-7146
▁watched	-7147
▁Marketing	-7148
▁atmosphere	-7149
Tube	-7150
flow	-7151
oral	-7152
▁Cra	-7153
▁pray	-7154
▁aside	-7155
▁defend	-7156
▁ceremony	-7157
▁estimated	-7158
UC	-7159
▁04	-7160
heast	-7161
▁circum	-7162
▁sending	-7163
▁examples	-7164
Le	-7165
▁26,	-7166
▁auto	-7167
▁boxes	-7168
▁hitting	-7169
▁Beaut	-7170
▁injured	-7171
▁matters	-7172
▁lighting	-7173
▁Ltd	-7174
abeth	-7175
▁Golf	-7176
▁vend	-7177
▁wash	-7178
▁routine	-7179
▁packages	-7180
UL	-7181
folio	-7182
▁Anth	-7183
▁linked	-7184
▁complic	-7185
sm	-7186
asks	-7187
http	-7188
owned	-7189
▁Again	-7190
▁clinical	-7191
▁wireless	-7192
▁suggestions	-7193
▁drawing	-7194
▁Democratic	-7195
alo	-7196
▁38	-7197
ilit	-7198
irms	-7199
olis	-7200
▁Line	-7201
▁trib	-7202
▁Return	-7203
American	-7204
▁typical	-7205
▁strategies	-7206
Com	-7207
▁Tro	-7208
razil	-7209
▁Very	-7210
person	-7211
▁Ireland	-7212
▁Resources	-7213
ione	-7214
▁USB	-7215
pected	-7216
▁Sales	-7217
▁superv	-7218
▁fitness	-7219
AY	-7220
fs	-7221
▁Ath	-7222
▁Cro	-7223
▁tip	-7224
▁Columbia	-7225
▁listening	-7226
car	-7227
▁mal	-7228
▁bench	-7229
▁solar	-7230
▁nearby	-7231
▁innings	-7232
mary	-7233
▁Bon	-7234
▁Cab	-7235
▁Kar	-7236
▁sole	-7237
▁Kelly	-7238
bles	-7239
▁Sym	-7240
▁Dark	-7241
▁boot	-7242
▁votes	-7243
resents	-7244
▁carefully	-7245
▁expertise	-7246
CD	-7247
▁ML	-7248
ultural	-7249
▁privacy	-7250
▁enforcement	-7251
▁successfully	-7252
34	-7253
▁rein	-7254
rovers	-7255
▁Hawai	-7256
▁[...]	-7257
▁oppon	-7258
▁height	-7259
▁replaced	-7260
▁awareness	-7261
▁29,	-7262
▁cycle	-7263
▁heads	-7264
▁Member	-7265
▁Register	-7266
▁providers	-7267
▁publication	-7268
izer	-7269
ATION	-7270
ether	-7271
▁Point	-7272
▁taught	-7273
▁identity	-7274
▁medicine	-7275
▁Pennsylvania	-7276
▁Ent	-7277
▁Mill	-7278
▁Moore	-7279
▁counsel	-7280
ador	-7281
ouri	-7282
▁Tax	-7283
▁prepar	-7284
▁prompt	-7285
▁Detroit	-7286
▁Customer	-7287
▁networks	-7288
ORE	-7289
▁ads	-7290
acked	-7291
▁rose	-7292
▁assault	-7293
▁Bad	-7294
▁hat	-7295
▁trips	-7296
utional	-7297
▁Collection	-7298
▁volunteers	-7299
37	-7300
va	-7301
pty	-7302
yers	-7303
achel	-7304
▁Motor	-7305
▁blocks	-7306
▁papers	-7307
▁Theatre	-7308
▁construct	-7309
▁categories	-7310
▁continuing	-7311
▁anniversary	-7312
▁inspiration	-7313
▁transportation	-7314
equ	-7315
zer	-7316
▁Ren	-7317
▁Hold	-7318
▁grass	-7319
▁knock	-7320
▁colour	-7321
▁cleaning	-7322
▁significantly	-7323
!!!!	-7324
raud	-7325
ilton	-7326
▁Lewis	-7327
iveness	-7328
▁anticip	-7329
▁championship	-7330
da	-7331
/10	-7332
odge	-7333
cknow	-7334
▁Baby	-7335
▁prove	-7336
▁junior	-7337
▁destroy	-7338
▁Jam	-7339
▁Marc	-7340
▁Intel	-7341
orgeous	-7342
▁filter	-7343
▁Express	-7344
bal	-7345
▁49	-7346
▁1-8	-7347
▁Mir	-7348
▁Happy	-7349
unction	-7350
▁foundation	-7351
▁Isl	-7352
▁Toy	-7353
▁Jord	-7354
▁Size	-7355
▁Webs	-7356
▁Credit	-7357
▁promise	-7358
▁Regional	-7359
▁photography	-7360
▁replacement	-7361
▁infrastructure	-7362
nic	-7363
wich	-7364
▁Ros	-7365
▁Prom	-7366
▁Phill	-7367
▁manner	-7368
▁scientists	-7369
▁destination	-7370
▁Cy	-7371
bell	-7372
▁displ	-7373
▁singer	-7374
umer	-7375
▁domain	-7376
▁Standard	-7377
▁calendar	-7378
▁represents	-7379
Pl	-7380
▁Creek	-7381
▁saved	-7382
▁fairly	-7383
▁Station	-7384
▁percentage	-7385
All	-7386
ista	-7387
umps	-7388
▁Ave	-7389
front	-7390
▁rear	-7391
▁tiny	-7392
▁finds	-7393
▁expressed	-7394
▁newspaper	-7395
uan	-7396
▁65	-7397
amps	-7398
▁merch	-7399
▁wealth	-7400
▁Toronto	-7401
▁matches	-7402
▁Bry	-7403
▁coc	-7404
▁east	-7405
▁Server	-7406
▁boards	-7407
▁carried	-7408
FA	-7409
ept	-7410
▁lit	-7411
▁nom	-7412
▁riding	-7413
dale	-7414
▁river	-7415
pes	-7416
▁Eliz	-7417
▁execut	-7418
des	-7419
▁Yet	-7420
shire	-7421
▁touchdown	-7422
cludes	-7423
▁motion	-7424
▁narrow	-7425
▁immediate	-7426
▁transition	-7427
oln	-7428
pton	-7429
▁lad	-7430
.....	-7431
▁enem	-7432
▁tank	-7433
▁zone	-7434
▁2009,	-7435
▁Flash	-7436
▁winners	-7437
▁Sometimes	-7438
38	-7439
gypt	-7440
books	-7441
▁hole	-7442
▁Afghan	-7443
▁reject	-7444
▁Shipping	-7445
▁somewhere	-7446
▁64	-7447
▁Pa	-7448
▁III	-7449
▁ski	-7450
mates	-7451
▁coin	-7452
▁bunch	-7453
▁Brazil	-7454
▁talked	-7455
▁frequently	-7456
▁lin	-7457
▁Howard	-7458
▁trends	-7459
▁ultimate	-7460
▁statements	-7461
▁37	-7462
▁obl	-7463
▁Heart	-7464
▁describe	-7465
Book	-7466
▁chart	-7467
▁scores	-7468
▁entries	-7469
▁adventure	-7470
▁integrated	-7471
▁improvement	-7472
/200	-7473
▁Dam	-7474
acher	-7475
▁hall	-7476
makers	-7477
▁crash	-7478
clusion	-7479
▁termin	-7480
▁chopped	-7481
▁opinions	-7482
▁constantly	-7483
▁shr	-7484
uters	-7485
worth	-7486
▁lets	-7487
amsung	-7488
▁struck	-7489
▁Eastern	-7490
▁awarded	-7491
▁diverse	-7492
▁objects	-7493
▁proposal	-7494
▁collected	-7495
▁efficiency	-7496
hire	-7497
asted	-7498
▁Easy	-7499
▁giant	-7500
▁layer	-7501
▁Britain	-7502
▁YouTube	-7503
level	-7504
▁Name	-7505
▁tied	-7506
▁spokesman	-7507
▁announcement	-7508
ras	-7509
▁800	-7510
▁dim	-7511
▁vit	-7512
▁arrive	-7513
▁capture	-7514
▁contribute	-7515
▁sustainable	-7516
▁06	-7517
▁Pur	-7518
▁sky	-7519
▁Arab	-7520
▁displayed	-7521
▁quarterback	-7522
She	-7523
▁Give	-7524
bridge	-7525
▁Force	-7526
▁chose	-7527
onymous	-7528
________	-7529
▁Personal	-7530
▁requests	-7531
aze	-7532
▁kit	-7533
▁Five	-7534
▁planet	-7535
▁viewing	-7536
▁recognize	-7537
iro	-7538
▁CO	-7539
keep	-7540
▁Cas	-7541
ingly	-7542
▁rice	-7543
▁Index	-7544
▁Sound	-7545
▁prize	-7546
▁Mother	-7547
▁illegal	-7548
▁reliable	-7549
▁Meanwhile	-7550
▁Action	-7551
fficient	-7552
▁capable	-7553
▁franchise	-7554
▁increases	-7555
▁surprising	-7556
anes	-7557
incoln	-7558
▁marks	-7559
▁Annual	-7560
▁believed	-7561
▁contained	-7562
▁returning	-7563
▁Es	-7564
▁Ha	-7565
▁Buff	-7566
▁Square	-7567
▁infect	-7568
▁string	-7569
▁claimed	-7570
▁compete	-7571
▁performances	-7572
▁Rh	-7573
pson	-7574
▁Rub	-7575
▁Pict	-7576
▁blogs	-7577
ronics	-7578
▁enroll	-7579
▁scenes	-7580
▁certific	-7581
▁enjoying	-7582
▁Associated	-7583
.’	-7584
QL	-7585
mal	-7586
▁Tel	-7587
▁fle	-7588
▁acknow	-7589
ervations	-7590
.5	-7591
RS	-7592
▁FL	-7593
Star	-7594
▁slic	-7595
▁guilty	-7596
▁rebounds	-7597
EG	-7598
▁forth	-7599
▁virtual	-7600
cop	-7601
▁Zeal	-7602
▁butt	-7603
▁assum	-7604
▁quote	-7605
▁pocket	-7606
bi	-7607
tw	-7608
heim	-7609
▁bab	-7610
▁Mayor	-7611
ologist	-7612
▁excess	-7613
▁patterns	-7614
▁realized	-7615
▁(7	-7616
rite	-7617
▁ham	-7618
ensus	-7619
▁Stew	-7620
▁Henry	-7621
▁border	-7622
▁proven	-7623
▁elected	-7624
▁thorough	-7625
▁discussed	-7626
▁performing	-7627
Our	-7628
▁$6	-7629
▁sew	-7630
▁soccer	-7631
▁context	-7632
▁creates	-7633
▁protein	-7634
▁household	-7635
▁Bed	-7636
▁roof	-7637
▁Anton	-7638
▁stone	-7639
▁trick	-7640
▁Tennes	-7641
▁jewelry	-7642
▁holidays	-7643
omy	-7644
vas	-7645
▁(0	-7646
stra	-7647
▁Bow	-7648
▁legs	-7649
▁controvers	-7650
AND	-7651
▁2-	-7652
▁Camer	-7653
▁coaches	-7654
▁occurred	-7655
▁Po	-7656
▁UP	-7657
▁Mail	-7658
▁Smart	-7659
▁volunteer	-7660
▁correspond	-7661
Con	-7662
▁DO	-7663
stal	-7664
▁31,	-7665
▁Jess	-7666
▁Trib	-7667
▁Egypt	-7668
▁Image	-7669
▁accessible	-7670
uls	-7671
▁tape	-7672
▁attached	-7673
▁contribut	-7674
▁procedures	-7675
quir	-7676
▁san	-7677
▁poet	-7678
▁shirt	-7679
▁hospit	-7680
▁legend	-7681
▁default	-7682
dro	-7683
nda	-7684
▁2001	-7685
▁Emer	-7686
▁Allen	-7687
▁luxury	-7688
▁theory	-7689
▁bedroom	-7690
▁justice	-7691
▁improving	-7692
▁interactive	-7693
▁expectations	-7694
MP	-7695
▁af	-7696
▁vast	-7697
iously	-7698
phones	-7699
▁Asian	-7700
▁noise	-7701
▁Justin	-7702
friendly	-7703
▁Olympic	-7704
▁Patrick	-7705
▁therapy	-7706
▁Missouri	-7707
▁participating	-7708
▁communications	-7709
ura	-7710
uration	-7711
▁Studio	-7712
▁Elizabeth	-7713
mann	-7714
that	-7715
▁Oil	-7716
▁split	-7717
▁Having	-7718
▁Dog	-7719
▁Hay	-7720
▁actor	-7721
▁combine	-7722
▁shipped	-7723
Tr	-7724
amel	-7725
▁Put	-7726
stein	-7727
▁amend	-7728
▁walls	-7729
▁ET	-7730
▁Six	-7731
▁Tal	-7732
▁Clean	-7733
▁chances	-7734
▁founded	-7735
▁Championship	-7736
sole	-7737
▁Stay	-7738
▁spots	-7739
▁Player	-7740
▁compat	-7741
▁gotten	-7742
▁headed	-7743
▁refund	-7744
▁forever	-7745
94	-7746
▁magic	-7747
▁newly	-7748
▁Jordan	-7749
▁relief	-7750
▁Zealand	-7751
▁presents	-7752
▁classroom	-7753
▁procedure	-7754
▁effectively	-7755
eman	-7756
▁Pak	-7757
▁pra	-7758
uties	-7759
▁Tags	-7760
▁Wine	-7761
▁Break	-7762
▁Queen	-7763
▁Forest	-7764
▁Schools	-7765
▁closely	-7766
▁Products	-7767
▁Corp	-7768
▁ending	-7769
▁origin	-7770
▁Samsung	-7771
▁doctors	-7772
▁exposure	-7773
▁Democrats	-7774
▁traveling	-7775
oir	-7776
▁Among	-7777
▁graphics	-7778
▁suffered	-7779
▁Entertain	-7780
▁certified	-7781
▁Professional	-7782
Be	-7783
New	-7784
▁FR	-7785
wered	-7786
▁ancient	-7787
▁upgrade	-7788
▁obviously	-7789
isa	-7790
pass	-7791
▁Conf	-7792
▁dynamic	-7793
▁gorgeous	-7794
▁challenging	-7795
acc	-7796
style	-7797
▁illness	-7798
▁bathroom	-7799
▁contrast	-7800
▁normally	-7801
▁extension	-7802
▁Choose	-7803
▁marked	-7804
pret	-7805
▁Pen	-7806
yrics	-7807
▁seats	-7808
including	-7809
▁Kentucky	-7810
▁Tennessee	-7811
▁exec	-7812
▁nomin	-7813
▁writes	-7814
▁Indiana	-7815
▁signature	-7816
▁reasonable	-7817
▁(8	-7818
icide	-7819
▁blank	-7820
▁clubs	-7821
▁pharm	-7822
ocation	-7823
▁assists	-7824
▁distinct	-7825
▁Originally	-7826
▁Du	-7827
aste	-7828
hour	-7829
▁Gre	-7830
▁iPod	-7831
▁2008,	-7832
▁Korea	-7833
▁Total	-7834
▁sight	-7835
winning	-7836
▁Cancer	-7837
▁breaking	-7838
▁instance	-7839
▁stunning	-7840
▁44	-7841
esides	-7842
▁chips	-7843
▁decre	-7844
▁assets	-7845
▁bridge	-7846
▁teaspoon	-7847
▁personally	-7848
55	-7849
▁Kir	-7850
▁Sarah	-7851
▁explains	-7852
▁Questions	-7853
▁Norm	-7854
▁Sony	-7855
▁vibr	-7856
▁Spain	-7857
▁Table	-7858
▁skill	-7859
▁Perhaps	-7860
▁strange	-7861
▁Insurance	-7862
yes	-7863
▁Living	-7864
▁trained	-7865
▁consistent	-7866
cycle	-7867
▁urban	-7868
▁programme	-7869
▁qualified	-7870
▁Op	-7871
▁Ten	-7872
▁talented	-7873
oker	-7874
icate	-7875
idance	-7876
▁anymore	-7877
▁experiment	-7878
▁contributions	-7879
isp	-7880
▁thinks	-7881
▁Baseball	-7882
▁Solutions	-7883
▁officially	-7884
teen	-7885
iform	-7886
▁indeed	-7887
▁accused	-7888
▁writers	-7889
▁lifestyle	-7890
▁photographs	-7891
So	-7892
EST	-7893
▁42	-7894
▁Iss	-7895
/2013	-7896
inent	-7897
▁bars	-7898
▁magn	-7899
▁Short	-7900
▁sharp	-7901
▁Restaur	-7902
▁entreprene	-7903
▁guidelines	-7904
Sc	-7905
How	-7906
▁bow	-7907
inity	-7908
▁Bull	-7909
itable	-7910
▁Bible	-7911
▁Matthew	-7912
▁Tele	-7913
▁login	-7914
▁opens	-7915
▁tweet	-7916
▁Events	-7917
▁dollar	-7918
▁Supreme	-7919
▁extract	-7920
▁managing	-7921
▁Mach	-7922
▁empty	-7923
▁Agency	-7924
▁Histor	-7925
▁Natural	-7926
▁Reviews	-7927
▁listing	-7928
▁everybody	-7929
▁reputation	-7930
-20	-7931
alse	-7932
then	-7933
▁Doc	-7934
▁Has	-7935
ureau	-7936
▁Host	-7937
▁dust	-7938
▁pace	-7939
▁alive	-7940
▁Lincoln	-7941
'.	-7942
,000.	-7943
eling	-7944
▁acid	-7945
▁Front	-7946
▁sixth	-7947
▁Interest	-7948
▁handling	-7949
▁collaboration	-7950
iac	-7951
▁Ba	-7952
alle	-7953
▁pod	-7954
▁Band	-7955
▁fest	-7956
▁Study	-7957
▁smile	-7958
▁agents	-7959
▁Classic	-7960
▁suggests	-7961
aine	-7962
olit	-7963
▁Books	-7964
▁Latin	-7965
▁Marsh	-7966
▁Winter	-7967
▁remark	-7968
▁Updated	-7969
▁producer	-7970
town	-7971
▁mut	-7972
▁Dead	-7973
▁ease	-7974
▁heav	-7975
▁unus	-7976
ounter	-7977
▁shell	-7978
▁warning	-7979
▁basically	-7980
▁improvements	-7981
▁#1	-7982
tail	-7983
▁Ide	-7984
▁Nic	-7985
▁Andy	-7986
▁frag	-7987
▁loans	-7988
▁weren	-7989
▁fiscal	-7990
▁landscape	-7991
▁appointment	-7992
oned	-7993
▁Deb	-7994
▁Pitts	-7995
▁shouldn	-7996
SC	-7997
blog	-7998
/2012	-7999
words	-8000
▁Month	-8001
▁agric	-8002
▁breath	-8003
▁celebration	-8004
▁presidential	-8005
?)	-8006
lers	-8007
▁Ban	-8008
▁Hart	-8009
▁consequ	-8010
▁informed	-8011
▁requested	-8012
▁monitoring	-8013
ais	-8014
inar	-8015
▁raw	-8016
▁Style	-8017
▁Challen	-8018
▁Explore	-8019
▁cameras	-8020
▁somewhat	-8021
▁increasingly	-8022
cut	-8023
leep	-8024
earing	-8025
▁visited	-8026
oen	-8027
▁Sug	-8028
onder	-8029
▁blend	-8030
illiant	-8031
▁Harris	-8032
▁finance	-8033
▁veteran	-8034
▁assessment	-8035
aza	-8036
▁NO	-8037
ints	-8038
rist	-8039
▁2009.	-8040
▁Stadium	-8041
▁killing	-8042
▁;	-8043
Read	-8044
▁$20	-8045
ogether	-8046
▁Edition	-8047
▁compens	-8048
▁signing	-8049
▁permanent	-8050
▁responded	-8051
De	-8052
EA	-8053
Is	-8054
bow	-8055
▁Resp	-8056
▁diss	-8057
▁mand	-8058
▁Everyone	-8059
▁Champions	-8060
9)	-8061
stream	-8062
▁Irish	-8063
▁recre	-8064
▁Jennifer	-8065
▁priority	-8066
▁authentic	-8067
▁dad	-8068
▁buck	-8069
ingers	-8070
▁Sorry	-8071
▁drama	-8072
▁phase	-8073
▁pizza	-8074
▁Change	-8075
▁nights	-8076
▁possibility	-8077
RC	-8078
she	-8079
war	-8080
▁Vice	-8081
▁Coach	-8082
▁Ocean	-8083
▁Further	-8084
▁clicking	-8085
▁machines	-8086
uten	-8087
▁Trail	-8088
▁protected	-8089
MC	-8090
urb	-8091
umni	-8092
▁Mix	-8093
▁stim	-8094
▁meets	-8095
▁catalog	-8096
▁drinking	-8097
▁sections	-8098
▁involving	-8099
▁Communications	-8100
edu	-8101
etts	-8102
▁EST	-8103
▁puzz	-8104
▁proceed	-8105
▁recover	-8106
▁recognition	-8107
▁recommendations	-8108
▁Mom	-8109
oints	-8110
▁king	-8111
▁Guard	-8112
▁stuck	-8113
▁racing	-8114
▁Account	-8115
▁enthusi	-8116
▁heading	-8117
▁circumst	-8118
▁interviews	-8119
▁Engineering	-8120
:15	-8121
▁CP	-8122
ighth	-8123
▁fasc	-8124
▁Website	-8125
▁filling	-8126
vard	-8127
▁Auto	-8128
▁Ross	-8129
▁Spec	-8130
▁Youth	-8131
▁clock	-8132
▁smell	-8133
▁Anthony	-8134
▁attending	-8135
▁wondering	-8136
64	-8137
AB	-8138
▁00	-8139
▁McG	-8140
▁hel	-8141
entle	-8142
▁facts	-8143
▁recru	-8144
▁comedy	-8145
▁saving	-8146
▁emotional	-8147
▁vegetables	-8148
hops	-8149
▁$50	-8150
iking	-8151
▁Meth	-8152
▁wake	-8153
▁birds	-8154
▁habit	-8155
▁favourite	-8156
▁representative	-8157
▁Bat	-8158
empts	-8159
opher	-8160
▁edit	-8161
▁Money	-8162
▁adapt	-8163
▁setup	-8164
▁union	-8165
ILL	-8166
▁Heat	-8167
▁solo	-8168
▁passes	-8169
▁Tickets	-8170
▁retired	-8171
unes	-8172
▁Quick	-8173
▁Create	-8174
▁symbol	-8175
▁Sheriff	-8176
▁operate	-8177
▁memories	-8178
▁discounts	-8179
▁NBA	-8180
▁god	-8181
▁tub	-8182
sters	-8183
▁Beck	-8184
▁Bird	-8185
▁puts	-8186
ortion	-8187
▁bills	-8188
▁chest	-8189
▁scheme	-8190
▁Clinton	-8191
aga	-8192
date	-8193
▁hyp	-8194
venth	-8195
▁vital	-8196
▁coaching	-8197
▁capabilities	-8198
To	-8199
IGH	-8200
▁suc	-8201
▁Comb	-8202
▁Days	-8203
▁Gift	-8204
▁lect	-8205
▁mere	-8206
▁trim	-8207
▁Pract	-8208
▁closing	-8209
▁admitted	-8210
▁ultimately	-8211
▁4-	-8212
▁je	-8213
▁Ark	-8214
asant	-8215
oured	-8216
▁Yahoo	-8217
▁comic	-8218
▁loose	-8219
ication	-8220
▁bodies	-8221
▁prohib	-8222
▁Version	-8223
▁falling	-8224
▁mailing	-8225
▁vintage	-8226
▁carrying	-8227
▁Transport	-8228
fall	-8229
week	-8230
▁Cow	-8231
▁NCAA	-8232
▁Level	-8233
▁shops	-8234
▁Orange	-8235
▁dealing	-8236
▁pricing	-8237
▁Attorney	-8238
▁warranty	-8239
▁strategic	-8240
▁instrument	-8241
▁EX	-8242
orne	-8243
atics	-8244
▁laptop	-8245
▁portfolio	-8246
▁situations	-8247
chers	-8248
▁Must	-8249
▁terr	-8250
▁formed	-8251
▁slowly	-8252
▁exception	-8253
▁Entertainment	-8254
otten	-8255
▁hung	-8256
▁Update	-8257
▁intense	-8258
from	-8259
ulpt	-8260
▁hal	-8261
▁orange	-8262
▁packed	-8263
/11	-8264
▁Lyn	-8265
▁rug	-8266
icket	-8267
orses	-8268
▁Cand	-8269
▁Following	-8270
▁healthcare	-8271
▁highlights	-8272
▁regulations	-8273
▁Environmental	-8274
▁bonus	-8275
written	-8276
▁pregnancy	-8277
▁primarily	-8278
',	-8279
ALL	-8280
aug	-8281
▁Laure	-8282
▁dishes	-8283
▁matching	-8284
attan	-8285
▁Snow	-8286
market	-8287
▁lemon	-8288
▁ocean	-8289
▁factory	-8290
▁innovation	-8291
▁instruction	-8292
iate	-8293
▁vul	-8294
print	-8295
▁beef	-8296
▁Psych	-8297
▁meals	-8298
▁Friends	-8299
▁Village	-8300
char	-8301
▁Core	-8302
▁Swed	-8303
▁discl	-8304
▁Bridge	-8305
▁theater	-8306
▁Portland	-8307
▁covering	-8308
▁generate	-8309
▁stations	-8310
▁subscription	-8311
olds	-8312
yler	-8313
▁10-	-8314
▁era	-8315
▁Cool	-8316
▁boss	-8317
giving	-8318
osophy	-8319
▁risks	-8320
▁Football	-8321
▁champion	-8322
▁flexible	-8323
▁accomplish	-8324
▁impossible	-8325
▁distributed	-8326
axy	-8327
igs	-8328
▁Ped	-8329
▁RSS	-8330
aping	-8331
▁Trade	-8332
▁array	-8333
▁drawn	-8334
▁Junior	-8335
▁assign	-8336
graduate	-8337
▁farmers	-8338
▁findings	-8339
▁payments	-8340
▁swimming	-8341
hr	-8342
▁BB	-8343
▁Ox	-8344
▁fulf	-8345
▁swing	-8346
▁compare	-8347
▁engaged	-8348
▁printing	-8349
▁subscribe	-8350
achus	-8351
▁Ever	-8352
▁Pick	-8353
▁Roll	-8354
ardens	-8355
▁Photos	-8356
▁edited	-8357
▁Sciences	-8358
▁attractive	-8359
▁initiative	-8360
▁Ah	-8361
asses	-8362
▁User	-8363
▁Posts	-8364
▁flying	-8365
39	-8366
sex	-8367
▁Nut	-8368
▁Sem	-8369
▁Burn	-8370
▁Polit	-8371
▁Common	-8372
▁Cooper	-8373
▁hidden	-8374
▁intent	-8375
▁causing	-8376
▁designers	-8377
▁SS	-8378
athy	-8379
▁Dor	-8380
▁Dick	-8381
▁Anyone	-8382
▁acting	-8383
▁external	-8384
uer	-8385
▁lie	-8386
▁batt	-8387
oosing	-8388
itution	-8389
▁voting	-8390
▁defined	-8391
▁desktop	-8392
▁speaker	-8393
▁checking	-8394
▁entering	-8395
PC	-8396
▁Bol	-8397
▁Pin	-8398
▁Gary	-8399
▁Steel	-8400
▁Stone	-8401
▁Athlet	-8402
▁widely	-8403
▁Pakistan	-8404
▁obtained	-8405
▁substant	-8406
▁telephone	-8407
ko	-8408
/12	-8409
▁drinks	-8410
▁ranked	-8411
▁stayed	-8412
▁aggress	-8413
▁Learning	-8414
▁!	-8415
▁AB	-8416
etic	-8417
eland	-8418
ellite	-8419
▁Judge	-8420
▁Sandy	-8421
▁solve	-8422
▁centers	-8423
▁raising	-8424
▁travell	-8425
▁everywhere	-8426
▁retirement	-8427
▁participation	-8428
▁cos	-8429
asket	-8430
▁Round	-8431
▁proof	-8432
▁Things	-8433
▁Stewart	-8434
▁attempts	-8435
▁controls	-8436
▁shoulder	-8437
68	-8438
UM	-8439
▁Os	-8440
mart	-8441
aters	-8442
▁Past	-8443
▁drag	-8444
▁fits	-8445
▁grad	-8446
▁unem	-8447
▁yield	-8448
▁Valent	-8449
▁errors	-8450
▁Capital	-8451
▁Chapter	-8452
▁Details	-8453
▁instant	-8454
▁authority	-8455
▁Osc	-8456
▁Iron	-8457
▁cats	-8458
▁clar	-8459
▁yard	-8460
▁Bloom	-8461
▁cotton	-8462
▁shower	-8463
achusetts	-8464
▁SA	-8465
inth	-8466
▁250	-8467
▁Yan	-8468
obody	-8469
▁coat	-8470
▁Celebr	-8471
▁finger	-8472
▁transp	-8473
▁Channel	-8474
▁Officer	-8475
▁releases	-8476
oda	-8477
oked	-8478
▁Tell	-8479
▁deck	-8480
ingham	-8481
▁fundra	-8482
elson	-8483
▁Kind	-8484
▁maps	-8485
▁Sweet	-8486
▁smoke	-8487
▁chairman	-8488
67	-8489
HA	-8490
bits	-8491
▁Fab	-8492
▁LED	-8493
etary	-8494
▁Russia	-8495
▁behalf	-8496
▁loving	-8497
▁preparation	-8498
rate	-8499
▁2.0	-8500
▁ABC	-8501
▁Pear	-8502
▁Shel	-8503
▁plot	-8504
▁salad	-8505
▁cooked	-8506
▁criteria	-8507
▁SO	-8508
ashes	-8509
▁Title	-8510
▁fraud	-8511
▁squad	-8512
ighters	-8513
▁Eagles	-8514
▁copies	-8515
▁Subscribe	-8516
31	-8517
:45	-8518
▁95	-8519
anged	-8520
▁Cloud	-8521
▁Final	-8522
▁Prime	-8523
▁entit	-8524
▁pants	-8525
▁Denver	-8526
▁aircraft	-8527
NT	-8528
olar	-8529
rete	-8530
▁bid	-8531
▁Bang	-8532
▁jail	-8533
▁plain	-8534
▁minister	-8535
▁pleasure	-8536
ipes	-8537
upid	-8538
▁mac	-8539
plate	-8540
▁buff	-8541
▁decent	-8542
▁southern	-8543
▁superior	-8544
itis	-8545
▁1999	-8546
▁Orle	-8547
▁evol	-8548
▁bands	-8549
▁casual	-8550
▁rising	-8551
oty	-8552
whel	-8553
riger	-8554
▁fired	-8555
▁hosts	-8556
▁screens	-8557
▁keyboard	-8558
▁remained	-8559
▁weird	-8560
▁Simply	-8561
▁Collect	-8562
▁Highway	-8563
▁sponsored	-8564
==	-8565
rad	-8566
▁$7	-8567
▁Ast	-8568
▁Ice	-8569
minute	-8570
ricane	-8571
quality	-8572
▁liquid	-8573
▁reducing	-8574
▁manufacturers	-8575
▁Song	-8576
▁bass	-8577
▁Perry	-8578
▁assume	-8579
▁formal	-8580
otte	-8581
uine	-8582
▁root	-8583
▁Barack	-8584
▁Former	-8585
▁inning	-8586
aturally	-8587
▁reviewed	-8588
▁workshop	-8589
▁Sox	-8590
iants	-8591
riers	-8592
▁duty	-8593
▁reply	-8594
▁resort	-8595
▁networking	-8596
▁pic	-8597
▁sear	-8598
▁Michel	-8599
▁dreams	-8600
▁Russian	-8601
▁Massachusetts	-8602
rim	-8603
▁DJ	-8604
izon	-8605
raid	-8606
▁coal	-8607
▁Paper	-8608
▁developer	-8609
▁resulting	-8610
▁guaranteed	-8611
4)	-8612
icut	-8613
▁toys	-8614
▁visits	-8615
HS	-8616
gov	-8617
orous	-8618
▁pill	-8619
▁engage	-8620
secutive	-8621
▁checked	-8622
▁Exchange	-8623
sea	-8624
olph	-8625
ceeds	-8626
▁HERE	-8627
▁Nash	-8628
▁elev	-8629
swered	-8630
▁spray	-8631
▁driven	-8632
▁Atlantic	-8633
/8	-8634
mo	-8635
ITY	-8636
ila	-8637
▁DE	-8638
oper	-8639
▁divid	-8640
▁stead	-8641
▁weigh	-8642
clusive	-8643
▁Marine	-8644
▁Orleans	-8645
▁reprodu	-8646
▁staying	-8647
▁colleagues	-8648
▁EU	-8649
▁Sche	-8650
▁embr	-8651
▁soup	-8652
▁trig	-8653
apolis	-8654
▁Pittsburgh	-8655
▁association	-8656
▁collections	-8657
CT	-8658
One	-8659
▁Gun	-8660
ordon	-8661
▁1980	-8662
▁flag	-8663
▁Adobe	-8664
▁seeds	-8665
▁Bureau	-8666
▁drives	-8667
▁Russell	-8668
▁insight	-8669
▁Wars	-8670
▁Susan	-8671
▁Univers	-8672
▁suffering	-8673
300	-8674
mers	-8675
▁Les	-8676
world	-8677
▁Laur	-8678
▁fuck	-8679
apping	-8680
ockets	-8681
▁Fresh	-8682
▁attach	-8683
▁gaming	-8684
▁Continue	-8685
html	-8686
▁hip	-8687
▁1990	-8688
▁Feat	-8689
▁Treat	-8690
▁samples	-8691
▁Lawrence	-8692
▁licensed	-8693
▁technique	-8694
▁implementation	-8695
fish	-8696
oors	-8697
▁11.	-8698
ensity	-8699
iments	-8700
issions	-8701
▁Proper	-8702
▁dating	-8703
▁Harvard	-8704
▁facilit	-8705
▁accuracy	-8706
▁Additional	-8707
oa	-8708
▁CR	-8709
tery	-8710
▁Blu	-8711
▁COM	-8712
▁Rap	-8713
▁gang	-8714
▁mood	-8715
▁Terms	-8716
▁fiber	-8717
faction	-8718
▁Compet	-8719
▁combat	-8720
▁guidance	-8721
▁sponsors	-8722
▁personnel	-8723
▁controlled	-8724
▁differences	-8725
osa	-8726
yth	-8727
iere	-8728
▁Hamp	-8729
▁tone	-8730
▁Being	-8731
▁Represent	-8732
▁statistics	-8733
ML	-8734
▁120	-8735
▁cow	-8736
▁phr	-8737
ifies	-8738
▁lens	-8739
inding	-8740
making	-8741
▁Clark	-8742
▁shift	-8743
▁Alaska	-8744
▁producing	-8745
una	-8746
▁Ra	-8747
aire	-8748
brid	-8749
greg	-8750
lder	-8751
▁Alp	-8752
▁Cry	-8753
▁Inde	-8754
▁acts	-8755
▁aver	-8756
annels	-8757
▁Sport	-8758
▁Hawaii	-8759
▁harder	-8760
▁brilliant	-8761
Fi	-8762
▁cul	-8763
-2013	-8764
▁Chap	-8765
▁Fact	-8766
▁Flow	-8767
ounded	-8768
▁waters	-8769
▁trailer	-8770
Ed	-8771
-11	-8772
etch	-8773
▁HIV	-8774
▁Sale	-8775
▁Sure	-8776
▁bold	-8777
▁loud	-8778
▁tech	-8779
▁quotes	-8780
▁tablet	-8781
▁Element	-8782
▁Chairman	-8783
▁generated	-8784
hol	-8785
▁ALL	-8786
ressed	-8787
▁Greek	-8788
▁olive	-8789
▁Limited	-8790
▁incorpor	-8791
ez	-8792
ogy	-8793
tes	-8794
tha	-8795
▁Nav	-8796
aired	-8797
▁Barn	-8798
ashing	-8799
unicip	-8800
veland	-8801
▁tasks	-8802
▁signal	-8803
▁pointed	-8804
▁conflict	-8805
▁governor	-8806
▁sentence	-8807
▁necessarily	-8808
▁Mah	-8809
▁Ven	-8810
▁Brother	-8811
▁powered	-8812
▁utility	-8813
BO	-8814
▁remov	-8815
▁displays	-8816
▁lifetime	-8817
▁consecutive	-8818
▁architecture	-8819
▁circumstances	-8820
84	-8821
▁39	-8822
▁IM	-8823
cour	-8824
▁ske	-8825
apped	-8826
sized	-8827
▁Civil	-8828
▁balls	-8829
▁roads	-8830
▁twist	-8831
amework	-8832
▁invite	-8833
▁elegant	-8834
▁predict	-8835
▁consists	-8836
▁constant	-8837
▁diabetes	-8838
▁expansion	-8839
▁respective	-8840
▁Connecticut	-8841
IVE	-8842
▁85	-8843
hyth	-8844
liam	-8845
▁Eth	-8846
enter	-8847
▁Sant	-8848
▁Grant	-8849
▁Records	-8850
▁acceler	-8851
▁answered	-8852
▁pregnant	-8853
▁600	-8854
▁bug	-8855
acular	-8856
▁Clear	-8857
▁reduction	-8858
▁Experience	-8859
▁possession	-8860
oto	-8861
▁CT	-8862
▁rig	-8863
▁knee	-8864
icking	-8865
▁Based	-8866
▁Maine	-8867
▁Roman	-8868
▁faced	-8869
▁honey	-8870
▁Perfect	-8871
▁Assistant	-8872
▁finishing	-8873
▁incredibly	-8874
▁Sir	-8875
▁unex	-8876
▁Advis	-8877
▁Prior	-8878
▁roles	-8879
▁neither	-8880
▁stronger	-8881
▁smartphone	-8882
▁discussions	-8883
aa	-8884
awa	-8885
via	-8886
▁McK	-8887
▁rib	-8888
▁Gate	-8889
engers	-8890
▁Wayne	-8891
▁Edward	-8892
▁tennis	-8893
▁desired	-8894
▁lessons	-8895
▁containing	-8896
%.	-8897
May	-8898
och	-8899
oli	-8900
pir	-8901
oust	-8902
▁shoe	-8903
▁Birth	-8904
▁venue	-8905
▁lineup	-8906
▁Article	-8907
▁Reading	-8908
▁Partners	-8909
ASE	-8910
iche	-8911
mate	-8912
▁12.	-8913
▁Gil	-8914
▁lift	-8915
▁torn	-8916
▁auction	-8917
▁struggle	-8918
▁Description	-8919
TML	-8920
uits	-8921
▁Inv	-8922
▁fru	-8923
▁tor	-8924
▁gonna	-8925
▁spaces	-8926
▁Release	-8927
▁managers	-8928
▁component	-8929
At	-8930
wan	-8931
amon	-8932
step	-8933
▁CBS	-8934
▁tsp	-8935
mouth	-8936
overs	-8937
▁mainly	-8938
▁revolution	-8939
IE	-8940
Man	-8941
agan	-8942
▁Jer	-8943
▁NHL	-8944
oween	-8945
uther	-8946
▁sees	-8947
▁Links	-8948
▁firms	-8949
▁Prince	-8950
▁finest	-8951
▁alongside	-8952
▁principles	-8953
▁connections	-8954
pire	-8955
▁NBC	-8956
▁Prop	-8957
▁stro	-8958
▁rival	-8959
liament	-8960
▁Single	-8961
▁suspend	-8962
▁suitable	-8963
87	-8964
bors	-8965
imize	-8966
▁Jane	-8967
▁bomb	-8968
▁pitc	-8969
ussion	-8970
▁compr	-8971
▁stake	-8972
▁tours	-8973
▁aspect	-8974
▁breaks	-8975
ibraries	-8976
▁greatly	-8977
▁unknown	-8978
▁feelings	-8979
▁integration	-8980
▁Sab	-8981
▁Syd	-8982
▁Viet	-8983
▁Whit	-8984
▁vill	-8985
▁Track	-8986
▁Mississ	-8987
▁protest	-8988
▁directory	-8989
dep	-8990
▁id	-8991
aret	-8992
▁Lot	-8993
▁gym	-8994
month	-8995
▁bull	-8996
▁scan	-8997
▁2007,	-8998
▁Users	-8999
▁Protection	-9000
ima	-9001
▁SM	-9002
▁Ton	-9003
Press	-9004
ports	-9005
▁crack	-9006
▁Resort	-9007
▁golden	-9008
▁newest	-9009
▁actress	-9010
▁Governor	-9011
▁reaction	-9012
▁reporter	-9013
▁Restaurant	-9014
KE	-9015
olen	-9016
▁Bag	-9017
▁Bart	-9018
▁Corn	-9019
▁Kong	-9020
▁Krist	-9021
athered	-9022
▁Walker	-9023
▁acquis	-9024
▁Content	-9025
ippi	-9026
▁Gov	-9027
▁Var	-9028
▁Holy	-9029
▁nose	-9030
▁Andre	-9031
▁Appro	-9032
▁fewer	-9033
▁founder	-9034
▁argument	-9035
▁hopefully	-9036
▁languages	-9037
▁Performance	-9038
mat	-9039
wing	-9040
▁Fast	-9041
▁guns	-9042
▁dozen	-9043
▁strict	-9044
▁succeed	-9045
▁Victoria	-9046
▁reception	-9047
eb	-9048
▁unw	-9049
▁Deal	-9050
▁cycl	-9051
▁rural	-9052
▁limits	-9053
▁unusual	-9054
▁dramatic	-9055
▁overwhel	-9056
pay	-9057
▁2)	-9058
▁41	-9059
holders	-9060
▁enables	-9061
▁athletes	-9062
▁literature	-9063
▁purchasing	-9064
2-	-9065
-19	-9066
new	-9067
▁54	-9068
▁Fal	-9069
▁Print	-9070
▁strip	-9071
▁territ	-9072
▁Springs	-9073
▁Relations	-9074
▁childhood	-9075
▁sophistic	-9076
▁conservative	-9077
UST	-9078
▁SD	-9079
▁Lib	-9080
▁cam	-9081
▁soil	-9082
anguage	-9083
▁exceed	-9084
children	-9085
▁Cleveland	-9086
▁newsletter	-9087
IST	-9088
▁Kate	-9089
▁phen	-9090
▁candy	-9091
▁Future	-9092
▁deploy	-9093
▁convert	-9094
▁donations	-9095
ja	-9096
uma	-9097
▁Ga	-9098
oken	-9099
▁Method	-9100
▁versat	-9101
▁Currently	-9102
core	-9103
rena	-9104
▁dual	-9105
▁Speed	-9106
▁Tyler	-9107
▁afraid	-9108
▁browse	-9109
▁tackle	-9110
▁Several	-9111
▁fabulous	-9112
▁reportedly	-9113
ART	-9114
uana	-9115
▁CNN	-9116
▁Wee	-9117
aware	-9118
▁Cher	-9119
papers	-9120
▁admin	-9121
▁pride	-9122
▁Morgan	-9123
▁vulner	-9124
▁Weather	-9125
▁hanging	-9126
▁northern	-9127
NY	-9128
TON	-9129
gree	-9130
letin	-9131
▁vacc	-9132
▁Produ	-9133
▁Scient	-9134
▁margin	-9135
▁literally	-9136
ira	-9137
rets	-9138
▁yours	-9139
▁Tigers	-9140
▁manual	-9141
▁Antonio	-9142
▁Computer	-9143
▁speakers	-9144
▁complaint	-9145
▁expression	-9146
▁convenience	-9147
PG	-9148
-15	-9149
eek	-9150
▁TR	-9151
▁Moon	-9152
▁dont	-9153
▁Model	-9154
limited	-9155
▁achieved	-9156
▁brothers	-9157
▁indicate	-9158
▁subjects	-9159
▁definition	-9160
▁maintaining	-9161
▁intelligence	-9162
OG	-9163
-13	-9164
this	-9165
ropri	-9166
▁Conc	-9167
▁Nort	-9168
▁Pier	-9169
▁ranging	-9170
▁deadline	-9171
▁expanded	-9172
▁involves	-9173
▁whenever	-9174
CS	-9175
Qu	-9176
erald	-9177
oenix	-9178
ricts	-9179
▁Jobs	-9180
lessly	-9181
▁intel	-9182
▁Father	-9183
▁gentle	-9184
▁lowest	-9185
▁Without	-9186
▁visible	-9187
▁BM	-9188
▁Hey	-9189
woman	-9190
▁pets	-9191
irates	-9192
▁Hotels	-9193
▁borrow	-9194
▁Quality	-9195
▁credits	-9196
criptions	-9197
.00	-9198
aha	-9199
▁1)	-9200
▁Hu	-9201
▁Nik	-9202
▁Jean	-9203
▁Leon	-9204
▁Wire	-9205
▁2008.	-9206
▁Early	-9207
▁plane	-9208
▁flower	-9209
▁pp	-9210
▁Fat	-9211
▁loy	-9212
▁Cart	-9213
▁vine	-9214
▁Terry	-9215
▁explos	-9216
▁stable	-9217
▁donation	-9218
▁mortgage	-9219
▁allegedly	-9220
▁sensitive	-9221
▁Gene	-9222
▁tired	-9223
▁Double	-9224
▁recall	-9225
▁Consult	-9226
▁amounts	-9227
▁convent	-9228
▁temperatures	-9229
▁representatives	-9230
6)	-9231
▁Mu	-9232
ders	-9233
▁semi	-9234
▁Weight	-9235
▁counts	-9236
▁Features	-9237
rog	-9238
screen	-9239
▁false	-9240
ordinary	-9241
▁Chamber	-9242
▁repeated	-9243
▁compliment	-9244
▁contributed	-9245
rix	-9246
▁5-	-9247
andal	-9248
elled	-9249
▁Cole	-9250
▁Drug	-9251
▁narr	-9252
▁Mater	-9253
▁absor	-9254
▁brush	-9255
▁Section	-9256
▁servers	-9257
▁athletic	-9258
▁romantic	-9259
▁favorites	-9260
▁directions	-9261
?!	-9262
TE	-9263
outer	-9264
store	-9265
▁evil	-9266
▁vari	-9267
▁Excell	-9268
▁lawyer	-9269
▁Kingdom	-9270
▁independ	-9271
▁impressed	-9272
gets	-9273
▁tact	-9274
▁persons	-9275
▁advertis	-9276
▁opposition	-9277
▁electricity	-9278
▁lip	-9279
▁Bron	-9280
▁beans	-9281
▁onion	-9282
▁pilot	-9283
▁Charlie	-9284
▁largely	-9285
▁uniform	-9286
itionally	-9287
web	-9288
▁Dom	-9289
▁Gordon	-9290
▁buyers	-9291
▁overse	-9292
quarters	-9293
▁contents	-9294
▁religion	-9295
▁appointed	-9296
▁temporary	-9297
▁Afghanistan	-9298
▁6-	-9299
▁CS	-9300
immer	-9301
▁Larry	-9302
▁flights	-9303
▁precise	-9304
▁Original	-9305
▁equipped	-9306
▁regardless	-9307
enth	-9308
mans	-9309
▁Agr	-9310
▁Gab	-9311
▁Opp	-9312
▁Rome	-9313
▁slee	-9314
▁Bring	-9315
▁mouse	-9316
▁races	-9317
▁sculpt	-9318
▁carries	-9319
▁granted	-9320
▁strongly	-9321
▁Mississippi	-9322
Web	-9323
bie	-9324
onic	-9325
▁360	-9326
▁Got	-9327
▁Images	-9328
▁Barbara	-9329
▁Working	-9330
▁penalty	-9331
▁privile	-9332
CO	-9333
ige	-9334
nut	-9335
bean	-9336
▁lies	-9337
▁myst	-9338
▁admit	-9339
▁Wright	-9340
▁stored	-9341
▁preview	-9342
▁freshman	-9343
▁institution	-9344
▁46	-9345
▁DNA	-9346
▁Dak	-9347
▁Near	-9348
▁Falls	-9349
▁muscle	-9350
▁orient	-9351
▁reserve	-9352
▁evaluation	-9353
74	-9354
⁄2	-9355
era	-9356
bled	-9357
▁$25	-9358
▁190	-9359
▁1970	-9360
▁Dean	-9361
▁Lane	-9362
▁wave	-9363
▁Complete	-9364
▁opposite	-9365
▁elections	-9366
ommy	-9367
urse	-9368
▁Age	-9369
▁mob	-9370
▁synt	-9371
▁Simon	-9372
▁Better	-9373
anchester	-9374
▁Planning	-9375
▁earnings	-9376
▁tracking	-9377
%,	-9378
8)	-9379
olec	-9380
▁$2.	-9381
▁voc	-9382
bound	-9383
urious	-9384
▁usage	-9385
▁humans	-9386
▁deficit	-9387
▁graphic	-9388
▁wanting	-9389
▁delivers	-9390
▁initially	-9391
▁physician	-9392
▁promotion	-9393
IDS	-9394
mod	-9395
haust	-9396
rated	-9397
▁Rain	-9398
▁math	-9399
▁Magic	-9400
▁patch	-9401
▁walks	-9402
▁Orland	-9403
▁Sydney	-9404
▁democr	-9405
▁Affairs	-9406
▁Overall	-9407
▁charity	-9408
▁disaster	-9409
▁diversity	-9410
FF	-9411
log	-9412
ader	-9413
athon	-9414
▁clip	-9415
▁explan	-9416
▁Mission	-9417
▁rolling	-9418
▁focusing	-9419
▁producers	-9420
BM	-9421
isan	-9422
itty	-9423
▁Fan	-9424
angel	-9425
▁blind	-9426
▁drove	-9427
▁falls	-9428
▁horses	-9429
▁Holiday	-9430
▁Options	-9431
Up	-9432
Wor	-9433
gie	-9434
▁Der	-9435
omore	-9436
▁Navy	-9437
▁1,000	-9438
▁renov	-9439
ropical	-9440
▁ladies	-9441
▁stupid	-9442
▁careful	-9443
▁suddenly	-9444
▁targeted	-9445
▁Hampshire	-9446
▁indicated	-9447
▁struggling	-9448
ds	-9449
▁cher	-9450
▁lake	-9451
arring	-9452
▁gained	-9453
▁Roberts	-9454
▁referred	-9455
▁preparing	-9456
▁1-	-9457
quis	-9458
ulum	-9459
▁Pant	-9460
▁Text	-9461
ieties	-9462
▁cents	-9463
▁damaged	-9464
▁picking	-9465
▁worried	-9466
▁acquired	-9467
▁principal	-9468
.;	-9469
-14	-9470
▁ME	-9471
▁1.5	-9472
▁Lic	-9473
▁Buck	-9474
▁hire	-9475
strong	-9476
▁reven	-9477
▁fascin	-9478
▁Process	-9479
▁focuses	-9480
▁hunting	-9481
▁singing	-9482
▁stylish	-9483
▁evolution	-9484
▁workshops	-9485
▁conservation	-9486
Col	-9487
Net	-9488
die	-9489
elle	-9490
▁Fri	-9491
▁GOP	-9492
▁Lat	-9493
▁Tam	-9494
▁haz	-9495
▁tap	-9496
ridge	-9497
▁Body	-9498
▁tiss	-9499
▁insert	-9500
▁subsequ	-9501
▁tablespoons	-9502
rat	-9503
▁fo	-9504
emet	-9505
post	-9506
▁vess	-9507
▁Impro	-9508
▁courts	-9509
▁Fashion	-9510
▁texture	-9511
▁completion	-9512
▁specialist	-9513
▁Beh	-9514
▁anx	-9515
▁Gall	-9516
iatric	-9517
ielder	-9518
▁Adams	-9519
▁Saint	-9520
▁threw	-9521
lectual	-9522
▁Morning	-9523
▁cabinet	-9524
▁channels	-9525
▁overnight	-9526
▁exceptional	-9527
▁potentially	-9528
▁residential	-9529
Hz	-9530
fire	-9531
▁mad	-9532
▁Such	-9533
▁Categ	-9534
▁forums	-9535
▁preced	-9536
▁twenty	-9537
▁honored	-9538
▁Brooklyn	-9539
▁comparison	-9540
esh	-9541
ppy	-9542
ubs	-9543
▁Tru	-9544
▁tum	-9545
clude	-9546
▁Trip	-9547
▁till	-9548
acious	-9549
▁Movie	-9550
▁recon	-9551
▁Employ	-9552
▁Phoenix	-9553
▁Halloween	-9554
▁introduce	-9555
▁Everything	-9556
▁photographer	-9557
DAY	-9558
gins	-9559
olly	-9560
orse	-9561
▁Brew	-9562
▁mild	-9563
▁toss	-9564
ijuana	-9565
▁Albert	-9566
▁Region	-9567
▁sought	-9568
▁Defense	-9569
▁dancing	-9570
▁attitude	-9571
▁declined	-9572
▁prosecut	-9573
▁Challenge	-9574
▁preferred	-9575
▁promoting	-9576
edge	-9577
▁Fish	-9578
▁gene	-9579
▁inner	-9580
▁emails	-9581
▁judges	-9582
▁portra	-9583
▁letting	-9584
▁infection	-9585
▁disappointed	-9586
▁introduction	-9587
ICE	-9588
▁WW	-9589
▁Grow	-9590
▁aims	-9591
▁bell	-9592
▁laid	-9593
▁losses	-9594
▁lyrics	-9595
▁stocks	-9596
▁Mexican	-9597
▁depends	-9598
▁processor	-9599
oz	-9600
ango	-9601
beat	-9602
onda	-9603
▁Tag	-9604
▁wrap	-9605
ateful	-9606
▁alarm	-9607
▁prime	-9608
irlines	-9609
ulating	-9610
▁pushed	-9611
▁Official	-9612
aly	-9613
iah	-9614
pack	-9615
▁ink	-9616
▁sacr	-9617
▁snap	-9618
▁ther	-9619
covery	-9620
erving	-9621
itches	-9622
▁stood	-9623
viously	-9624
▁branch	-9625
▁troops	-9626
▁viewed	-9627
▁painted	-9628
▁relative	-9629
Rep	-9630
▁Say	-9631
ounge	-9632
proof	-9633
▁durable	-9634
▁Advanced	-9635
UD	-9636
▁IL	-9637
ampa	-9638
ogen	-9639
site	-9640
▁Eve	-9641
▁bol	-9642
ilipp	-9643
itzer	-9644
▁Bruce	-9645
▁Favor	-9646
▁holes	-9647
▁rated	-9648
▁screw	-9649
pending	-9650
▁Nothing	-9651
▁Results	-9652
▁lawsuit	-9653
▁initiatives	-9654
Cont	-9655
▁Nap	-9656
▁Nat	-9657
▁Beat	-9658
master	-9659
▁codes	-9660
▁crisp	-9661
▁ships	-9662
itement	-9663
▁buttons	-9664
▁automatic	-9665
▁Manchester	-9666
cm	-9667
▁WE	-9668
comm	-9669
▁Hud	-9670
▁tons	-9671
▁surve	-9672
▁wines	-9673
▁poster	-9674
▁Nations	-9675
▁vanilla	-9676
▁maintained	-9677
▁flexibility	-9678
7)	-9679
▁Row	-9680
▁alt	-9681
▁lbs	-9682
▁Bond	-9683
▁Madison	-9684
▁survive	-9685
▁describes	-9686
▁functional	-9687
▁supplement	-9688
VE	-9689
eld	-9690
▁CF	-9691
With	-9692
▁Cash	-9693
▁THIS	-9694
▁lady	-9695
▁Death	-9696
ivalent	-9697
urities	-9698
▁divide	-9699
▁frustr	-9700
▁Install	-9701
▁Private	-9702
▁exposed	-9703
▁nationwide	-9704
▁passengers	-9705
iot	-9706
ito	-9707
Post	-9708
▁Hug	-9709
▁HTML	-9710
igious	-9711
▁remem	-9712
▁weapon	-9713
▁genuine	-9714
▁regions	-9715
▁Olympics	-9716
▁courtesy	-9717
▁wildlife	-9718
▁purchases	-9719
▁Christopher	-9720
.-	-9721
TER	-9722
rett	-9723
▁Dub	-9724
▁Fer	-9725
inkle	-9726
▁Poly	-9727
▁Rent	-9728
▁suck	-9729
amental	-9730
▁Advent	-9731
▁babies	-9732
▁folder	-9733
▁Stories	-9734
▁associate	-9735
▁interpret	-9736
▁trademark	-9737
▁Convention	-9738
▁functionality	-9739
xic	-9740
▁DI	-9741
▁BBC	-9742
▁Ont	-9743
▁hockey	-9744
▁contracts	-9745
▁graduated	-9746
po	-9747
▁Om	-9748
▁adj	-9749
igate	-9750
▁dess	-9751
▁gate	-9752
azines	-9753
▁Veter	-9754
looking	-9755
▁mistake	-9756
▁western	-9757
▁reaching	-9758
▁consumption	-9759
df	-9760
onz	-9761
▁TX	-9762
▁gre	-9763
▁Conn	-9764
▁Nature	-9765
▁tremend	-9766
▁browsing	-9767
▁musicians	-9768
▁treatments	-9769
Pe	-9770
ran	-9771
▁iOS	-9772
pense	-9773
▁Todd	-9774
▁Girls	-9775
▁Suite	-9776
▁aimed	-9777
▁withd	-9778
▁Effect	-9779
▁crucial	-9780
▁enterprise	-9781
▁dies	-9782
▁grocer	-9783
▁Kennedy	-9784
▁exhibit	-9785
▁interact	-9786
▁throwing	-9787
▁Alexander	-9788
▁admission	-9789
▁nutrition	-9790
▁girlfriend	-9791
▁personality	-9792
▁consideration	-9793
Te	-9794
card	-9795
elve	-9796
▁RBI	-9797
▁tries	-9798
▁virus	-9799
▁Galaxy	-9800
▁Latest	-9801
▁logged	-9802
▁appreciated	-9803
▁contribution	-9804
fly	-9805
shirt	-9806
▁jazz	-9807
▁outs	-9808
▁worn	-9809
▁Record	-9810
▁Jessica	-9811
▁banking	-9812
▁comprom	-9813
▁shelter	-9814
▁Creative	-9815
▁choosing	-9816
▁forecast	-9817
TP	-9818
osc	-9819
▁47	-9820
owed	-9821
▁Less	-9822
▁drum	-9823
▁streak	-9824
▁themes	-9825
▁adopted	-9826
▁captured	-9827
▁Registration	-9828
Ne	-9829
Not	-9830
▁(1)	-9831
▁Ori	-9832
▁Hong	-9833
emetery	-9834
▁checks	-9835
▁denied	-9836
▁hearts	-9837
▁refriger	-9838
VP	-9839
▁pul	-9840
apore	-9841
▁pupp	-9842
▁prints	-9843
▁Finance	-9844
/5	-9845
who	-9846
inter	-9847
semble	-9848
▁apolog	-9849
▁coupon	-9850
▁defeat	-9851
▁Funeral	-9852
▁editing	-9853
▁receiver	-9854
▁acknowled	-9855
▁reporters	-9856
▁spectacular	-9857
OST	-9858
aka	-9859
usal	-9860
ounces	-9861
overty	-9862
▁Autom	-9863
▁divor	-9864
▁stages	-9865
▁seventh	-9866
▁survived	-9867
▁spiritual	-9868
▁Thanksgiving	-9869
▁1:	-9870
▁cm	-9871
▁Hal	-9872
▁Crit	-9873
▁Oscar	-9874
▁Stars	-9875
▁gender	-9876
▁Architect	-9877
bus	-9878
hythm	-9879
oding	-9880
▁Large	-9881
▁Diamond	-9882
▁venture	-9883
▁packaging	-9884
▁governments	-9885
49	-9886
opt	-9887
organ	-9888
utter	-9889
▁belt	-9890
ruption	-9891
▁Carter	-9892
▁garage	-9893
▁powers	-9894
▁shortly	-9895
▁Jonathan	-9896
▁secondary	-9897
cor	-9898
addy	-9899
▁Fig	-9900
▁Kings	-9901
▁tender	-9902
▁booking	-9903
▁semester	-9904
▁resistance	-9905
▁scholarship	-9906
sl	-9907
ESS	-9908
inst	-9909
▁NYC	-9910
▁sne	-9911
iders	-9912
storm	-9913
▁Chel	-9914
▁Peace	-9915
through	-9916
▁terrible	-9917
▁retailers	-9918
▁engagement	-9919
▁publishing	-9920
▁unemployment	-9921
rock	-9922
roduct	-9923
▁Cream	-9924
▁ultra	-9925
innamon	-9926
▁Modern	-9927
▁lesson	-9928
▁viewers	-9929
▁Alliance	-9930
▁Elementary	-9931
▁creativity	-9932
KS	-9933
rah	-9934
▁BR	-9935
ieve	-9936
wire	-9937
▁Race	-9938
▁bone	-9939
▁tort	-9940
▁alert	-9941
▁surge	-9942
▁Basket	-9943
▁roster	-9944
▁Orlando	-9945
▁couples	-9946
▁donated	-9947
▁equally	-9948
▁flavors	-9949
▁estimate	-9950
▁estimates	-9951
▁industries	-9952
▁Application	-9953
▁representing	-9954
nce	-9955
▁Vin	-9956
estone	-9957
▁Tools	-9958
▁rescue	-9959
▁dealers	-9960
▁demands	-9961
▁applying	-9962
▁champions	-9963
▁restrictions	-9964
▁Transportation	-9965
▁Ult	-9966
anted	-9967
▁Bapt	-9968
▁Info	-9969
▁Yeah	-9970
▁noon	-9971
uminum	-9972
▁Doctor	-9973
▁Remove	-9974
▁Related	-9975
▁scratch	-9976
▁Archives	-9977
▁studying	-9978
▁districts	-9979
▁delivering	-9980
▁unexpected	-9981
▁represented	-9982
▁BY	-9983
lend	-9984
▁sin	-9985
▁Gulf	-9986
▁beds	-9987
▁hide	-9988
▁sexy	-9989
▁unve	-9990
▁hyper	-9991
▁defect	-9992
▁dismiss	-9993
▁pushing	-9994
▁disabled	-9995
▁expenses	-9996
▁virtually	-9997
OVE	-9998
kia	-9999
sect	-10000
▁Pas	-10001
▁teens	-10002
eration	-10003
ivities	-10004
▁desper	-10005
▁arrival	-10006
▁tomatoes	-10007
▁hospitals	-10008
▁naturally	-10009
▁platforms	-10010
▁celebrated	-10011
▁certificate	-10012
gun	-10013
burn	-10014
casts	-10015
▁Pers	-10016
▁peak	-10017
▁stab	-10018
▁Blood	-10019
▁Spirit	-10020
▁ruling	-10021
unicipal	-10022
▁underst	-10023
▁elsewhere	-10024
▁entertaining	-10025
DC	-10026
ASH	-10027
▁AF	-10028
Last	-10029
News	-10030
phan	-10031
prof	-10032
▁Rail	-10033
▁obst	-10034
▁2007.	-10035
▁Glass	-10036
▁aband	-10037
▁wrest	-10038
▁Course	-10039
▁agenda	-10040
▁Agricult	-10041
▁Manufact	-10042
▁soldiers	-10043
▁uncertain	-10044
▁documentary	-10045
▁ESP	-10046
Berry	-10047
▁File	-10048
▁Prim	-10049
▁neut	-10050
▁spir	-10051
▁cancel	-10052
▁proved	-10053
▁colorful	-10054
▁emerging	-10055
aux	-10056
▁CC	-10057
oops	-10058
▁Occ	-10059
angle	-10060
piece	-10061
unate	-10062
▁Anne	-10063
▁roots	-10064
▁Browse	-10065
▁Senator	-10066
▁diseases	-10067
▁Authority	-10068
▁excitement	-10069
▁43	-10070
▁oh	-10071
▁3/4	-10072
▁350	-10073
▁Bab	-10074
▁Ess	-10075
▁Gas	-10076
▁Hig	-10077
▁Lam	-10078
▁rend	-10079
ishers	-10080
▁Leave	-10081
▁acres	-10082
▁boots	-10083
▁hired	-10084
▁Murray	-10085
▁fingers	-10086
▁Charlotte	-10087
▁correctly	-10088
▁offerings	-10089
▁responses	-10090
ii	-10091
ís	-10092
▁’	-10093
home	-10094
▁Hop	-10095
▁pip	-10096
oning	-10097
▁Java	-10098
▁hood	-10099
▁moon	-10100
▁escape	-10101
▁Address	-10102
▁archive	-10103
▁divided	-10104
▁smoking	-10105
▁communicate	-10106
▁importantly	-10107
Or	-10108
udd	-10109
▁mm	-10110
▁20-	-10111
▁Sex	-10112
▁Jerry	-10113
▁maker	-10114
▁sweep	-10115
▁Animal	-10116
▁Estate	-10117
▁attrib	-10118
ologists	-10119
▁gathered	-10120
▁celebrating	-10121
▁documentation	-10122
zed	-10123
arel	-10124
▁Too	-10125
▁mph	-10126
grade	-10127
▁asks	-10128
▁yoga	-10129
section	-10130
▁actors	-10131
▁prizes	-10132
▁reveal	-10133
▁universities	-10134
▁BL	-10135
▁2.5	-10136
▁Amy	-10137
ishop	-10138
▁Bott	-10139
▁Manh	-10140
▁Pink	-10141
▁Prep	-10142
▁seam	-10143
inking	-10144
▁pursue	-10145
▁resume	-10146
▁Broadway	-10147
▁Scotland	-10148
▁ensuring	-10149
▁entitled	-10150
▁Valentine	-10151
’.	-10152
Add	-10153
▁Dim	-10154
▁Duke	-10155
▁Mini	-10156
▁Side	-10157
▁lobby	-10158
▁rally	-10159
▁stolen	-10160
▁Philipp	-10161
▁Commerce	-10162
▁Industry	-10163
▁episodes	-10164
▁modified	-10165
▁departments	-10166
Fr	-10167
aws	-10168
▁56	-10169
▁Ow	-10170
▁PL	-10171
▁kil	-10172
▁Item	-10173
▁Metro	-10174
▁annoy	-10175
▁slide	-10176
▁barely	-10177
▁circle	-10178
▁harvest	-10179
▁Marshall	-10180
▁Medicare	-10181
Do	-10182
▁Lu	-10183
▁Nev	-10184
▁Rol	-10185
▁Unt	-10186
▁teeth	-10187
▁deeply	-10188
▁panels	-10189
▁lawyers	-10190
▁Assembly	-10191
vironments	-10192
▁publications	-10193
▁extraordinary	-10194
▁okay	-10195
▁zero	-10196
ername	-10197
▁fault	-10198
▁Palest	-10199
▁Brandon	-10200
▁exhaust	-10201
▁figured	-10202
▁residence	-10203
▁Enterprise	-10204
▁involvement	-10205
ji	-10206
▁`	-10207
INE	-10208
ere	-10209
door	-10210
▁Salt	-10211
▁keys	-10212
▁humor	-10213
▁paste	-10214
▁Graham	-10215
▁curren	-10216
▁oldest	-10217
▁outcome	-10218
▁vendors	-10219
▁occasionally	-10220
92	-10221
cho	-10222
imm	-10223
2013	-10224
bered	-10225
inema	-10226
ripts	-10227
▁(201	-10228
▁Lisa	-10229
▁Nurs	-10230
▁leaf	-10231
▁Prize	-10232
▁fantasy	-10233
▁fiction	-10234
▁giveaway	-10235
▁ownership	-10236
▁**	-10237
▁Tan	-10238
▁chip	-10239
olitan	-10240
▁Griff	-10241
▁dried	-10242
▁Target	-10243
▁outfit	-10244
▁opposed	-10245
▁studied	-10246
▁calories	-10247
▁respectively	-10248
MI	-10249
stop	-10250
▁1998	-10251
▁bicy	-10252
▁parks	-10253
▁lately	-10254
▁heavily	-10255
▁minimal	-10256
▁magazines	-10257
▁structures	-10258
▁requirement	-10259
▁personalized	-10260
▁Hus	-10261
found	-10262
▁nuts	-10263
iology	-10264
mother	-10265
terior	-10266
▁Years	-10267
▁upset	-10268
▁waist	-10269
ainless	-10270
rection	-10271
riculum	-10272
▁Campus	-10273
▁Korean	-10274
▁Nelson	-10275
▁deeper	-10276
▁frozen	-10277
▁redist	-10278
▁recruit	-10279
▁2:	-10280
ilst	-10281
▁Joy	-10282
▁Mit	-10283
▁2006,	-10284
▁Wales	-10285
▁scrap	-10286
▁grants	-10287
▁formula	-10288
▁Heritage	-10289
▁Particip	-10290
▁resulted	-10291
▁concerning	-10292
▁prevention	-10293
)||	-10294
don	-10295
▁WA	-10296
iffe	-10297
▁(10	-10298
▁Dyn	-10299
▁Gay	-10300
▁bub	-10301
speed	-10302
▁Vent	-10303
▁bail	-10304
▁refe	-10305
▁sour	-10306
▁blame	-10307
▁stops	-10308
▁tooth	-10309
▁cookie	-10310
▁occurs	-10311
▁Theater	-10312
▁inventory	-10313
▁excellence	-10314
▁medication	-10315
▁supporters	-10316
▁Additionally	-10317
IO	-10318
▁ru	-10319
heat	-10320
▁unp	-10321
ivals	-10322
maker	-10323
▁Gree	-10324
▁conj	-10325
▁scar	-10326
▁Dance	-10327
berries	-10328
▁Artist	-10329
▁deaths	-10330
▁Singapore	-10331
▁compliance	-10332
▁philosophy	-10333
76	-10334
Now	-10335
uct	-10336
▁50%	-10337
▁Roc	-10338
▁Mall	-10339
▁chap	-10340
ifting	-10341
▁1-800	-10342
▁alleg	-10343
▁Reserve	-10344
▁footage	-10345
▁seniors	-10346
▁phenomen	-10347
▁addressed	-10348
▁batteries	-10349
▁intention	-10350
▁strengthen	-10351
cal	-10352
erk	-10353
▁DS	-10354
▁MB	-10355
▁SW	-10356
omic	-10357
▁Moh	-10358
▁tags	-10359
Donald	-10360
▁Could	-10361
▁stamp	-10362
▁Simple	-10363
▁pockets	-10364
▁operated	-10365
▁exploring	-10366
▁complement	-10367
▁sophisticated	-10368
ibl	-10369
oof	-10370
bage	-10371
▁Kit	-10372
▁SEC	-10373
▁Anna	-10374
▁Fant	-10375
▁nail	-10376
▁Innov	-10377
isation	-10378
▁decline	-10379
▁roughly	-10380
▁attempted	-10381
▁discovery	-10382
▁arrangements	-10383
ami	-10384
aun	-10385
lan	-10386
gener	-10387
stract	-10388
▁Ground	-10389
▁cruise	-10390
▁equivalent	-10391
600	-10392
▁Ak	-10393
▁Wy	-10394
uild	-10395
▁Aqu	-10396
▁Imp	-10397
▁soy	-10398
ormal	-10399
ouses	-10400
▁1000	-10401
▁Rice	-10402
▁rehab	-10403
▁towns	-10404
▁Anyway	-10405
▁jacket	-10406
▁permit	-10407
▁repeat	-10408
▁Buffalo	-10409
▁engines	-10410
eem	-10411
ython	-10412
▁Unit	-10413
▁myth	-10414
▁perm	-10415
▁nursing	-10416
▁Columbus	-10417
plus	-10418
▁GPS	-10419
▁Hans	-10420
▁Lions	-10421
▁rounds	-10422
▁produces	-10423
▁unlikely	-10424
▁approaches	-10425
▁TA	-10426
▁Job	-10427
▁toy	-10428
ounced	-10429
▁Cover	-10430
▁Liter	-10431
▁ridic	-10432
lington	-10433
▁Unlike	-10434
▁hiring	-10435
▁loaded	-10436
▁deserve	-10437
▁colleges	-10438
▁screening	-10439
▁specified	-10440
GO	-10441
▁gap	-10442
▁Chem	-10443
▁Tree	-10444
charge	-10445
ousing	-10446
▁apple	-10447
▁listings	-10448
▁compatible	-10449
▁Mind	-10450
▁Stra	-10451
▁exit	-10452
▁cabin	-10453
▁deleg	-10454
▁backup	-10455
▁wooden	-10456
aughters	-10457
▁periods	-10458
▁prospect	-10459
▁mountains	-10460
▁specialty	-10461
▁consequences	-10462
vo	-10463
700	-10464
▁km	-10465
asty	-10466
▁Boe	-10467
▁Sean	-10468
▁Muslim	-10469
▁Economic	-10470
▁concrete	-10471
▁striking	-10472
▁veterans	-10473
▁container	-10474
Se	-10475
inf	-10476
▁RA	-10477
▁Circ	-10478
▁Fame	-10479
▁Guest	-10480
▁param	-10481
▁Oxford	-10482
▁Rating	-10483
▁rubber	-10484
▁shapes	-10485
▁wheels	-10486
▁refused	-10487
▁playoffs	-10488
▁Tournament	-10489
▁downloaded	-10490
▁demonstrate	-10491
▁compensation	-10492
400	-10493
agen	-10494
best	-10495
kees	-10496
only	-10497
thur	-10498
zing	-10499
▁Coc	-10500
about	-10501
▁Sent	-10502
▁Tips	-10503
▁army	-10504
▁hadn	-10505
▁pics	-10506
▁rack	-10507
▁rely	-10508
▁Domin	-10509
▁counties	-10510
▁grateful	-10511
▁neighbors	-10512
▁suspended	-10513
▁references	-10514
cat	-10515
rend	-10516
ummy	-10517
▁GMT	-10518
▁Jen	-10519
▁aer	-10520
▁gig	-10521
▁Move	-10522
▁stem	-10523
▁cheer	-10524
▁colon	-10525
▁piano	-10526
▁Making	-10527
▁honors	-10528
▁salary	-10529
▁Display	-10530
▁Kitchen	-10531
▁Tribune	-10532
▁artwork	-10533
▁premier	-10534
▁theatre	-10535
▁Electric	-10536
▁Thompson	-10537
▁assigned	-10538
▁frequent	-10539
▁Louisiana	-10540
ICK	-10541
▁EC	-10542
▁Dod	-10543
▁Had	-10544
▁Imag	-10545
▁NASA	-10546
▁dipl	-10547
▁waves	-10548
▁bacter	-10549
▁inquir	-10550
▁participated	-10551
▁satisfaction	-10552
▁administrative	-10553
▁51	-10554
oting	-10555
▁isol	-10556
▁Aaron	-10557
▁Legisl	-10558
▁versus	-10559
▁Israeli	-10560
▁qualify	-10561
▁sleeping	-10562
▁WordPress	-10563
▁fundamental	-10564
▁interaction	-10565
▁configuration	-10566
eled	-10567
zens	-10568
▁Pad	-10569
▁tire	-10570
andise	-10571
boards	-10572
father	-10573
▁Compl	-10574
▁Tampa	-10575
▁Battle	-10576
▁homeown	-10577
▁rapidly	-10578
▁annually	-10579
▁Manhattan	-10580
▁essentially	-10581
")	-10582
cr	-10583
▁SQL	-10584
ifted	-10585
braska	-10586
▁picks	-10587
▁Altern	-10588
▁Wonder	-10589
▁inject	-10590
▁module	-10591
▁beating	-10592
▁Consumer	-10593
▁eliminate	-10594
▁satellite	-10595
▁remarkable	-10596
ITH	-10597
tains	-10598
ervice	-10599
▁Audio	-10600
▁Billy	-10601
▁pound	-10602
▁Always	-10603
▁belief	-10604
▁Reuters	-10605
▁cancell	-10606
▁expects	-10607
▁balanced	-10608
▁popularity	-10609
▁acquisition	-10610
Oh	-10611
ho	-10612
▁Cos	-10613
▁ERA	-10614
▁Kay	-10615
▁Benn	-10616
▁pour	-10617
▁toll	-10618
▁begun	-10619
▁suite	-10620
▁Reader	-10621
▁handed	-10622
▁Baptist	-10623
▁rentals	-10624
▁restore	-10625
▁commonly	-10626
▁declared	-10627
▁thousand	-10628
▁satisfied	-10629
▁sufficient	-10630
46	-10631
def	-10632
oyd	-10633
bass	-10634
shot	-10635
isdom	-10636
▁Cell	-10637
▁ESPN	-10638
▁Poll	-10639
▁stom	-10640
▁Dakota	-10641
▁crimes	-10642
▁compact	-10643
▁marijuana	-10644
▁appearances	-10645
▁presentations	-10646
,’	-10647
anked	-10648
▁Mitt	-10649
ervous	-10650
▁Capit	-10651
▁Rated	-10652
▁uncle	-10653
▁discip	-10654
▁suffer	-10655
▁Foreign	-10656
▁Hamilton	-10657
▁campaigns	-10658
▁expanding	-10659
▁environments	-10660
▁certification	-10661
▁Due	-10662
▁Desk	-10663
▁fool	-10664
▁prev	-10665
▁Nokia	-10666
▁globe	-10667
imental	-10668
▁insist	-10669
▁scream	-10670
▁serial	-10671
▁Subject	-10672
▁wrapped	-10673
▁potatoes	-10674
▁BlackBerry	-10675
▁implemented	-10676
42	-10677
="	-10678
▁99	-10679
▁fed	-10680
▁maj	-10681
▁roy	-10682
first	-10683
▁Answ	-10684
▁spam	-10685
▁wing	-10686
▁Arena	-10687
▁Baker	-10688
▁Notes	-10689
▁alike	-10690
▁indoor	-10691
▁unlock	-10692
▁Meeting	-10693
▁anybody	-10694
▁heating	-10695
▁segment	-10696
▁starter	-10697
▁violent	-10698
▁motorcycle	-10699
▁trademarks	-10700
▁complicated	-10701
▁exclusively	-10702
-18	-10703
gra	-10704
9.99	-10705
acco	-10706
▁Lock	-10707
asures	-10708
▁Dougl	-10709
▁minds	-10710
▁pasta	-10711
▁Advert	-10712
▁Import	-10713
▁Potter	-10714
▁heaven	-10715
▁Arkansas	-10716
▁complaints	-10717
▁coordinator	-10718
Me	-10719
ols	-10720
▁iT	-10721
phis	-10722
▁Cou	-10723
orted	-10724
▁Reds	-10725
......	-10726
▁embed	-10727
▁Visual	-10728
▁worker	-10729
▁bottles	-10730
▁nations	-10731
▁ratings	-10732
▁Franklin	-10733
▁mistakes	-10734
▁somebody	-10735
▁passenger	-10736
▁AV	-10737
▁Gib	-10738
▁Som	-10739
▁Much	-10740
▁Nice	-10741
urches	-10742
▁Carib	-10743
enities	-10744
▁backed	-10745
▁vibrant	-10746
▁expecting	-10747
▁publisher	-10748
▁]	-10749
issa	-10750
mons	-10751
quet	-10752
▁$15	-10753
▁Han	-10754
▁Nob	-10755
check	-10756
▁Xbox	-10757
▁porn	-10758
▁Chuck	-10759
▁somehow	-10760
▁52	-10761
▁180	-10762
▁Ted	-10763
arest	-10764
uplic	-10765
▁Below	-10766
▁Patri	-10767
▁Touch	-10768
▁Voice	-10769
▁toler	-10770
itations	-10771
▁Rangers	-10772
▁formats	-10773
▁Nebraska	-10774
▁instantly	-10775
▁accommodate	-10776
▁investments	-10777
▁FAQ	-10778
▁fur	-10779
▁Nich	-10780
▁nick	-10781
western	-10782
▁refres	-10783
▁Culture	-10784
▁locally	-10785
▁Michelle	-10786
▁concepts	-10787
▁nonprofit	-10788
▁immigration	-10789
▁accommodation	-10790
uh	-10791
ugs	-10792
disc	-10793
inos	-10794
▁pad	-10795
icals	-10796
▁Firef	-10797
▁burning	-10798
▁poverty	-10799
PT	-10800
App	-10801
oft	-10802
enna	-10803
▁$3.	-10804
▁30-	-10805
▁fel	-10806
▁jury	-10807
▁span	-10808
▁Craig	-10809
▁spell	-10810
▁devast	-10811
▁eighth	-10812
▁guides	-10813
▁dresses	-10814
▁generous	-10815
▁Universal	-10816
▁secretary	-10817
cs	-10818
See	-10819
▁EN	-10820
▁(19	-10821
agram	-10822
▁2014	-10823
▁Rout	-10824
▁synd	-10825
▁tube	-10826
▁Luther	-10827
▁funded	-10828
▁onions	-10829
▁Besides	-10830
ustration	-10831
▁ministry	-10832
▁framework	-10833
aho	-10834
▁12-	-10835
▁calm	-10836
▁kiss	-10837
▁alter	-10838
▁bless	-10839
▁albums	-10840
▁barrel	-10841
▁Premier	-10842
▁endorse	-10843
▁healing	-10844
▁worship	-10845
▁Delivery	-10846
▁accompan	-10847
▁entrance	-10848
▁attendance	-10849
▁difficulty	-10850
jo	-10851
:10	-10852
bat	-10853
▁IV	-10854
▁***	-10855
▁hes	-10856
▁Beth	-10857
▁Dise	-10858
▁Rece	-10859
▁2004,	-10860
▁Write	-10861
▁jeans	-10862
▁resid	-10863
▁Integr	-10864
▁Warren	-10865
▁carpet	-10866
▁extent	-10867
▁Ministry	-10868
▁ordinary	-10869
▁stability	-10870
▁designated	-10871
OX	-10872
PL	-10873
▁Aw	-10874
cats	-10875
ront	-10876
umble	-10877
▁Feel	-10878
▁Wolf	-10879
▁disk	-10880
▁slip	-10881
▁Nancy	-10882
▁Pharm	-10883
▁polls	-10884
▁mystery	-10885
▁engaging	-10886
▁promises	-10887
▁conversion	-10888
aud	-10889
airy	-10890
oria	-10891
▁Sel	-10892
eness	-10893
lined	-10894
table	-10895
▁Cann	-10896
▁Virt	-10897
▁saves	-10898
comfort	-10899
▁warned	-10900
▁enhanced	-10901
▁contacted	-10902
▁productivity	-10903
▁controversial	-10904
ACK	-10905
▁MLB	-10906
▁Tea	-10907
▁1960	-10908
encing	-10909
▁tires	-10910
▁exists	-10911
▁makeup	-10912
▁mathem	-10913
▁puzzle	-10914
▁Indones	-10915
▁emissions	-10916
▁processed	-10917
▁vegetable	-10918
▁tremendous	-10919
oks	-10920
oret	-10921
wall	-10922
▁10%	-10923
▁Bou	-10924
▁Fly	-10925
▁Nig	-10926
▁Wol	-10927
▁Alan	-10928
▁Cold	-10929
▁Jazz	-10930
▁wise	-10931
▁distr	-10932
▁dealer	-10933
▁donate	-10934
▁layout	-10935
▁Oakland	-10936
▁fastest	-10937
▁electrical	-10938
▁possibilities	-10939
48	-10940
ELL	-10941
▁''	-10942
▁Wa	-10943
▁Cars	-10944
▁Mars	-10945
▁Hello	-10946
▁enemy	-10947
▁ratio	-10948
▁tasty	-10949
▁Murphy	-10950
▁incent	-10951
▁titled	-10952
▁Chelsea	-10953
▁Resource	-10954
▁celebrity	-10955
▁generations	-10956
gi	-10957
®,	-10958
rus	-10959
iler	-10960
▁Dry	-10961
▁Bear	-10962
▁Deep	-10963
▁shit	-10964
▁Urban	-10965
▁knife	-10966
ository	-10967
▁thrown	-10968
atherine	-10969
▁ceiling	-10970
▁diamond	-10971
▁Campbell	-10972
▁gathering	-10973
▁reservations	-10974
kind	-10975
quer	-10976
▁Dri	-10977
▁Hat	-10978
▁Imm	-10979
aceut	-10980
heart	-10981
▁adap	-10982
▁bust	-10983
▁caps	-10984
▁crop	-10985
▁dirt	-10986
uition	-10987
▁drops	-10988
▁crafts	-10989
▁Guarant	-10990
▁Ontario	-10991
▁Yankees	-10992
▁employers	-10993
▁legendary	-10994
bul	-10995
cca	-10996
they	-10997
ifier	-10998
stick	-10999
▁7:30	-11000
▁Stop	-11001
bourne	-11002
▁Storm	-11003
▁jumped	-11004
▁protecting	-11005
++	-11006
72	-11007
DP	-11008
ori	-11009
even	-11010
udes	-11011
xxxx	-11012
▁sid	-11013
▁Self	-11014
▁loop	-11015
▁lung	-11016
▁Roger	-11017
▁adequ	-11018
▁vocal	-11019
▁chairs	-11020
▁Liberty	-11021
▁Programs	-11022
▁Technical	-11023
was	-11024
acon	-11025
agers	-11026
netic	-11027
scale	-11028
▁beta	-11029
▁sits	-11030
▁Initi	-11031
▁edges	-11032
▁grain	-11033
▁toile	-11034
▁Dennis	-11035
▁rarely	-11036
▁handful	-11037
▁promised	-11038
▁medications	-11039
NE	-11040
UE	-11041
/13	-11042
▁("	-11043
▁EV	-11044
onut	-11045
▁bun	-11046
▁handy	-11047
▁winds	-11048
perform	-11049
▁latter	-11050
▁prayer	-11051
▁grounds	-11052
▁Discover	-11053
▁distingu	-11054
▁emphasis	-11055
▁lightweight	-11056
SW	-11057
▁”	-11058
fig	-11059
▁(2)	-11060
emade	-11061
▁cous	-11062
▁fake	-11063
▁Third	-11064
▁Trial	-11065
▁react	-11066
▁Knight	-11067
▁sheets	-11068
▁shirts	-11069
▁destroyed	-11070
▁paintings	-11071
ni	-11072
vi	-11073
lie	-11074
▁Ho	-11075
news	-11076
▁101	-11077
▁Guy	-11078
stock	-11079
▁Pain	-11080
▁Thus	-11081
▁brid	-11082
▁demo	-11083
orious	-11084
▁wider	-11085
▁fruits	-11086
▁immigr	-11087
▁curious	-11088
▁Includes	-11089
▁settlement	-11090
-05	-11091
-25	-11092
exp	-11093
▁72	-11094
▁Rd	-11095
..."	-11096
▁13.	-11097
▁Lad	-11098
▁Rat	-11099
▁vert	-11100
▁Added	-11101
▁labels	-11102
▁captain	-11103
▁Analysis	-11104
▁measured	-11105
▁indicates	-11106
▁electronics	-11107
Gu	-11108
ipt	-11109
pow	-11110
aved	-11111
-2012	-11112
after	-11113
odium	-11114
otion	-11115
▁blast	-11116
▁fluid	-11117
pection	-11118
▁Survey	-11119
▁myster	-11120
▁Writing	-11121
▁publish	-11122
▁pulling	-11123
▁observed	-11124
▁operator	-11125
▁Jefferson	-11126
▁thoroughly	-11127
afe	-11128
▁Fine	-11129
▁Safe	-11130
▁pork	-11131
orneys	-11132
▁2006.	-11133
▁Jimmy	-11134
▁laser	-11135
closure	-11136
▁applicable	-11137
▁completing	-11138
▁achievement	-11139
▁intellectual	-11140
▁administrator	-11141
▁ft	-11142
▁Sout	-11143
▁Along	-11144
▁Until	-11145
▁grace	-11146
▁10,000	-11147
▁Collins	-11148
▁optional	-11149
▁editorial	-11150
▁transmission	-11151
hou	-11152
▁GT	-11153
hill	-11154
lace	-11155
anton	-11156
backs	-11157
▁1997	-11158
▁cust	-11159
▁Cable	-11160
▁legacy	-11161
▁trails	-11162
▁Profile	-11163
▁placing	-11164
▁Language	-11165
▁audiences	-11166
OB	-11167
yt	-11168
▁â	-11169
ANT	-11170
OME	-11171
iox	-11172
ova	-11173
▁CM	-11174
▁HE	-11175
oooo	-11176
Every	-11177
▁Kyle	-11178
▁bite	-11179
▁tatt	-11180
▁yeah	-11181
▁Laura	-11182
▁argue	-11183
▁reveals	-11184
▁suicide	-11185
▁diagnosis	-11186
▁existence	-11187
▁suspension	-11188
rous	-11189
ipper	-11190
reach	-11191
▁Doug	-11192
▁Luke	-11193
▁Pent	-11194
▁Plant	-11195
▁disag	-11196
▁iTunes	-11197
▁Earlier	-11198
▁carrier	-11199
▁inspire	-11200
▁blogging	-11201
▁Hurricane	-11202
▁Commercial	-11203
▁transaction	-11204
NC	-11205
Pr	-11206
▁(9	-11207
▁BC	-11208
▁GR	-11209
arms	-11210
hard	-11211
lett	-11212
vity	-11213
▁Alb	-11214
▁Tue	-11215
track	-11216
▁Born	-11217
▁Budd	-11218
▁Hend	-11219
▁True	-11220
▁bout	-11221
▁lean	-11222
▁Grace	-11223
▁Raven	-11224
▁stere	-11225
▁Queens	-11226
▁layers	-11227
▁Memphis	-11228
73	-11229
Car	-11230
aki	-11231
engu	-11232
gate	-11233
build	-11234
▁$500	-11235
▁(199	-11236
▁buzz	-11237
▁quit	-11238
▁tale	-11239
assion	-11240
▁Later	-11241
▁greet	-11242
▁ranks	-11243
intendo	-11244
▁Rachel	-11245
▁mirror	-11246
▁wishes	-11247
▁devoted	-11248
▁actively	-11249
▁Corporate	-11250
▁graduates	-11251
▁sophomore	-11252
▁explanation	-11253
iar	-11254
Free	-11255
olid	-11256
▁Fla	-11257
▁jur	-11258
These	-11259
▁ears	-11260
▁epic	-11261
▁owns	-11262
▁tune	-11263
▁ruled	-11264
▁Giants	-11265
▁locate	-11266
appropri	-11267
▁Douglas	-11268
▁congress	-11269
▁abilities	-11270
Im	-11271
Mon	-11272
▁TD	-11273
View	-11274
umbl	-11275
▁zip	-11276
acter	-11277
▁Brid	-11278
▁dear	-11279
▁thro	-11280
▁2005,	-11281
▁drain	-11282
commend	-11283
▁Conserv	-11284
▁Getting	-11285
▁Introdu	-11286
▁Machine	-11287
▁Caribbean	-11288
▁competing	-11289
▁encounter	-11290
▁memorable	-11291
▁recipient	-11292
En	-11293
▁1996	-11294
▁rook	-11295
anches	-11296
▁Canon	-11297
▁Corps	-11298
▁legit	-11299
▁Active	-11300
▁export	-11301
▁Coordin	-11302
▁Reports	-11303
▁liberal	-11304
▁removal	-11305
▁Question	-11306
▁overseas	-11307
▁username	-11308
▁Something	-11309
▁customized	-11310
▁substitute	-11311
ITE	-11312
gor	-11313
obb	-11314
▁$8	-11315
idth	-11316
oard	-11317
pool	-11318
▁15.	-11319
▁24-	-11320
▁Half	-11321
▁bulk	-11322
ourmet	-11323
▁Bears	-11324
▁Islam	-11325
▁Beauty	-11326
▁timing	-11327
▁nervous	-11328
▁Speaking	-11329
▁opponent	-11330
▁publicly	-11331
/7	-11332
cos	-11333
▁EDT	-11334
▁sed	-11335
▁Mort	-11336
school	-11337
uisine	-11338
▁armed	-11339
▁brace	-11340
▁crown	-11341
▁Argent	-11342
▁Donald	-11343
▁Screen	-11344
▁Toyota	-11345
▁duties	-11346
▁Powered	-11347
▁cheaper	-11348
▁disorder	-11349
▁prominent	-11350
▁versatile	-11351
▁aggressive	-11352
▁separately	-11353
▁developments	-11354
NET	-11355
pany	-11356
tech	-11357
▁Cape	-11358
▁Clar	-11359
▁ware	-11360
itched	-11361
▁straw	-11362
▁abroad	-11363
▁locked	-11364
▁artistic	-11365
▁distribut	-11366
▁conclusion	-11367
▁impression	-11368
▁fascinating	-11369
OUR	-11370
▁Az	-11371
chell	-11372
undry	-11373
ushes	-11374
▁angle	-11375
▁hydro	-11376
▁filing	-11377
▁Volunte	-11378
▁Written	-11379
▁circuit	-11380
▁Scholars	-11381
▁ordering	-11382
▁prospects	-11383
▁recruiting	-11384
LD	-11385
uz	-11386
ela	-11387
iag	-11388
ugg	-11389
▁OH	-11390
alia	-11391
oser	-11392
addle	-11393
eters	-11394
istol	-11395
▁Cinc	-11396
▁LOVE	-11397
called	-11398
▁Warri	-11399
▁eager	-11400
▁elder	-11401
▁prest	-11402
▁spare	-11403
▁Career	-11404
▁Castle	-11405
▁define	-11406
▁anytime	-11407
▁printer	-11408
▁employer	-11409
▁precious	-11410
▁convicted	-11411
▁Leadership	-11412
▁transactions	-11413
▁investigating	-11414
By	-11415
ali	-11416
▁14.	-11417
▁3.5	-11418
amics	-11419
▁Clay	-11420
▁Insp	-11421
▁Wash	-11422
▁bund	-11423
▁lawn	-11424
▁sons	-11425
ernand	-11426
ultane	-11427
▁Delhi	-11428
▁Maria	-11429
▁molec	-11430
▁pione	-11431
▁Hunter	-11432
▁triple	-11433
▁careers	-11434
▁threats	-11435
▁combines	-11436
▁conventional	-11437
71	-11438
wy	-11439
atar	-11440
uros	-11441
liers	-11442
▁Boys	-11443
▁Hear	-11444
▁Trad	-11445
▁aged	-11446
▁wore	-11447
▁Patch	-11448
▁Woods	-11449
▁lease	-11450
▁sorts	-11451
▁fallen	-11452
▁dialogue	-11453
▁chemicals	-11454
▁frequency	-11455
▁navigation	-11456
▁cooperation	-11457
rape	-11458
▁FDA	-11459
▁Rio	-11460
▁Thu	-11461
otive	-11462
▁Fans	-11463
▁Feed	-11464
▁Math	-11465
▁Ward	-11466
▁exch	-11467
achers	-11468
author	-11469
▁Dutch	-11470
▁Train	-11471
▁gains	-11472
▁kills	-11473
▁showc	-11474
olester	-11475
▁Bright	-11476
▁Turkey	-11477
▁recycl	-11478
▁safely	-11479
▁stroke	-11480
▁applies	-11481
▁pitcher	-11482
▁subsidi	-11483
▁Robinson	-11484
▁contacts	-11485
▁thrilled	-11486
▁curriculum	-11487
▁regulation	-11488
▁encouraging	-11489
▁consistently	-11490
dam	-11491
▁ye	-11492
boro	-11493
esty	-11494
isms	-11495
olas	-11496
INGTON	-11497
▁Benef	-11498
▁Emily	-11499
▁Lower	-11500
▁bikes	-11501
▁frames	-11502
▁tissue	-11503
▁grocery	-11504
▁sisters	-11505
ropolitan	-11506
▁Property	-11507
▁Certified	-11508
▁commentary	-11509
▁graduation	-11510
▁threatened	-11511
▁prescription	-11512
CP	-11513
rot	-11514
▁mg	-11515
pose	-11516
▁Vit	-11517
▁gam	-11518
quest	-11519
▁Pros	-11520
▁sail	-11521
▁tent	-11522
arrass	-11523
prises	-11524
▁Spons	-11525
▁Yellow	-11526
▁Vietnam	-11527
▁blogger	-11528
▁chronic	-11529
▁Recently	-11530
▁rewritten	-11531
▁convention	-11532
▁instruments	-11533
ORK	-11534
aco	-11535
omed	-11536
▁$30	-11537
▁hunt	-11538
▁sust	-11539
▁Purch	-11540
▁canvas	-11541
▁Weekend	-11542
▁examine	-11543
▁singles	-11544
▁survival	-11545
▁Armstrong	-11546
▁lawmakers	-11547
▁surrounded	-11548
41	-11549
BR	-11550
].	-11551
aro	-11552
▁66	-11553
Phot	-11554
will	-11555
▁20%	-11556
▁Fif	-11557
▁Anim	-11558
▁Pret	-11559
▁Honda	-11560
▁Honey	-11561
chestra	-11562
entials	-11563
▁Budget	-11564
▁Archive	-11565
▁Islands	-11566
▁deposit	-11567
▁employed	-11568
▁engineers	-11569
▁proposals	-11570
▁Conditions	-11571
▁demonstrated	-11572
▁experiencing	-11573
pg	-11574
!).	-11575
lon	-11576
bird	-11577
▁15-	-11578
▁ele	-11579
count	-11580
ouver	-11581
▁anch	-11582
▁Legal	-11583
▁genre	-11584
▁ninth	-11585
ambling	-11586
▁Points	-11587
▁surely	-11588
▁Century	-11589
ictionary	-11590
▁Progress	-11591
▁defeated	-11592
▁showcase	-11593
▁recycling	-11594
▁Independent	-11595
▁characteristics	-11596
-16	-11597
udi	-11598
▁BA	-11599
▁VA	-11600
cend	-11601
ideo	-11602
▁Ali	-11603
▁Dra	-11604
▁Syn	-11605
umper	-11606
innati	-11607
▁Homes	-11608
▁punch	-11609
▁Nevada	-11610
▁Thread	-11611
▁poetry	-11612
▁treats	-11613
▁highway	-11614
▁muscles	-11615
▁overcome	-11616
▁tropical	-11617
▁integrity	-11618
▁collective	-11619
▁undergraduate	-11620
-17	-11621
ARD	-11622
aya	-11623
pos	-11624
what	-11625
▁ank	-11626
ateur	-11627
green	-11628
▁Robin	-11629
▁dirty	-11630
▁dozens	-11631
▁surviv	-11632
▁Favorite	-11633
▁inspiring	-11634
▁streaming	-11635
▁Basketball	-11636
▁Construction	-11637
▁entrepreneurs	-11638
iva	-11639
▁3)	-11640
test	-11641
depth	-11642
▁tear	-11643
▁stays	-11644
▁steep	-11645
▁compan	-11646
▁hybrid	-11647
▁rolled	-11648
▁Wedding	-11649
▁dressed	-11650
▁glasses	-11651
▁Palestin	-11652
▁premiere	-11653
▁Therefore	-11654
▁passionate	-11655
%)	-11656
MB	-11657
gon	-11658
roe	-11659
▁Si	-11660
▁Ta	-11661
itate	-11662
▁mold	-11663
▁appli	-11664
▁explo	-11665
▁Weekly	-11666
olesterol	-11667
▁adoption	-11668
▁aluminum	-11669
▁claiming	-11670
▁boyfriend	-11671
▁meaningful	-11672
▁overwhelming	-11673
93	-11674
wa	-11675
vol	-11676
▁Li	-11677
bian	-11678
wind	-11679
▁que	-11680
▁Palm	-11681
▁drew	-11682
▁joke	-11683
▁yarn	-11684
ruptcy	-11685
▁Hours	-11686
selling	-11687
▁Cameron	-11688
▁genetic	-11689
▁profits	-11690
▁cinnamon	-11691
▁daughters	-11692
▁opponents	-11693
▁apartments	-11694
▁regulatory	-11695
▁redistributed	-11696
5)	-11697
′′	-11698
Mar	-11699
anut	-11700
▁Fle	-11701
elect	-11702
▁bits	-11703
▁slot	-11704
▁asset	-11705
▁cloth	-11706
▁innoc	-11707
▁reads	-11708
▁Leader	-11709
▁Rogers	-11710
▁makers	-11711
▁nobody	-11712
▁subtle	-11713
▁Located	-11714
▁summary	-11715
▁overview	-11716
▁universe	-11717
▁conscious	-11718
▁operators	-11719
enz	-11720
▁Hit	-11721
outing	-11722
▁Evans	-11723
▁booth	-11724
▁allerg	-11725
▁boring	-11726
▁trials	-11727
▁workout	-11728
▁Shopping	-11729
▁portable	-11730
▁negotiations	-11731
.:	-11732
???	-11733
good	-11734
iffs	-11735
uted	-11736
▁Kid	-11737
▁rab	-11738
gical	-11739
▁Boot	-11740
▁Coal	-11741
▁foam	-11742
▁Karen	-11743
▁Keith	-11744
▁adopt	-11745
▁Greece	-11746
▁Malays	-11747
▁charts	-11748
▁deputy	-11749
▁killer	-11750
▁Popular	-11751
▁Success	-11752
▁confront	-11753
▁practition	-11754
▁operational	-11755
▁accomplished	-11756
azy	-11757
vet	-11758
held	-11759
inge	-11760
▁3.0	-11761
▁Wes	-11762
▁Vene	-11763
▁YOUR	-11764
▁firef	-11765
▁inaug	-11766
▁Bradley	-11767
▁lightly	-11768
▁abortion	-11769
▁spectrum	-11770
▁beautifully	-11771
Res	-11772
ped	-11773
agne	-11774
▁Mun	-11775
▁Rab	-11776
acent	-11777
ching	-11778
oline	-11779
▁Bath	-11780
▁Bobby	-11781
▁Focus	-11782
▁hardly	-11783
▁phrase	-11784
▁Democrat	-11785
▁Cincinnati	-11786
▁collecting	-11787
HD	-11788
IX	-11789
NS	-11790
enh	-11791
han	-11792
▁7-	-11793
▁Kl	-11794
▁RS	-11795
wick	-11796
▁Luck	-11797
▁fert	-11798
▁folk	-11799
▁rush	-11800
effect	-11801
▁Begin	-11802
▁Dress	-11803
▁Vista	-11804
ishment	-11805
▁Beyond	-11806
▁sticks	-11807
........	-11808
breaking	-11809
▁Request	-11810
▁landing	-11811
▁sponsor	-11812
▁petition	-11813
▁reflects	-11814
GS	-11815
UP	-11816
10.	-11817
apy	-11818
whe	-11819
▁DR	-11820
▁NA	-11821
5.00	-11822
▁Zoo	-11823
▁hub	-11824
riber	-11825
▁Gray	-11826
▁Jere	-11827
▁Linda	-11828
▁Sleep	-11829
▁quilt	-11830
▁Parker	-11831
▁Really	-11832
▁Videos	-11833
▁retain	-11834
▁voices	-11835
ancouver	-11836
▁seating	-11837
ilitation	-11838
▁homeless	-11839
▁relating	-11840
▁substantial	-11841
pa	-11842
▁58	-11843
Date	-11844
▁Bah	-11845
▁cig	-11846
▁ward	-11847
▁cakes	-11848
▁Chicken	-11849
▁Faculty	-11850
▁beloved	-11851
▁emotion	-11852
▁runners	-11853
▁targets	-11854
ationally	-11855
▁Nintendo	-11856
▁operates	-11857
▁objective	-11858
▁Revolution	-11859
▁promotional	-11860
''	-11861
fam	-11862
php	-11863
awks	-11864
empl	-11865
▁Eye	-11866
▁Sit	-11867
▁ties	-11868
urrent	-11869
▁Syria	-11870
▁cited	-11871
atching	-11872
▁Watson	-11873
▁speaks	-11874
▁breathing	-11875
annah	-11876
aukee	-11877
▁1950	-11878
▁Carm	-11879
▁Cass	-11880
▁Drew	-11881
▁dump	-11882
imedia	-11883
▁Barry	-11884
▁Within	-11885
▁habits	-11886
▁Monitor	-11887
▁tornado	-11888
▁tribute	-11889
▁tablespoon	-11890
▁confirmation	-11891
▁Championships	-11892
CL	-11893
’,	-11894
eta	-11895
▁Pra	-11896
▁lun	-11897
▁spa	-11898
isode	-11899
shine	-11900
▁1995	-11901
▁brew	-11902
▁chef	-11903
▁angry	-11904
▁crust	-11905
▁rolls	-11906
▁seeks	-11907
▁Easter	-11908
▁accord	-11909
▁traged	-11910
▁resolve	-11911
▁Category	-11912
▁revenues	-11913
▁territory	-11914
▁attractions	-11915
IGHT	-11916
enny	-11917
pled	-11918
▁Aid	-11919
▁Him	-11920
Point	-11921
▁Soph	-11922
▁grid	-11923
▁hott	-11924
▁ramp	-11925
▁Graph	-11926
ointing	-11927
▁priced	-11928
▁testim	-11929
▁colored	-11930
▁preserve	-11931
▁profiles	-11932
▁Chocolate	-11933
▁Emergency	-11934
▁depression	-11935
▁headquarters	-11936
dem	-11937
sub	-11938
▁Da	-11939
▁EP	-11940
elli	-11941
kers	-11942
reck	-11943
▁Pap	-11944
umblr	-11945
▁CONT	-11946
▁Doll	-11947
▁Used	-11948
inance	-11949
▁Basic	-11950
▁Eagle	-11951
▁Berlin	-11952
▁horror	-11953
▁recept	-11954
▁trucks	-11955
▁continu	-11956
▁enabled	-11957
▁churches	-11958
▁organize	-11959
▁Breakfast	-11960
▁occasions	-11961
▁productive	-11962
Get	-11963
▁HA	-11964
▁IC	-11965
ivic	-11966
▁Fix	-11967
ifice	-11968
▁Chef	-11969
▁MORE	-11970
▁Mand	-11971
▁seal	-11972
abling	-11973
▁Adult	-11974
▁cater	-11975
▁Harbor	-11976
▁offend	-11977
▁undert	-11978
ribution	-11979
▁settled	-11980
▁Wireless	-11981
▁analysts	-11982
▁removing	-11983
▁Beautiful	-11984
▁amenities	-11985
▁investigate	-11986
▁appreciation	-11987
▁€	-11988
Cal	-11989
ylon	-11990
▁1.0	-11991
▁Alt	-11992
▁Vac	-11993
▁cub	-11994
▁gal	-11995
adows	-11996
rying	-11997
▁bake	-11998
▁pond	-11999
▁rust	-12000
▁appet	-12001
▁drunk	-12002
▁Morris	-12003
▁affairs	-12004
▁funeral	-12005
▁heritage	-12006
▁moisture	-12007
▁traveled	-12008
▁Cambridge	-12009
▁Cardinals	-12010
▁diagnosed	-12011
▁conferences	-12012
EX	-12013
hh	-12014
rek	-12015
▁Ju	-12016
From	-12017
anne	-12018
ardo	-12019
igen	-12020
illo	-12021
mind	-12022
▁CAN	-12023
▁Pil	-12024
▁dil	-12025
▁pear	-12026
▁ster	-12027
▁Idaho	-12028
▁Jacob	-12029
▁overs	-12030
▁Warner	-12031
▁Freedom	-12032
▁handled	-12033
▁stomach	-12034
▁supplier	-12035
▁financing	-12036
▁executives	-12037
3-	-12038
47	-12039
URE	-12040
▁Lif	-12041
▁Tol	-12042
▁thy	-12043
▁Bake	-12044
▁euro	-12045
▁sink	-12046
▁Items	-12047
▁Value	-12048
mediate	-12049
▁Hudson	-12050
▁lovers	-12051
▁steady	-12052
▁throws	-12053
▁wisdom	-12054
UI	-12055
▁GA	-12056
▁SL	-12057
walk	-12058
▁bot	-12059
icked	-12060
▁barg	-12061
▁flip	-12062
idding	-12063
istent	-12064
▁flags	-12065
▁invas	-12066
▁Choice	-12067
▁trusted	-12068
▁Designed	-12069
▁outdoors	-12070
▁Vancouver	-12071
▁converted	-12072
▁consulting	-12073
▁merchandise	-12074
▁FM	-12075
iper	-12076
▁Pic	-12077
▁Tob	-12078
comed	-12079
▁cord	-12080
▁outf	-12081
▁abund	-12082
▁Coffee	-12083
▁Recipe	-12084
▁Retail	-12085
▁Francis	-12086
▁console	-12087
▁proceeds	-12088
▁Hopefully	-12089
▁nationally	-12090
ACT	-12091
pur	-12092
agic	-12093
gian	-12094
LEASE	-12095
▁None	-12096
▁Given	-12097
▁Jamie	-12098
▁bacon	-12099
ounding	-12100
▁Lauren	-12101
▁Rivers	-12102
▁dispos	-12103
▁costume	-12104
▁rejected	-12105
▁sporting	-12106
rimination	-12107
▁criticism	-12108
▁delighted	-12109
▁forgotten	-12110
▁attempting	-12111
▁Commissioner	-12112
Ph	-12113
abs	-12114
aus	-12115
▁1-2	-12116
▁Rot	-12117
rowave	-12118
▁Citiz	-12119
▁Wells	-12120
▁liver	-12121
▁nutri	-12122
▁rocks	-12123
▁theft	-12124
▁Inside	-12125
▁convin	-12126
▁Indians	-12127
▁Birthday	-12128
▁assembly	-12129
▁recession	-12130
▁simultane	-12131
▁identification	-12132
Can	-12133
sis	-12134
▁Gi	-12135
othy	-12136
▁lap	-12137
afood	-12138
▁8:00	-12139
▁Dame	-12140
▁Stir	-12141
▁cant	-12142
▁zoom	-12143
▁Cards	-12144
▁slides	-12145
--------	-12146
▁divorce	-12147
▁stopping	-12148
▁newspapers	-12149
▁understood	-12150
▁accompanied	-12151
▁Organization	-12152
▁conversations	-12153
62	-12154
▁Ky	-12155
▁ax	-12156
▁Cav	-12157
▁Fel	-12158
break	-12159
click	-12160
plant	-12161
▁cush	-12162
▁sher	-12163
▁tong	-12164
▁oblig	-12165
▁Saints	-12166
▁Turner	-12167
▁digest	-12168
▁meters	-12169
▁whilst	-12170
liminary	-12171
▁beaches	-12172
▁blocked	-12173
▁contend	-12174
▁protocol	-12175
▁computing	-12176
▁substance	-12177
▁continuous	-12178
-)	-12179
900	-12180
:20	-12181
Bul	-12182
pot	-12183
▁68	-12184
boys	-12185
▁Hem	-12186
/2011	-12187
▁Kirk	-12188
▁climb	-12189
▁steam	-12190
▁Butter	-12191
▁ballot	-12192
▁bother	-12193
▁parade	-12194
▁solely	-12195
▁Thunder	-12196
▁earning	-12197
▁reverse	-12198
▁romance	-12199
porations	-12200
▁Campaign	-12201
▁Consider	-12202
▁dressing	-12203
▁Northwest	-12204
▁Publisher	-12205
▁exploration	-12206
▁imagination	-12207
▁recommendation	-12208
-01	-12209
▁1⁄2	-12210
▁lol	-12211
ummer	-12212
▁Dell	-12213
▁Mets	-12214
▁neat	-12215
waukee	-12216
▁Ident	-12217
▁Mason	-12218
leading	-12219
▁alumni	-12220
▁analyt	-12221
▁routes	-12222
▁Heights	-12223
▁scenario	-12224
▁directors	-12225
▁connecting	-12226
▁disability	-12227
▁disabilities	-12228
▁specifications	-12229
bin	-12230
imb	-12231
▁Lem	-12232
▁Wii	-12233
▁Wow	-12234
▁aqu	-12235
licop	-12236
▁gray	-12237
▁pine	-12238
▁Multi	-12239
▁enorm	-12240
▁mayor	-12241
antages	-12242
▁floors	-12243
▁gently	-12244
▁hungry	-12245
▁merely	-12246
▁tomato	-12247
▁Previous	-12248
▁apparent	-12249
▁evaluate	-12250
▁tutorial	-12251
▁concluded	-12252
appropriate	-12253
▁elementary	-12254
xts	-12255
▁NJ	-12256
half	-12257
▁Ian	-12258
acker	-12259
iches	-12260
▁Brun	-12261
▁Alice	-12262
▁Exhib	-12263
▁shade	-12264
▁desert	-12265
▁foster	-12266
▁shaped	-12267
▁amongst	-12268
▁cooling	-12269
▁stadium	-12270
itzerland	-12271
▁Cemetery	-12272
▁Phillips	-12273
▁momentum	-12274
▁outcomes	-12275
▁embarrass	-12276
▁selecting	-12277
▁consultant	-12278
43	-12279
WA	-12280
vd	-12281
agu	-12282
▁#2	-12283
▁76	-12284
▁CV	-12285
▁GB	-12286
▁Rs	-12287
arts	-12288
ctic	-12289
ivan	-12290
▁pix	-12291
erver	-12292
mount	-12293
▁Diet	-12294
▁Lang	-12295
▁Marg	-12296
▁Sens	-12297
▁Terr	-12298
▁panc	-12299
▁arena	-12300
▁fancy	-12301
▁scope	-12302
▁Portug	-12303
▁Summit	-12304
▁Stanley	-12305
▁athlete	-12306
▁lasting	-12307
▁McDonald	-12308
▁decrease	-12309
▁exterior	-12310
▁template	-12311
▁withdraw	-12312
▁anonymous	-12313
▁demanding	-12314
▁accounting	-12315
EAR	-12316
dig	-12317
kyo	-12318
||1	-12319
▁MC	-12320
oded	-12321
▁Esc	-12322
▁Celt	-12323
▁Hell	-12324
▁pron	-12325
▁Monte	-12326
▁backs	-12327
▁baked	-12328
▁Johnny	-12329
▁equity	-12330
▁Capitol	-12331
▁appearing	-12332
▁happiness	-12333
▁agriculture	-12334
Go	-12335
HP	-12336
FOR	-12337
dri	-12338
mel	-12339
▁MY	-12340
▁Boo	-12341
▁EPA	-12342
▁FBI	-12343
▁pig	-12344
ammed	-12345
leted	-12346
▁Spot	-12347
▁glow	-12348
▁soda	-12349
▁aging	-12350
▁burst	-12351
borough	-12352
▁Prices	-12353
▁potato	-12354
▁Crystal	-12355
▁Strateg	-12356
▁deserves	-12357
▁downloads	-12358
▁libraries	-12359
▁realistic	-12360
▁competitors	-12361
▁FC	-12362
cker	-12363
▁BMW	-12364
▁vel	-12365
agger	-12366
ieces	-12367
throp	-12368
▁Gonz	-12369
▁Pope	-12370
▁Skin	-12371
▁damn	-12372
▁shed	-12373
writer	-12374
▁Chase	-12375
▁Opera	-12376
▁shelf	-12377
▁Oracle	-12378
▁caring	-12379
▁grades	-12380
▁intrig	-12381
▁purple	-12382
▁riders	-12383
▁settle	-12384
ications	-12385
▁Individ	-12386
▁Islamic	-12387
▁reserves	-12388
▁discussing	-12389
▁grandchildren	-12390
~~	-12391
:40	-12392
:59	-12393
ele	-12394
lar	-12395
▁8-	-12396
▁LP	-12397
turn	-12398
▁Obs	-12399
isure	-12400
▁Anti	-12401
▁Gill	-12402
▁boil	-12403
▁bump	-12404
▁mush	-12405
▁odds	-12406
elfare	-12407
▁lined	-12408
▁snack	-12409
▁tears	-12410
▁clever	-12411
▁diplom	-12412
▁superb	-12413
▁Edwards	-12414
▁assured	-12415
▁lighter	-12416
▁tablets	-12417
▁Military	-12418
▁insights	-12419
▁welcomed	-12420
ographical	-12421
▁journalists	-12422
XX	-12423
▁Ec	-12424
▁Kel	-12425
▁por	-12426
chair	-12427
▁Capt	-12428
▁dash	-12429
▁manip	-12430
iameter	-12431
▁Herald	-12432
▁Graduate	-12433
▁Together	-12434
▁Whatever	-12435
▁capability	-12436
▁physically	-12437
▁consultation	-12438
SD	-12439
mb	-12440
pic	-12441
▁Joh	-12442
▁Exam	-12443
▁Reed	-12444
▁Soul	-12445
▁mask	-12446
terest	-12447
▁Parks	-12448
▁Randy	-12449
▁Solar	-12450
▁accred	-12451
▁rookie	-12452
▁timely	-12453
▁handles	-12454
▁helicop	-12455
▁spotted	-12456
▁climbing	-12457
▁confused	-12458
▁suppliers	-12459
▁constructed	-12460
▁investigators	-12461
91	-12462
EP	-12463
iev	-12464
▁57	-12465
▁SEO	-12466
▁Sad	-12467
▁UPD	-12468
▁Wik	-12469
being	-12470
▁grey	-12471
▁tops	-12472
around	-12473
▁Issue	-12474
▁medal	-12475
▁landed	-12476
▁runner	-12477
▁slices	-12478
▁Similar	-12479
▁critics	-12480
▁endless	-12481
▁pending	-12482
irmingham	-12483
▁engineer	-12484
▁followers	-12485
▁allegations	-12486
▁intelligent	-12487
▁legislative	-12488
fa	-12489
Des	-12490
▁Dal	-12491
▁bes	-12492
allel	-12493
▁Hunt	-12494
▁Left	-12495
ancers	-12496
cribed	-12497
▁nurse	-12498
▁wings	-12499
▁Sweden	-12500
▁Temple	-12501
▁Montana	-12502
▁notified	-12503
▁sequence	-12504
ean	-12505
▁Ka	-12506
elta	-12507
mile	-12508
unct	-12509
▁din	-12510
dings	-12511
▁Rams	-12512
▁aest	-12513
50,000	-12514
▁dying	-12515
▁imper	-12516
▁relie	-12517
▁suits	-12518
▁plates	-12519
▁Organic	-12520
▁editors	-12521
▁Explorer	-12522
▁Montreal	-12523
▁Bloomberg	-12524
▁Yesterday	-12525
▁nominated	-12526
▁PD	-12527
cycl	-12528
spec	-12529
▁193	-12530
▁cupc	-12531
▁Blues	-12532
▁Crown	-12533
▁Liver	-12534
ilation	-12535
▁Jeremy	-12536
▁nomine	-12537
▁Players	-12538
▁magical	-12539
▁Mitchell	-12540
▁Starting	-12541
▁Christians	-12542
▁instructor	-12543
▁contributing	-12544
▁unfortunately	-12545
:05	-12546
▁SF	-12547
hist	-12548
oven	-12549
▁Lex	-12550
party	-12551
▁Dest	-12552
▁amid	-12553
▁Fight	-12554
▁Mills	-12555
▁Tiger	-12556
▁comed	-12557
▁moral	-12558
▁sells	-12559
▁shine	-12560
▁Writer	-12561
▁opener	-12562
izations	-12563
▁Between	-12564
▁fitting	-12565
▁bloggers	-12566
▁placement	-12567
▁politicians	-12568
▁Technologies	-12569
4-	-12570
:01	-12571
▁MI	-12572
amas	-12573
cure	-12574
edar	-12575
uman	-12576
▁Lux	-12577
▁Raj	-12578
senal	-12579
stown	-12580
▁Hair	-12581
▁Horn	-12582
▁Pric	-12583
▁pant	-12584
▁penc	-12585
▁Swiss	-12586
▁grill	-12587
▁shame	-12588
▁Someone	-12589
▁animated	-12590
▁currency	-12591
▁Customers	-12592
▁Recommend	-12593
▁detection	-12594
▁launching	-12595
▁Photography	-12596
▁examination	-12597
DR	-12598
▁ya	-12599
▁900	-12600
▁fut	-12601
acles	-12602
▁Chev	-12603
▁Coun	-12604
▁nest	-12605
▁wheat	-12606
itative	-12607
manship	-12608
▁Racing	-12609
▁assemb	-12610
▁nicely	-12611
▁Message	-12612
▁coupons	-12613
▁inspect	-12614
▁ranking	-12615
▁emotions	-12616
▁weakness	-12617
▁formation	-12618
▁liability	-12619
▁replacing	-12620
▁sentenced	-12621
▁adventures	-12622
▁authorized	-12623
▁dedication	-12624
05	-12625
Us	-12626
99.	-12627
ONE	-12628
▁Ot	-12629
girl	-12630
▁$4.	-12631
▁Fro	-12632
▁Isa	-12633
eston	-12634
▁Okay	-12635
▁Surv	-12636
▁pose	-12637
asting	-12638
▁Ranch	-12639
▁Ridge	-12640
▁Hockey	-12641
▁Soccer	-12642
▁citizen	-12643
▁physics	-12644
▁Articles	-12645
▁Southwest	-12646
▁disorders	-12647
▁objectives	-12648
▁vulnerable	-12649
▁Switzerland	-12650
FS	-12651
acre	-12652
ante	-12653
eton	-12654
laim	-12655
link	-12656
▁$1,	-12657
▁18.	-12658
▁les	-12659
▁Jake	-12660
▁bases	-12661
▁hilar	-12662
▁Around	-12663
▁fought	-12664
▁massage	-12665
▁neutral	-12666
▁Athletic	-12667
▁facilitate	-12668
▁installing	-12669
▁Competition	-12670
▁representation	-12671
BL	-12672
-30	-12673
fers	-12674
▁(3)	-12675
ucker	-12676
xygen	-12677
▁Kath	-12678
▁Late	-12679
▁kits	-12680
heimer	-12681
orials	-12682
▁Costa	-12683
▁Spect	-12684
▁camps	-12685
▁Brooks	-12686
▁Dragon	-12687
▁robust	-12688
▁spoken	-12689
▁absence	-12690
▁Academic	-12691
▁rotation	-12692
▁classical	-12693
▁pollution	-12694
▁requiring	-12695
▁unlimited	-12696
▁sustainability	-12697
BN	-12698
di	-12699
aton	-12700
▁Tut	-12701
Click	-12702
marks	-12703
▁Bach	-12704
▁calc	-12705
▁fleet	-12706
▁Housing	-12707
▁Picture	-12708
▁islands	-12709
▁Practice	-12710
▁cocktail	-12711
▁receives	-12712
▁convinced	-12713
▁stainless	-12714
km	-12715
Ind	-12716
▁EM	-12717
rons	-12718
▁ber	-12719
uerto	-12720
▁9:00	-12721
▁bron	-12722
▁shred	-12723
▁thumb	-12724
▁Arthur	-12725
▁expense	-12726
▁adorable	-12727
▁homemade	-12728
▁Agriculture	-12729
82	-12730
Yes	-12731
mad	-12732
||$	-12733
esis	-12734
▁Fol	-12735
▁IRS	-12736
▁arc	-12737
encer	-12738
pract	-12739
▁Dawn	-12740
▁Reid	-12741
▁Upon	-12742
▁WITH	-12743
▁reun	-12744
vation	-12745
▁Katie	-12746
▁Notre	-12747
▁Ready	-12748
attered	-12749
▁ignore	-12750
▁speeds	-12751
heastern	-12752
▁closure	-12753
▁Township	-12754
▁dropping	-12755
▁moderate	-12756
▁pitching	-12757
▁relaxing	-12758
▁departure	-12759
▁measuring	-12760
▁Birmingham	-12761
▁laboratory	-12762
▁anticipated	-12763
▁efficiently	-12764
:12	-12765
Day	-12766
USA	-12767
rer	-12768
azed	-12769
iary	-12770
▁bin	-12771
▁$200	-12772
▁Draw	-12773
▁Glen	-12774
▁cure	-12775
▁lone	-12776
▁soap	-12777
herent	-12778
▁charm	-12779
▁clinic	-12780
▁delete	-12781
▁enjoys	-12782
▁Firefox	-12783
▁eastern	-12784
▁longest	-12785
▁transit	-12786
▁trigger	-12787
▁Richmond	-12788
▁Nashville	-12789
▁execution	-12790
▁highlighted	-12791
Pal	-12792
cap	-12793
▁ic	-12794
open	-12795
unks	-12796
▁API	-12797
▁Fax	-12798
▁Kal	-12799
▁Mob	-12800
▁tel	-12801
ierra	-12802
▁Viol	-12803
▁Vermont	-12804
▁relaxed	-12805
▁intimate	-12806
▁rankings	-12807
▁reminded	-12808
▁Milwaukee	-12809
▁investing	-12810
▁conjunction	-12811
61	-12812
▁911	-12813
▁Arc	-12814
▁Spa	-12815
bably	-12816
gence	-12817
▁Gard	-12818
▁quil	-12819
roller	-12820
▁rings	-12821
▁sized	-12822
▁rhythm	-12823
▁shorts	-12824
▁finishes	-12825
▁supervis	-12826
▁surfaces	-12827
▁chemistry	-12828
▁enjoyable	-12829
▁compelling	-12830
▁touchdowns	-12831
.1	-12832
:35	-12833
▁AG	-12834
ATED	-12835
ingo	-12836
▁awa	-12837
liest	-12838
▁8:30	-12839
▁Dale	-12840
▁Fill	-12841
▁foul	-12842
▁hill	-12843
▁toug	-12844
degree	-12845
linary	-12846
▁Tokyo	-12847
▁joins	-12848
istical	-12849
reement	-12850
▁Listen	-12851
▁apples	-12852
▁mining	-12853
▁Disease	-12854
▁Fitness	-12855
▁Workshop	-12856
▁searches	-12857
▁Officials	-12858
▁headlines	-12859
▁subscribers	-12860
uv	-12861
▁LE	-12862
▁110	-12863
▁160	-12864
▁Dow	-12865
▁Fem	-12866
usive	-12867
white	-12868
▁leak	-12869
izable	-12870
ocking	-12871
▁12:00	-12872
▁outer	-12873
▁sweat	-12874
ificial	-12875
▁booked	-12876
▁mature	-12877
▁patent	-12878
▁affects	-12879
▁affiliated	-12880
▁physicians	-12881
▁complimentary	-12882
CAR	-12883
ORT	-12884
Sub	-12885
ref	-12886
▁97	-12887
ickr	-12888
some	-12889
▁PHP	-12890
▁Juan	-12891
▁Pool	-12892
▁Rank	-12893
alties	-12894
plates	-12895
▁10:00	-12896
▁Rules	-12897
▁gloss	-12898
▁rides	-12899
▁shore	-12900
million	-12901
▁Ticket	-12902
▁Triple	-12903
▁Hunting	-12904
▁Parents	-12905
▁Warrant	-12906
▁doubles	-12907
▁enemies	-12908
▁teaches	-12909
▁Stanford	-12910
▁drawings	-12911
▁peaceful	-12912
▁Apparently	-12913
:50	-12914
▁700	-12915
▁Abs	-12916
▁Tab	-12917
World	-12918
guard	-12919
ospel	-12920
▁Coup	-12921
▁Emma	-12922
▁lips	-12923
aments	-12924
esters	-12925
oustic	-12926
▁fears	-12927
▁gross	-12928
mitting	-12929
▁argued	-12930
▁dental	-12931
▁forgot	-12932
▁mixing	-12933
▁shadow	-12934
▁silent	-12935
▁sliced	-12936
▁Bernard	-12937
▁failing	-12938
▁talents	-12939
▁Pictures	-12940
▁accompany	-12941
▁Industrial	-12942
▁incorporate	-12943
▁organisations	-12944
PP	-12945
TR	-12946
bsp	-12947
mic	-12948
apse	-12949
offs	-12950
omer	-12951
▁2-3	-12952
▁Lay	-12953
ailed	-12954
brook	-12955
▁EVER	-12956
▁Gran	-12957
▁Nike	-12958
▁fier	-12959
▁mall	-12960
ceived	-12961
▁Danny	-12962
▁awful	-12963
▁boats	-12964
▁loyal	-12965
▁shake	-12966
▁Deputy	-12967
▁Foster	-12968
▁Puerto	-12969
▁tempor	-12970
▁dessert	-12971
▁renowned	-12972
▁disappoint	-12973
sk	-12974
:25	-12975
may	-12976
▁Bh	-12977
▁RV	-12978
▁Alf	-12979
▁MAR	-12980
▁Tow	-12981
ailand	-12982
ocated	-12983
▁Floor	-12984
▁Range	-12985
claimer	-12986
▁toilet	-12987
▁Running	-12988
▁hottest	-12989
▁branches	-12990
▁radiation	-12991
▁Initiative	-12992
Ste	-12993
mus	-12994
▁Byr	-12995
inted	-12996
▁gran	-12997
▁inev	-12998
▁lane	-12999
▁wool	-13000
▁Defin	-13001
▁Tower	-13002
▁Ultra	-13003
▁march	-13004
▁toxic	-13005
▁Newton	-13006
▁banned	-13007
▁burden	-13008
▁duplic	-13009
▁exempt	-13010
▁kicked	-13011
▁strips	-13012
▁topped	-13013
▁Fantasy	-13014
▁Princip	-13015
▁Speaker	-13016
▁closest	-13017
▁earthqu	-13018
▁feeding	-13019
▁suppose	-13020
▁warming	-13021
▁midnight	-13022
▁variable	-13023
▁weekends	-13024
▁referring	-13025
▁inspection	-13026
▁mainstream	-13027
fil	-13028
oca	-13029
uez	-13030
iour	-13031
onde	-13032
▁Mas	-13033
ggies	-13034
nered	-13035
pling	-13036
▁Bass	-13037
▁Bike	-13038
▁Marl	-13039
▁Myst	-13040
▁arom	-13041
▁shar	-13042
▁2,000	-13043
▁Serve	-13044
▁sidew	-13045
▁tract	-13046
inciple	-13047
▁Opport	-13048
▁Vision	-13049
▁quoted	-13050
▁venues	-13051
▁courage	-13052
▁fabrics	-13053
▁possess	-13054
▁checkout	-13055
▁reminder	-13056
▁affiliate	-13057
▁fundraising	-13058
▁measurements	-13059
SM	-13060
arth	-13061
udge	-13062
▁2-1	-13063
▁Hub	-13064
▁RAM	-13065
▁dip	-13066
ernel	-13067
jamin	-13068
▁NOTE	-13069
▁Turk	-13070
▁silk	-13071
closed	-13072
▁loads	-13073
▁tuned	-13074
▁width	-13075
▁Assess	-13076
▁Empire	-13077
▁Premium	-13078
▁arrives	-13079
▁educate	-13080
▁modules	-13081
▁shorter	-13082
▁Scottish	-13083
▁bacteria	-13084
▁lineback	-13085
▁corporations	-13086
▁%	-13087
auc	-13088
eded	-13089
poin	-13090
▁LCD	-13091
▁Tai	-13092
▁Tar	-13093
▁Cubs	-13094
▁Lost	-13095
▁cere	-13096
resist	-13097
▁Blake	-13098
▁stats	-13099
▁Peters	-13100
▁ginger	-13101
▁insect	-13102
▁verify	-13103
▁gardens	-13104
▁delicate	-13105
▁facebook	-13106
▁pleasant	-13107
▁Indonesia	-13108
▁Interview	-13109
▁creatures	-13110
▁seemingly	-13111
▁travelers	-13112
▁prohibited	-13113
▁subsequent	-13114
SL	-13115
azi	-13116
umm	-13117
▁toe	-13118
▁Sect	-13119
▁dose	-13120
▁flaw	-13121
gorith	-13122
▁antib	-13123
▁Either	-13124
▁Harper	-13125
▁Walter	-13126
▁salmon	-13127
▁Average	-13128
▁Present	-13129
▁acclaim	-13130
▁consent	-13131
▁painful	-13132
▁Clinical	-13133
▁cultures	-13134
▁recycled	-13135
▁sandwich	-13136
▁violation	-13137
ratulations	-13138
▁advantages	-13139
▁remembered	-13140
▁spokeswoman	-13141
Tw	-13142
hess	-13143
▁Tip	-13144
▁fer	-13145
▁hem	-13146
inars	-13147
▁Pour	-13148
▁Soon	-13149
▁Wake	-13150
health	-13151
▁fails	-13152
working	-13153
▁Nursing	-13154
▁Pirates	-13155
▁fulfill	-13156
▁bedrooms	-13157
▁Associates	-13158
▁submission	-13159
▁cholesterol	-13160
▁Gh	-13161
▁(20	-13162
▁Sin	-13163
▁USD	-13164
▁fib	-13165
range	-13166
▁6:30	-13167
▁Incre	-13168
▁Lakes	-13169
▁encry	-13170
▁heels	-13171
▁packs	-13172
▁iconic	-13173
▁resign	-13174
▁Masters	-13175
▁Virtual	-13176
▁Wallace	-13177
▁sectors	-13178
▁Ultimate	-13179
▁seasonal	-13180
▁treasure	-13181
▁attorneys	-13182
▁durability	-13183
▁Interactive	-13184
▁organisation	-13185
chi	-13186
lay	-13187
▁AA	-13188
brew	-13189
ques	-13190
size	-13191
▁GRE	-13192
▁Veh	-13193
hesis	-13194
izard	-13195
▁9:30	-13196
▁chic	-13197
▁pars	-13198
People	-13199
owship	-13200
▁Occup	-13201
▁Owner	-13202
▁accum	-13203
▁ankle	-13204
▁Rodrig	-13205
▁Taking	-13206
▁astron	-13207
▁builds	-13208
▁heated	-13209
▁lenses	-13210
▁traded	-13211
▁turkey	-13212
▁Captain	-13213
▁Imagine	-13214
▁apparel	-13215
▁cuisine	-13216
▁dispute	-13217
intendent	-13218
▁animation	-13219
▁suspected	-13220
▁Operations	-13221
▁adjustable	-13222
▁prestigious	-13223
83	-13224
IES	-13225
lla	-13226
▁53	-13227
▁59	-13228
▁Fu	-13229
▁VP	-13230
rors	-13231
▁ACC	-13232
▁Ele	-13233
▁Fit	-13234
▁Kle	-13235
etter	-13236
phony	-13237
▁deer	-13238
▁muff	-13239
▁rape	-13240
▁Delta	-13241
▁Route	-13242
▁Seven	-13243
▁Kindle	-13244
▁beaten	-13245
▁immune	-13246
▁Investig	-13247
▁navigate	-13248
▁Associate	-13249
▁designing	-13250
▁celebrities	-13251
Fl	-13252
▁(“	-13253
▁61	-13254
▁Ll	-13255
▁Ry	-13256
▁Sud	-13257
arium	-13258
▁Hind	-13259
▁Lanc	-13260
Posted	-13261
ipedia	-13262
▁Shore	-13263
▁robot	-13264
▁Proble	-13265
▁plugin	-13266
▁stitch	-13267
▁strive	-13268
▁Against	-13269
▁Episode	-13270
▁Quarter	-13271
▁posters	-13272
▁wherever	-13273
▁movements	-13274
▁invitation	-13275
▁transferred	-13276
▁agricultural	-13277
▁intersection	-13278
/.	-13279
Am	-13280
rez	-13281
▁BT	-13282
Time	-13283
▁Mes	-13284
▁Pul	-13285
▁bio	-13286
▁Drop	-13287
▁Fell	-13288
▁fond	-13289
▁migr	-13290
Please	-13291
▁Faith	-13292
▁slice	-13293
▁Others	-13294
▁worthy	-13295
atabases	-13296
ographer	-13297
▁Griffin	-13298
▁Sustain	-13299
▁colours	-13300
▁envelop	-13301
▁mounted	-13302
▁tragedy	-13303
▁Delaware	-13304
▁overtime	-13305
▁sometime	-13306
▁defending	-13307
▁exercises	-13308
▁recovered	-13309
▁ridiculous	-13310
▁selections	-13311
▁internationally	-13312
81	-13313
uto	-13314
yon	-13315
Your	-13316
affe	-13317
erse	-13318
umph	-13319
acted	-13320
▁Path	-13321
eneath	-13322
▁Match	-13323
▁skirt	-13324
▁socks	-13325
▁wides	-13326
▁Become	-13327
▁Rather	-13328
▁ethnic	-13329
▁holder	-13330
▁ounces	-13331
▁arrange	-13332
▁nearest	-13333
▁Companies	-13334
▁arguments	-13335
▁refreshing	-13336
▁preliminary	-13337
▁specialists	-13338
▁specialized	-13339
▁transformation	-13340
],	-13341
ACE	-13342
bey	-13343
▁RF	-13344
show	-13345
▁Aub	-13346
▁Hob	-13347
▁cha	-13348
▁fax	-13349
etics	-13350
neath	-13351
▁glam	-13352
▁glob	-13353
Source	-13354
normal	-13355
▁2005.	-13356
▁Julie	-13357
▁align	-13358
▁elite	-13359
▁query	-13360
▁Submit	-13361
▁rumors	-13362
▁blessed	-13363
▁corners	-13364
▁embrace	-13365
▁portray	-13366
▁retreat	-13367
▁Instruct	-13368
▁Modified	-13369
▁Schedule	-13370
▁attendees	-13371
▁confusion	-13372
fi	-13373
-24	-13374
Jan	-13375
▁Cit	-13376
▁Haz	-13377
▁jet	-13378
aders	-13379
▁newer	-13380
parents	-13381
▁robber	-13382
▁Alexand	-13383
▁receipt	-13384
▁secured	-13385
▁Document	-13386
▁Thailand	-13387
▁archives	-13388
▁specially	-13389
▁presenting	-13390
Bay	-13391
Back	-13392
▁IBM	-13393
▁eco	-13394
there	-13395
▁grip	-13396
shirts	-13397
▁Sugar	-13398
▁Treas	-13399
▁squee	-13400
ificent	-13401
▁Palace	-13402
▁lining	-13403
▁Healthy	-13404
▁cartoon	-13405
▁permits	-13406
▁proport	-13407
▁shelves	-13408
▁advocate	-13409
▁charming	-13410
▁concerts	-13411
▁sciences	-13412
▁intensive	-13413
▁Historical	-13414
▁Louisville	-13415
▁journalist	-13416
▁underground	-13417
▁Applications	-13418
▁Conservation	-13419
▁manufactured	-13420
/20	-13421
oni	-13422
▁dot	-13423
▁Rate	-13424
▁Vill	-13425
▁poem	-13426
▁infant	-13427
▁shield	-13428
▁mothers	-13429
▁attacked	-13430
▁discusses	-13431
▁workforce	-13432
▁Prevention	-13433
▁contractor	-13434
69	-13435
WS	-13436
:27	-13437
TMs	-13438
Why	-13439
▁..	-13440
ANCE	-13441
your	-13442
▁Ple	-13443
▁Sau	-13444
izers	-13445
pread	-13446
▁Cany	-13447
▁Grey	-13448
▁Sacr	-13449
▁keen	-13450
handed	-13451
▁tempt	-13452
▁wound	-13453
▁Letter	-13454
▁refuge	-13455
▁batting	-13456
▁vitamin	-13457
▁Activity	-13458
▁supplied	-13459
▁workplace	-13460
▁arrangement	-13461
▁Constitution	-13462
▁destinations	-13463
▁implementing	-13464
TO	-13465
:42	-13466
drop	-13467
otta	-13468
▁NPR	-13469
▁Chat	-13470
▁Magn	-13471
▁Stri	-13472
▁Trek	-13473
▁2003,	-13474
▁Grove	-13475
▁essay	-13476
▁grows	-13477
ascular	-13478
inction	-13479
powered	-13480
▁Fisher	-13481
▁Bennett	-13482
▁holders	-13483
▁laundry	-13484
▁refresh	-13485
▁reminds	-13486
▁scandal	-13487
▁stepped	-13488
▁washing	-13489
▁Medicaid	-13490
▁Melbourne	-13491
▁motivated	-13492
▁Electronic	-13493
▁addressing	-13494
▁effectiveness	-13495
GR	-13496
ND	-13497
][	-13498
IRE	-13499
say	-13500
▁Va	-13501
▁Egg	-13502
▁fet	-13503
▁jar	-13504
▁vig	-13505
ostic	-13506
▁Dear	-13507
▁Dust	-13508
alling	-13509
hester	-13510
opedia	-13511
othing	-13512
▁Crime	-13513
▁Looks	-13514
▁femin	-13515
▁fence	-13516
▁harsh	-13517
▁hoped	-13518
▁resem	-13519
▁deadly	-13520
▁gluten	-13521
▁shades	-13522
▁Parking	-13523
▁Teacher	-13524
▁airline	-13525
▁backing	-13526
▁camping	-13527
▁Benjamin	-13528
▁Physical	-13529
▁Reference	-13530
▁decorated	-13531
▁municipal	-13532
▁promotions	-13533
ANS	-13534
Int	-13535
Oct	-13536
||0	-13537
▁67	-13538
user	-13539
▁1/3	-13540
▁Ott	-13541
▁jam	-13542
▁pub	-13543
▁Sell	-13544
▁lend	-13545
payers	-13546
▁breed	-13547
▁buyer	-13548
▁trash	-13549
▁Expert	-13550
▁Planet	-13551
▁comics	-13552
▁revers	-13553
▁tastes	-13554
▁emerged	-13555
▁tourism	-13556
▁twitter	-13557
▁Brothers	-13558
▁composed	-13559
▁stirring	-13560
▁permitted	-13561
▁struggled	-13562
▁universal	-13563
▁provisions	-13564
▁grandmother	-13565
▁identifying	-13566
▁surprisingly	-13567
20.	-13568
50.	-13569
Apr	-13570
cha	-13571
jan	-13572
▁77	-13573
▁Na	-13574
▁NOW	-13575
▁env	-13576
▁syr	-13577
stage	-13578
keeper	-13579
▁Spark	-13580
▁retro	-13581
▁Circle	-13582
▁Native	-13583
▁tricks	-13584
▁Superior	-13585
▁Wildlife	-13586
▁Equipment	-13587
▁healthier	-13588
▁provision	-13589
▁conducting	-13590
▁nomination	-13591
▁destruction	-13592
▁translation	-13593
()	-13594
iy	-13595
Med	-13596
pin	-13597
anas	-13598
clip	-13599
ixon	-13600
pres	-13601
▁Bid	-13602
adise	-13603
group	-13604
illet	-13605
ogurt	-13606
▁Merc	-13607
▁WILL	-13608
▁indu	-13609
▁outr	-13610
▁Draft	-13611
▁Grade	-13612
▁Metal	-13613
▁Miles	-13614
▁congr	-13615
▁draws	-13616
▁lying	-13617
ampagne	-13618
writing	-13619
▁Volume	-13620
▁alerts	-13621
Bulletin	-13622
▁coconut	-13623
▁elderly	-13624
▁grabbed	-13625
▁notable	-13626
▁reduces	-13627
▁Intellig	-13628
▁mechanism	-13629
▁encourages	-13630
▁influenced	-13631
▁mechanical	-13632
▁entrepreneur	-13633
89	-13634
END	-13635
▁XP	-13636
alph	-13637
chet	-13638
▁22.	-13639
▁DIY	-13640
▁Vik	-13641
email	-13642
isons	-13643
racts	-13644
▁Joel	-13645
▁glue	-13646
ippers	-13647
member	-13648
second	-13649
tended	-13650
▁Bryan	-13651
▁Neigh	-13652
▁Pearl	-13653
ometown	-13654
▁ancest	-13655
▁excuse	-13656
▁finals	-13657
▁marine	-13658
▁retrie	-13659
▁sensor	-13660
▁Opening	-13661
▁outlets	-13662
▁enormous	-13663
▁sacrifice	-13664
.]	-13665
kg	-13666
ASS	-13667
OOK	-13668
▁Vi	-13669
Well	-13670
onia	-13671
park	-13672
▁mit	-13673
inery	-13674
▁knit	-13675
▁masc	-13676
▁slim	-13677
struct	-13678
usalem	-13679
▁Craft	-13680
▁Worth	-13681
▁glory	-13682
ournals	-13683
▁Pretty	-13684
▁Regard	-13685
▁Therap	-13686
▁multip	-13687
▁scared	-13688
▁Carroll	-13689
▁Walmart	-13690
▁acquire	-13691
▁beliefs	-13692
▁cycling	-13693
▁infring	-13694
▁vinegar	-13695
▁Actually	-13696
▁province	-13697
▁quarters	-13698
▁varieties	-13699
▁homeowners	-13700
▁reliability	-13701
▁neighborhoods	-13702
rik	-13703
▁BP	-13704
ifle	-13705
such	-13706
▁PhD	-13707
▁ate	-13708
▁Thor	-13709
▁resc	-13710
ancell	-13711
oulder	-13712
▁brack	-13713
▁logic	-13714
▁scary	-13715
▁ribbon	-13716
▁vendor	-13717
▁Gardens	-13718
▁custody	-13719
▁Advisory	-13720
▁annoying	-13721
▁Nationals	-13722
▁acceptable	-13723
▁boundaries	-13724
▁distribute	-13725
▁occasional	-13726
eno	-13727
gom	-13728
utt	-13729
isle	-13730
▁Arn	-13731
▁Dad	-13732
▁bay	-13733
-2010	-13734
ijing	-13735
▁Ferr	-13736
ilight	-13737
▁Tommy	-13738
▁steal	-13739
reation	-13740
▁commod	-13741
▁sooner	-13742
▁Knights	-13743
▁Protect	-13744
▁anxiety	-13745
▁cleared	-13746
▁ensures	-13747
▁rebuild	-13748
▁Princess	-13749
▁honestly	-13750
▁horrible	-13751
▁judgment	-13752
▁Parliament	-13753
▁applicants	-13754
:11	-13755
COM	-13756
OOD	-13757
bes	-13758
due	-13759
rys	-13760
▁62	-13761
▁NV	-13762
▁TE	-13763
auge	-13764
iasm	-13765
rien	-13766
spot	-13767
kward	-13768
gments	-13769
necess	-13770
▁bonds	-13771
▁chick	-13772
▁kinda	-13773
▁comply	-13774
▁propri	-13775
▁Centers	-13776
▁Studios	-13777
▁Champion	-13778
▁Cultural	-13779
▁Featured	-13780
▁algorith	-13781
▁deciding	-13782
▁memorial	-13783
▁portrait	-13784
▁quantity	-13785
▁accepting	-13786
▁Television	-13787
▁classified	-13788
▁underlying	-13789
▁variations	-13790
▁individually	-13791
▁administrators	-13792
FO	-13793
ethe	-13794
▁16.	-13795
▁Ble	-13796
urers	-13797
▁Scar	-13798
▁Yoga	-13799
▁twin	-13800
▁Foods	-13801
▁Minor	-13802
▁Offer	-13803
▁Pages	-13804
▁clips	-13805
▁subur	-13806
▁Branch	-13807
ublished	-13808
▁Stephan	-13809
▁advised	-13810
▁empower	-13811
▁manages	-13812
▁descriptions	-13813
▁dramatically	-13814
▁partnerships	-13815
.),	-13816
:16	-13817
IME	-13818
dis	-13819
olo	-13820
mith	-13821
zone	-13822
▁Jar	-13823
pound	-13824
▁Qual	-13825
▁Ring	-13826
▁dent	-13827
▁heal	-13828
▁tang	-13829
orship	-13830
▁Makes	-13831
▁Dinner	-13832
▁closet	-13833
▁exotic	-13834
▁rivals	-13835
▁License	-13836
▁visitor	-13837
ASHINGTON	-13838
▁carriers	-13839
▁meantime	-13840
▁countless	-13841
▁hilarious	-13842
▁Statistics	-13843
▁difficulties	-13844
▁experimental	-13845
Co	-13846
:14	-13847
ECT	-13848
ski	-13849
▁GP	-13850
ergy	-13851
inyl	-13852
▁Ale	-13853
▁Tun	-13854
▁Chad	-13855
▁Curt	-13856
▁Niss	-13857
▁boom	-13858
▁bugs	-13859
▁2004.	-13860
▁Colon	-13861
▁Panel	-13862
▁ports	-13863
▁revol	-13864
▁woods	-13865
▁tongue	-13866
▁Created	-13867
▁knocked	-13868
▁outlook	-13869
▁tackles	-13870
▁basement	-13871
▁terminal	-13872
▁teammates	-13873
▁journalism	-13874
▁distinctive	-13875
UG	-13876
ika	-13877
▁DA	-13878
▁$0.	-13879
▁192	-13880
▁20.	-13881
▁ISO	-13882
▁SUV	-13883
▁lid	-13884
third	-13885
▁Bald	-13886
▁Cruz	-13887
▁Furn	-13888
▁Thai	-13889
▁flee	-13890
▁junk	-13891
kshire	-13892
orient	-13893
▁Bulld	-13894
▁Marie	-13895
▁exped	-13896
▁Butler	-13897
▁Carlos	-13898
▁Sierra	-13899
▁cooler	-13900
▁intake	-13901
▁Falcons	-13902
▁discipl	-13903
▁pitched	-13904
▁satisfy	-13905
▁travels	-13906
▁watches	-13907
▁unveiled	-13908
▁luxurious	-13909
▁MT	-13910
▁PO	-13911
pher	-13912
▁Bor	-13913
icity	-13914
trans	-13915
▁Hamm	-13916
▁Wade	-13917
▁Album	-13918
▁Asked	-13919
▁Heavy	-13920
▁Honor	-13921
▁Logan	-13922
▁Spart	-13923
▁badly	-13924
▁bears	-13925
▁Bachel	-13926
▁affair	-13927
▁banner	-13928
▁freely	-13929
▁sewing	-13930
▁unions	-13931
▁Amazing	-13932
▁Holland	-13933
▁deliber	-13934
▁remarks	-13935
▁strikes	-13936
▁Calendar	-13937
▁compiled	-13938
▁crossing	-13939
▁commenting	-13940
▁friendship	-13941
▁influential	-13942
▁Congratulations	-13943
Cop	-13944
▁71	-13945
▁88	-13946
▁da	-13947
▁Lan	-13948
▁Rac	-13949
cepts	-13950
imens	-13951
uming	-13952
▁Teen	-13953
▁Zach	-13954
atched	-13955
▁Amend	-13956
▁Termin	-13957
▁copper	-13958
▁creator	-13959
▁matched	-13960
▁repairs	-13961
▁tuition	-13962
▁abandoned	-13963
▁licensing	-13964
▁attraction	-13965
▁subsidiary	-13966
▁composition	-13967
63	-13968
icts	-13969
▁Cox	-13970
▁Lie	-13971
▁duo	-13972
▁nan	-13973
▁shy	-13974
uated	-13975
▁Hung	-13976
▁Pete	-13977
▁fare	-13978
▁pipe	-13979
onnell	-13980
▁Fried	-13981
▁Going	-13982
▁Woman	-13983
▁modes	-13984
connect	-13985
illance	-13986
leyball	-13987
ceptions	-13988
▁Partner	-13989
aceutical	-13990
▁Database	-13991
▁catching	-13992
▁longtime	-13993
▁alternate	-13994
▁marketplace	-13995
DI	-13996
:31	-13997
▁WR	-13998
Life	-13999
eway	-14000
ping	-14001
stud	-14002
ugly	-14003
▁$40	-14004
▁gem	-14005
▁Sull	-14006
▁deem	-14007
▁hack	-14008
▁peer	-14009
osures	-14010
▁Dubai	-14011
▁icons	-14012
▁silly	-14013
▁Amanda	-14014
▁Barcel	-14015
▁modify	-14016
▁regime	-14017
▁reaches	-14018
▁skilled	-14019
▁tourist	-14020
▁Airlines	-14021
▁charging	-14022
▁diameter	-14023
▁promising	-14024
▁approached	-14025
▁protective	-14026
▁suggestion	-14027
▁underneath	-14028
▁magnificent	-14029
WE	-14030
fy	-14031
:04	-14032
aky	-14033
aph	-14034
eor	-14035
fare	-14036
▁Pod	-14037
▁Spl	-14038
▁bik	-14039
acies	-14040
grand	-14041
▁Pine	-14042
▁Risk	-14043
aneous	-14044
gomery	-14045
levard	-14046
▁Plaza	-14047
▁Saudi	-14048
▁frost	-14049
▁lands	-14050
natural	-14051
▁almond	-14052
▁gallon	-14053
▁biology	-14054
▁secrets	-14055
▁Certific	-14056
▁founding	-14057
▁Jerusalem	-14058
▁amendment	-14059
▁centuries	-14060
▁compromise	-14061
▁controller	-14062
▁differently	-14063
▁smartphones	-14064
CR	-14065
Art	-14066
▁98	-14067
Just	-14068
▁Bio	-14069
shore	-14070
▁Chen	-14071
▁Neil	-14072
▁Patt	-14073
▁Rebe	-14074
etooth	-14075
rapeut	-14076
▁Paint	-14077
▁cliff	-14078
▁bachel	-14079
▁ethics	-14080
▁modest	-14081
▁oxygen	-14082
▁impacts	-14083
▁Knowledge	-14084
▁Nutrition	-14085
▁maintains	-14086
▁vBulletin	-14087
▁experiments	-14088
:18	-14089
:22	-14090
PDF	-14091
||2	-14092
ilia	-14093
leen	-14094
▁brut	-14095
umbled	-14096
▁creep	-14097
▁manif	-14098
▁Alumni	-14099
▁Carbon	-14100
▁advise	-14101
▁hazard	-14102
▁stones	-14103
▁Already	-14104
▁caution	-14105
▁filters	-14106
▁passage	-14107
▁revised	-14108
▁explicit	-14109
▁promoted	-14110
▁retailer	-14111
▁Broadcast	-14112
▁Excellent	-14113
▁databases	-14114
▁bankruptcy	-14115
uy	-14116
:47	-14117
bra	-14118
opp	-14119
▁CB	-14120
▁HR	-14121
▁od	-14122
etta	-14123
type	-14124
▁130	-14125
▁ARE	-14126
▁Aer	-14127
▁Ful	-14128
▁UFC	-14129
otype	-14130
owing	-14131
▁Lion	-14132
▁mart	-14133
amento	-14134
▁anger	-14135
▁audit	-14136
▁feeds	-14137
▁ghost	-14138
▁herbs	-14139
▁safer	-14140
▁intend	-14141
▁poison	-14142
▁ranges	-14143
▁regret	-14144
▁worlds	-14145
▁Counsel	-14146
▁rushing	-14147
▁bookmark	-14148
▁enabling	-14149
▁commented	-14150
▁releasing	-14151
▁limitations	-14152
zo	-14153
-1,	-14154
:29	-14155
aru	-14156
nan	-14157
▁78	-14158
▁Suz	-14159
▁lib	-14160
acred	-14161
chant	-14162
istle	-14163
▁Craw	-14164
ampire	-14165
iating	-14166
▁skate	-14167
olphins	-14168
▁Nether	-14169
▁Orders	-14170
▁boasts	-14171
▁Beijing	-14172
▁Usually	-14173
▁damages	-14174
▁lecture	-14175
▁tasting	-14176
▁tension	-14177
▁touched	-14178
▁musician	-14179
▁Guarantee	-14180
▁automated	-14181
▁renewable	-14182
▁publishers	-14183
▁repeatedly	-14184
▁supportive	-14185
▁Coordinator	-14186
▁orientation	-14187
▁progressive	-14188
▁establishment	-14189
▁constitutional	-14190
▁simultaneously	-14191
:33	-14192
esc	-14193
arma	-14194
hole	-14195
thal	-14196
uffy	-14197
▁bom	-14198
▁cum	-14199
▁5:00	-14200
▁REAL	-14201
▁mamm	-14202
rolled	-14203
▁Eddie	-14204
▁Views	-14205
▁brick	-14206
itarian	-14207
itivity	-14208
▁Angels	-14209
▁buried	-14210
▁praise	-14211
▁Summary	-14212
▁Tonight	-14213
▁logging	-14214
▁mounting	-14215
▁Coalition	-14216
▁relatives	-14217
▁Investment	-14218
▁Publishing	-14219
79	-14220
⁄4	-14221
ERY	-14222
▁Mt	-14223
insp	-14224
orus	-14225
robe	-14226
than	-14227
▁Hab	-14228
▁McD	-14229
▁Rug	-14230
▁USC	-14231
ftime	-14232
oodle	-14233
▁Rush	-14234
▁Zone	-14235
▁peek	-14236
anners	-14237
ometer	-14238
ooting	-14239
▁Extra	-14240
▁Pengu	-14241
▁genes	-14242
▁pairs	-14243
▁Almost	-14244
▁Syrian	-14245
▁divers	-14246
▁guided	-14247
▁peanut	-14248
▁pickup	-14249
▁raises	-14250
▁suited	-14251
▁signals	-14252
▁explores	-14253
▁affecting	-14254
▁explaining	-14255
▁programmes	-14256
▁acknowledged	-14257
▁photographers	-14258
▁Representatives	-14259
:55	-14260
Dep	-14261
mid	-14262
rin	-14263
▁63	-14264
▁RT	-14265
ggie	-14266
▁Bun	-14267
▁Vel	-14268
▁avo	-14269
erals	-14270
large	-14271
▁Gear	-14272
▁Leaf	-14273
▁Stre	-14274
▁fame	-14275
▁grat	-14276
▁lime	-14277
holder	-14278
▁Agent	-14279
▁Block	-14280
▁tower	-14281
legiate	-14282
osystem	-14283
▁Strong	-14284
▁relate	-14285
communic	-14286
▁Greater	-14287
▁battles	-14288
▁literary	-14289
▁situated	-14290
▁acceptance	-14291
▁dimensions	-14292
▁reservation	-14293
▁implications	-14294
SO	-14295
bag	-14296
bec	-14297
isd	-14298
pdf	-14299
▁LI	-14300
▁Ru	-14301
▁ow	-14302
gary	-14303
uder	-14304
zech	-14305
▁16-	-14306
▁Jet	-14307
▁dub	-14308
▁gad	-14309
,000,	-14310
▁hike	-14311
▁urge	-14312
ayette	-14313
olesale	-14314
▁Martha	-14315
▁Climate	-14316
▁Recipes	-14317
▁circles	-14318
▁deleted	-14319
▁planted	-14320
▁podcast	-14321
▁portions	-14322
▁Political	-14323
▁preference	-14324
▁achievements	-14325
▁collaborative	-14326
.).	-14327
Che	-14328
IAL	-14329
pal	-14330
ulu	-14331
uru	-14332
▁UV	-14333
▁Bot	-14334
osher	-14335
ublin	-14336
▁AIDS	-14337
▁Sold	-14338
▁alph	-14339
▁rect	-14340
agraph	-14341
▁Pizza	-14342
▁Upper	-14343
▁sunny	-14344
▁Canyon	-14345
▁cultiv	-14346
▁waited	-14347
▁delayed	-14348
▁forcing	-14349
▁welfare	-14350
expensive	-14351
▁spacious	-14352
▁Barcelona	-14353
▁Northeast	-14354
▁sustained	-14355
▁Healthcare	-14356
▁WASHINGTON	-14357
▁enthusiasm	-14358
52	-14359
fu	-14360
▁→	-14361
Eng	-14362
OUT	-14363
Some	-14364
▁7:00	-14365
▁Cafe	-14366
▁ende	-14367
▁gard	-14368
▁sake	-14369
ending	-14370
▁chill	-14371
▁fatal	-14372
▁kicks	-14373
▁Nathan	-14374
▁Regular	-14375
▁beneath	-14376
▁reforms	-14377
▁Networks	-14378
▁abstract	-14379
▁Directory	-14380
▁achieving	-14381
▁additions	-14382
▁incorrect	-14383
▁qualities	-14384
▁Educational	-14385
FT	-14386
-23	-14387
dra	-14388
fin	-14389
fix	-14390
ibe	-14391
▁SB	-14392
2012	-14393
ften	-14394
help	-14395
tage	-14396
▁Swe	-14397
aways	-14398
▁1994	-14399
▁Bent	-14400
▁horm	-14401
▁Ashley	-14402
▁Unless	-14403
▁burned	-14404
▁strain	-14405
▁subsid	-14406
ifferent	-14407
▁broader	-14408
▁seafood	-14409
▁Historic	-14410
▁Warranty	-14411
▁complain	-14412
▁embedded	-14413
▁interpre	-14414
▁inviting	-14415
▁Montgomery	-14416
▁Production	-14417
▁agreements	-14418
▁challenged	-14419
▁qualifying	-14420
ju	-14421
:17	-14422
usc	-14423
angs	-14424
orns	-14425
▁125	-14426
▁OFF	-14427
▁Stu	-14428
▁nod	-14429
ingle	-14430
start	-14431
▁stur	-14432
▁sung	-14433
▁Bever	-14434
▁Close	-14435
▁cyber	-14436
▁Cruise	-14437
▁tattoo	-14438
▁vocals	-14439
▁adapted	-14440
▁crystal	-14441
▁shocked	-14442
▁examined	-14443
▁Catherine	-14444
▁microwave	-14445
▁appliances	-14446
▁supplements	-14447
▁concentration	-14448
SB	-14449
SI	-14450
ao	-14451
-21	-14452
:43	-14453
Off	-14454
▁Gw	-14455
▁DIS	-14456
amins	-14457
color	-14458
quire	-14459
▁Carn	-14460
▁Shan	-14461
▁barn	-14462
clipse	-14463
▁Apply	-14464
▁Built	-14465
▁Horse	-14466
▁Leban	-14467
▁blues	-14468
estrian	-14469
▁Bryant	-14470
▁Dayton	-14471
▁Shakes	-14472
▁trains	-14473
▁volunt	-14474
▁Contest	-14475
▁Package	-14476
▁Privacy	-14477
▁legally	-14478
▁adequate	-14479
▁syndrome	-14480
▁vertical	-14481
▁terrorist	-14482
▁indication	-14483
▁Philippines	-14484
▁notification	-14485
▁disappointing	-14486
El	-14487
▁_	-14488
/16	-14489
non	-14490
omo	-14491
▁Ax	-14492
▁Ze	-14493
Mark	-14494
osex	-14495
▁MIT	-14496
▁tan	-14497
▁Finn	-14498
▁Garc	-14499
▁Kard	-14500
▁carb	-14501
▁heel	-14502
▁trio	-14503
ewards	-14504
forced	-14505
preced	-14506
vement	-14507
▁Apart	-14508
▁Globe	-14509
▁Truth	-14510
▁fried	-14511
▁hills	-14512
▁intim	-14513
▁NASCAR	-14514
▁Norman	-14515
▁Philip	-14516
▁varied	-14517
▁Spencer	-14518
▁bicycle	-14519
▁derived	-14520
▁gaining	-14521
▁sheriff	-14522
▁Transfer	-14523
▁backyard	-14524
▁unnecess	-14525
precedented	-14526
▁Membership	-14527
▁beneficial	-14528
▁calculated	-14529
▁preventing	-14530
▁widespread	-14531
▁intervention	-14532
TY	-14533
:19	-14534
two	-14535
▁GL	-14536
▁Od	-14537
▁Uk	-14538
Mart	-14539
artz	-14540
inis	-14541
pace	-14542
vine	-14543
▁ONE	-14544
▁hey	-14545
▁Earn	-14546
▁Pump	-14547
▁Tall	-14548
▁oral	-14549
▁Minne	-14550
▁Stage	-14551
▁urged	-14552
▁whisk	-14553
▁wrist	-14554
century	-14555
▁Madrid	-14556
▁Scouts	-14557
▁broker	-14558
▁creamy	-14559
▁jersey	-14560
▁replied	-14561
▁utilize	-14562
▁Teachers	-14563
▁enrolled	-14564
▁laughing	-14565
▁missions	-14566
▁patience	-14567
▁Boulevard	-14568
▁addiction	-14569
▁complexity	-14570
▁mysterious	-14571
▁competitions	-14572
▁discrimination	-14573
:23	-14574
:56	-14575
John	-14576
also	-14577
rams	-14578
▁Typ	-14579
ocial	-14580
plete	-14581
quare	-14582
▁Reyn	-14583
▁Berry	-14584
▁burgl	-14585
▁fract	-14586
▁meter	-14587
▁strap	-14588
aration	-14589
▁refers	-14590
▁stimul	-14591
▁awkward	-14592
▁neglect	-14593
▁Officers	-14594
▁arranged	-14595
▁resistant	-14596
▁linebacker	-14597
▁interviewed	-14598
iov	-14599
▁SN	-14600
▁spy	-14601
▁vou	-14602
chron	-14603
▁1920	-14604
▁Lots	-14605
▁pile	-14606
▁skip	-14607
direct	-14608
▁Britt	-14609
▁Bulls	-14610
▁Scout	-14611
▁Whole	-14612
▁coinc	-14613
▁inval	-14614
▁peers	-14615
▁pulls	-14616
▁spoon	-14617
service	-14618
▁Approx	-14619
▁Chapel	-14620
▁Clinic	-14621
▁Nissan	-14622
▁Sprint	-14623
▁felony	-14624
▁lounge	-14625
▁refuse	-14626
▁Respons	-14627
▁crafted	-14628
▁cricket	-14629
▁loading	-14630
▁touring	-14631
▁wondered	-14632
▁Directors	-14633
▁taxpayers	-14634
▁Discussion	-14635
▁compassion	-14636
▁containers	-14637
▁parliament	-14638
▁restricted	-14639
▁traditions	-14640
▁recreational	-14641
56	-14642
”)	-14643
:39	-14644
Tra	-14645
asa	-14646
eli	-14647
pop	-14648
▁UT	-14649
anim	-14650
camp	-14651
▁Buc	-14652
pring	-14653
▁Shar	-14654
▁craw	-14655
arsity	-14656
▁beats	-14657
▁stiff	-14658
▁Notice	-14659
▁header	-14660
▁rocket	-14661
▁tweets	-14662
▁twelve	-14663
▁trainer	-14664
▁Malaysia	-14665
▁preceded	-14666
▁Economics	-14667
▁democracy	-14668
▁identical	-14669
▁Federation	-14670
▁warranties	-14671
▁alternatives	-14672
::	-14673
-07	-14674
:38	-14675
▁MN	-14676
arer	-14677
bris	-14678
▁Ana	-14679
ocity	-14680
ombie	-14681
▁unde	-14682
rupted	-14683
▁Quant	-14684
▁stack	-14685
▁Flight	-14686
▁Higher	-14687
▁vessel	-14688
▁Certain	-14689
▁advisor	-14690
▁jumping	-14691
▁pipeline	-14692
▁profound	-14693
▁treating	-14694
▁broadband	-14695
▁disappear	-14696
▁separated	-14697
▁Sacramento	-14698
▁copyrighted	-14699
▁scholarships	-14700
▁Communication	-14701
Gl	-14702
:53	-14703
ACH	-14704
BER	-14705
htm	-14706
unc	-14707
▁TM	-14708
====	-14709
have	-14710
▁Pel	-14711
▁Raw	-14712
▁UPS	-14713
ettes	-14714
visor	-14715
▁ampl	-14716
▁pole	-14717
▁sore	-14718
▁Czech	-14719
▁Steam	-14720
claimed	-14721
▁Coming	-14722
▁Stream	-14723
▁casino	-14724
▁floral	-14725
▁Combine	-14726
▁Suggest	-14727
▁assumed	-14728
▁Veterans	-14729
▁formerly	-14730
▁galleries	-14731
▁principle	-14732
▁privilege	-14733
▁targeting	-14734
▁priorities	-14735
▁responding	-14736
▁considerable	-14737
Ab	-14738
:09	-14739
:21	-14740
AME	-14741
SQL	-14742
rod	-14743
▁74	-14744
igma	-14745
inel	-14746
lims	-14747
▁(0)	-14748
▁CPU	-14749
▁Lip	-14750
▁Syr	-14751
annon	-14752
owski	-14753
▁Rele	-14754
▁Ster	-14755
▁wand	-14756
atinum	-14757
▁batch	-14758
▁paths	-14759
▁Bishop	-14760
▁Nicole	-14761
▁Resear	-14762
▁basics	-14763
▁heroes	-14764
▁hiding	-14765
▁melted	-14766
▁novels	-14767
▁thirty	-14768
pectives	-14769
▁Founded	-14770
▁crossed	-14771
▁rewards	-14772
▁surveys	-14773
▁Purchase	-14774
▁Visitors	-14775
▁consolid	-14776
▁halftime	-14777
▁minority	-14778
▁parallel	-14779
▁struggles	-14780
▁testimony	-14781
▁attachment	-14782
▁corruption	-14783
▁travelling	-14784
▁Netherlands	-14785
▁announcements	-14786
OCK	-14787
alg	-14788
▁DL	-14789
▁HS	-14790
▁LG	-14791
▁MO	-14792
▁ho	-14793
▁rh	-14794
path	-14795
▁Bak	-14796
▁Lag	-14797
▁SMS	-14798
After	-14799
▁5:30	-14800
▁Drag	-14801
▁Fest	-14802
▁Happ	-14803
▁Moss	-14804
▁THAT	-14805
▁Troy	-14806
▁prol	-14807
▁wage	-14808
rowing	-14809
▁irrit	-14810
▁queen	-14811
letters	-14812
▁Oliver	-14813
▁condem	-14814
▁crying	-14815
▁entity	-14816
▁sealed	-14817
▁Command	-14818
▁imaging	-14819
▁restored	-14820
▁Argentina	-14821
▁narrative	-14822
▁respected	-14823
▁spotlight	-14824
▁infections	-14825
▁Indianapolis	-14826
________________	-14827
▁́	-14828
aed	-14829
▁ER	-14830
▁FE	-14831
▁SK	-14832
asha	-14833
ishe	-14834
▁Anc	-14835
▁Ern	-14836
▁caf	-14837
dered	-14838
impse	-14839
▁Kill	-14840
▁Task	-14841
▁pays	-14842
▁Eight	-14843
▁naked	-14844
▁Offers	-14845
▁cables	-14846
▁hiking	-14847
▁notify	-14848
▁nurses	-14849
▁suites	-14850
ritional	-14851
▁coastal	-14852
▁pitches	-14853
▁arriving	-14854
▁humanity	-14855
▁upgrades	-14856
▁partially	-14857
▁projected	-14858
▁Charleston	-14859
▁enthusiasts	-14860
▁temporarily	-14861
▁independence	-14862
▁interpretation	-14863
:26	-14864
IDE	-14865
||3	-14866
▁96	-14867
▁QB	-14868
▁SR	-14869
▁XL	-14870
code	-14871
keys	-14872
ulin	-14873
▁(18	-14874
▁2-0	-14875
aning	-14876
izont	-14877
produ	-14878
▁Edge	-14879
▁Shaw	-14880
▁hass	-14881
▁Mario	-14882
▁Princ	-14883
▁Score	-14884
▁bride	-14885
▁reign	-14886
▁Movies	-14887
specific	-14888
▁Margaret	-14889
▁counting	-14890
▁handmade	-14891
▁teenager	-14892
▁behaviour	-14893
▁uncomfort	-14894
▁Activities	-14895
▁recreation	-14896
▁suggesting	-14897
▁controversy	-14898
Gr	-14899
eu	-14900
Out	-14901
fan	-14902
uki	-14903
▁18-	-14904
▁191	-14905
▁COL	-14906
▁SER	-14907
esity	-14908
peare	-14909
ritis	-14910
arency	-14911
oodles	-14912
search	-14913
▁2000,	-14914
▁Chron	-14915
▁Shows	-14916
▁Gibson	-14917
▁offset	-14918
▁rushed	-14919
▁storms	-14920
▁valued	-14921
▁nowhere	-14922
▁strings	-14923
▁avoiding	-14924
▁floating	-14925
▁companion	-14926
▁desperate	-14927
▁ecosystem	-14928
▁milestone	-14929
▁artificial	-14930
▁measurement	-14931
▁specializes	-14932
▁threatening	-14933
▁confidential	-14934
GC	-14935
Feb	-14936
ogg	-14937
uum	-14938
▁3:	-14939
bone	-14940
rise	-14941
▁Eco	-14942
▁RES	-14943
▁Ski	-14944
▁6:00	-14945
▁Apps	-14946
▁Khan	-14947
▁Twin	-14948
▁YORK	-14949
▁dict	-14950
▁fate	-14951
▁gown	-14952
▁bones	-14953
▁crews	-14954
▁depos	-14955
▁sheep	-14956
▁Nearly	-14957
▁Spread	-14958
▁UPDATE	-14959
▁accent	-14960
▁finale	-14961
▁scroll	-14962
▁Cooking	-14963
▁Kardash	-14964
▁prayers	-14965
▁roasted	-14966
▁seminar	-14967
itutional	-14968
▁adjacent	-14969
▁attracted	-14970
▁shoulders	-14971
▁Laboratory	-14972
▁attributes	-14973
▁establishing	-14974
▁illustrations	-14975
▁inappropriate	-14976
DE	-14977
QU	-14978
Per	-14979
fto	-14980
▁TW	-14981
▁lb	-14982
omes	-14983
▁AOL	-14984
▁Pos	-14985
▁Rip	-14986
▁Tap	-14987
▁gel	-14988
▁lod	-14989
eared	-14990
▁Slow	-14991
▁bree	-14992
▁fork	-14993
▁mint	-14994
▁Venez	-14995
▁defic	-14996
▁Hilton	-14997
▁Ravens	-14998
▁Tennis	-14999
▁notion	-15000
▁Arsenal	-15001
▁Storage	-15002
▁approve	-15003
▁strictly	-15004
▁Featuring	-15005
▁coalition	-15006
▁economics	-15007
▁integrate	-15008
▁warehouse	-15009
▁counseling	-15010
▁performers	-15011
▁prospective	-15012
▁incorporated	-15013
gt	-15014
:08	-15015
[...]
